[PAD]
[UNK]
[CLS]
[SEP]
[MASK]
<S>
<T>
!
"
#
$
%
&
'
(
)
*
+
,
-
.
/
0
1
2
3
4
5
6
7
8
9
:
;
<
=
>
?
@
[
\
]
^
_
`
a
b
c
d
e
f
g
h
i
j
k
l
m
n
o
p
q
r
s
t
u
v
w
x
y
z
{
|
}
~
¡
¢
£
¥
§
©
«
®
°
±
²
³
´
µ
·
¹
º
»
¼
½
¿
×
ß
æ
ð
÷
ø
þ
đ
ħ
ı
ł
ŋ
œ
ǁ
ǃ
ǝ
ɐ
ɑ
ɒ
ɔ
ɕ
ə
ɛ
ɡ
ɣ
ɪ
ɹ
ɾ
ʁ
ʃ
ʊ
ʒ
ʔ
ʰ
ʲ
ʷ
ʹ
ʻ
ʼ
ʾ
ʿ
ˈ
ˌ
ː
α
β
γ
δ
ε
ζ
η
θ
ι
κ
λ
μ
ν
ξ
ο
π
ρ
ς
σ
τ
υ
φ
χ
ψ
ω
а
б
в
г
д
е
ж
з
и
к
л
м
н
о
п
р
с
т
у
ф
х
ц
ч
ш
щ
ъ
ы
ь
э
ю
я
є
і
ј
ћ
ү
ә
ա
գ
ե
թ
ի
լ
կ
հ
մ
յ
ն
ո
ս
տ
ր
ւ
א
ב
ג
ד
ה
ו
ז
ח
ט
י
כ
ל
ם
מ
ן
נ
ס
ע
פ
צ
ק
ר
ש
ת
ء
ا
ب
ة
ت
ث
ج
ح
خ
د
ذ
ر
ز
س
ش
ص
ض
ط
ظ
ع
غ
ـ
ف
ق
ك
ل
م
ن
ه
و
ى
ي
١
٤
٨
ٱ
پ
چ
ڈ
ک
گ
ں
ھ
ہ
ی
ے
ە
ܐ
ނ
ރ
އ
މ
ދ
अ
आ
इ
ई
उ
ए
क
ख
ग
घ
च
ज
झ
ट
ठ
ड
ण
त
थ
द
ध
न
प
फ
ब
भ
म
य
र
ल
ळ
व
श
ष
स
ह
ा
ि
ी
ो
ौ
।
ং
অ
আ
ই
ও
ক
খ
গ
ঙ
চ
জ
ঞ
ট
ড
ত
দ
ধ
ন
প
ফ
ব
ভ
ম
য
র
ল
শ
স
হ
া
ি
ী
ে
ର
ା
க
ச
ட
த
ந
ன
ப
ம
ய
ர
ற
ல
வ
ா
ி
ு
ே
ை
ರ
ക
ല
ാ
ി
ක
න
ම
ය
ර
ල
ව
ස
ා
ෙ
ก
ข
ค
ง
จ
ช
ณ
ด
ต
ถ
ท
ธ
น
บ
ป
ผ
พ
ภ
ม
ย
ร
ล
ว
ศ
ษ
ส
ห
อ
ะ
า
ำ
เ
แ
โ
ไ
་
ာ
ა
ე
ი
ნ
ო
რ
ს
ᄀ
ᄂ
ᄃ
ᄄ
ᄅ
ᄆ
ᄇ
ᄉ
ᄊ
ᄋ
ᄌ
ᄍ
ᄎ
ᄏ
ᄐ
ᄑ
ᄒ
ᅡ
ᅢ
ᅣ
ᅥ
ᅦ
ᅧ
ᅨ
ᅩ
ᅪ
ᅬ
ᅭ
ᅮ
ᅯ
ᅱ
ᅲ
ᅳ
ᅴ
ᅵ
ᆨ
ᆫ
ᆯ
ᆷ
ᆸ
ᆼ
ន
ម
រ
ា
‐
‑
–
—
―
‘
’
“
”
„
†
‡
•
…
′
″
›
⁄
₂
₤
€
₹
℃
№
ℝ
™
⅓
←
↑
→
−
√
∞
∴
≈
≡
≤
≥
⋅
─
│
└
├
█
●
☆
♥
♦
♭
♯
⟨
⟩
ⴰ
ⵉ
ⵏ
ⵜ
、
。
〈
〉
《
》
「
」
『
』
〜
あ
い
う
え
お
か
き
く
け
こ
さ
し
す
せ
た
ち
っ
つ
て
と
な
に
の
は
ひ
ふ
ま
み
め
も
ゃ
や
よ
ら
り
る
れ
わ
を
ん
ァ
ア
ィ
イ
ウ
ェ
エ
オ
カ
キ
ク
ケ
コ
サ
シ
ス
セ
ソ
タ
チ
ッ
ツ
テ
ト
ナ
ニ
ネ
ノ
ハ
ヒ
フ
ヘ
ホ
マ
ミ
ム
メ
モ
ャ
ュ
ユ
ョ
ラ
リ
ル
レ
ロ
ワ
ン
・
ー
ㅅ
ㅇ
一
七
三
上
下
不
世
东
中
主
之
九
也
了
事
二
五
井
交
京
人
仁
代
伊
会
佐
你
保
信
傳
元
光
全
八
公
六
内
出
刀
別
利
前
劇
力
加
動
化
北
区
區
十
千
協
南
原
县
口
古
台
史
号
司
合
吉
名
君
吳
味
命
和
問
四
回
国
國
土
在
地
坂
城
堂
報
士
夏
外
多
夜
夢
大
天
太
夫
奇
奈
女
好
子
字
存
学
學
宇
安
宗
定
宮
家
察
寺
将
小
少
局
山
岡
岩
峰
島
川
州
工
市
帝
平
年
幸
建
式
張
彦
後
徐
得
德
心
志
思
悲
情
愛
成
我
戦
房
所
手
打
政
教
文
新
方
族
日
昌
明
星
春
昭
時
書
最
會
月
有
朝
木
本
朱
李
村
東
松
林
校
株
根
森
楽
歌
正
武
死
氏
民
水
永
江
沈
沙
河
治
法
活
流
浦
海
港
湖
源
溪
漢
火
為
無
版
物
玉
王
球
理
琴
生
田
由
男
町
画
白
百
的
皇
直
県
真
知
石
研
社
神
祭
福
禮
科
秦
究
空
立
章
第
系
紀
紅
經
線
縣
羅
美
義
老
者
聖
自
良
色
花
英
草
華
藤
行
西
要
観
言
記
話
語
議
谷
豆
赤
越
跡
路
車
近
通
速
遊
道
選
郎
部
都
里
野
金
長
門
関
阳
阿
院
陽
雄
集
雪
雲
青
面
韓
音
頭
風
飛
食
館
香
馬
駅
马
高
鮮
鳥
麻
黃
黄
齋
龍
ꯀ
ꯁ
ꯂ
ꯃ
ꯄ
ꯅ
ꯆ
ꯇ
ꯈ
ꯊ
ꯍ
ꯎ
ꯏ
ꯔ
ꯕ
ꯛ
ꯜ
ꯝ
ꯟ
ꯡ
ꯢ
ꯣ
ꯤ
ꯦ
ꯧ
ꯩ
！
（
）
，
：
～
￼
##r
##i
##m
##o
##y
##e
##l
##k
##s
##a
##n
##u
##v
##t
##g
##h
##w
##4
##8
##2
##d
##c
##p
##0
##z
##b
##5
##6
##1
##7
##3
##9
##x
##j
##q
##f
##ι
##τ
##α
##ν
##л
##а
##д
##е
##χ
##ζ
##ω
##ᅡ
##ᆫ
##ᄀ
##ᅮ
##ᆯ
##ー
##ホ
##ン
##ʹ
##ꯡ
##ꯍ
##ꯟ
##ꯕ
##ा
##य
##ल
##ई
##ट
##स
##र
##व
##ह
##क
##ı
##ø
##ə
##р
##и
##с
##т
##ǝ
##ෙ
##ව
##ා
##о
##н
##ы
##в
##ч
##フ
##テ
##ィ
##і
##ш
##ᅵ
##г
##ь
##ᆷ
##ᄇ
##ᄉ
##ᅥ
##ц
##ن
##ا
##ف
##س
##ß
##ע
##ק
##ב
##з
##х
##п
##ʾ
##°
##™
##خ
##ل
##ق
##ی
##ر
##ك
##م
##đ
##у
##ł
##ᄋ
##ᅳ
##ᄃ
##ᅩ
##ᆼ
##द
##ж
##я
##イ
##リ
##м
##ю
##و
##د
##ᄒ
##ำ
##ต
##ก
##ว
##ง
##ม
##×
##ि
##ध
##ε
##ο
##υ
##น
##อ
##ท
##ย
##า
##เ
##ข
##พ
##ᅯ
##ᄎ
##ᆨ
##κ
##μ
##ʷ
##ʔ
##к
##ร
##ะ
##แ
##ே
##ா
##ர
##ꯝ
##ꯂ
##ꯩ
##ꯃ
##ᄅ
##ᄌ
##ᄆ
##ל
##א
##ס
##ט
##י
##ם
##ɪ
##½
##ي
##ة
##−
##ו
##ρ
##η
##ش
##ه
##ศ
##ล
##โ
##б
##æ
##ᅪ
##ᄂ
##ب
##ص
##ে
##ব
##ী
##র
##ᅧ
##β
##λ
##ς
##ি
##ল
##ট
##श
##प
##ା
##ର
##נ
##ש
##ן
##ज
##ނ
##މ
##ދ
##ᅲ
##ᄑ
##ष
##ठ
##न
##щ
##∞
##ک
##ە
##ป
##ส
##ช
##ธ
##ת
##म
##झ
##ŋ
##ʃ
##ɔ
##ː
##を
##ꯅ
##ـ
##ت
##ு
##க
##ை
##ய
##ி
##த
##פ
##ʲ
##য
##া
##দ
##ভ
##δ
##σ
##כ
##מ
##ה
##ð
##त
##ो
##э
##℃
##い
##て
##ɑ
##っ
##と
##こ
##ハ
##ム
##জ
##স
##ˈ
##צ
##ר
##ड
##れ
##た
##ம
##ப
##ன
##±
##வ
##φ
##ᅢ
##ग
##च
##ी
##わ
##し
##シ
##ッ
##ク
##ス
##ɕ
##ʰ
##¢
##ط
##π
##ब
##ম
##इ
##←
##ラ
##غ
##ক
##ح
##ꯔ
##ꯎ
##か
##く
##な
##ち
##ゃ
##ᅴ
##ꯄ
##ꯣ
##ꯛ
##ᅦ
##の
##ま
##ᄐ
##ナ
##ⴰ
##ⵏ
##ⵜ
##ф
##ز
##あ
##に
##ᅭ
##ʊ
##は
##ア
##ェ
##マ
##カ
##ミ
##タ
##θ
##จ
##ʻ
##ค
##ห
##ত
##´
##み
##よ
##γ
##গ
##ъ
##ј
##÷
##¹
##ʿ
##শ
##ん
##さ
##せ
##√
##ニ
##ܐ
##ക
##ல
##þ
##º
##भ
##ด
##®
##ʒ
##ถ
##ไ
##ณ
##ण
##オ
##ロ
##ト
##～
##ळ
##ꯧ
##や
##え
##き
##ᅣ
##ى
##ᄊ
##ᆸ
##ং
##ג
##ச
##ョ
##ヒ
##サ
##ツ
##²
##ル
##ћ
##ட
##ක
##ع
##⋅
##١
##٤
##ɛ
##ɒ
##ই
##ھ
##ے
##ौ
##ɾ
##œ
##ধ
##￼
##ɐ
##প
##ო
##ი
##ʁ
##ɡ
##レ
##ח
##ন
##گ
##ɣ
##ය
##ꯢ
##ꯦ
##ꯤ
##ʼ
##セ
##ˌ
##ᅨ
##ɹ
##り
##う
##घ
##³
##エ
##メ
##→
##ა
##ნ
##ד
##ү
##ာ
##چ
##ں
##ந
##ہ
##ج
##ރ
##ら
##บ
##ξ
##ュ
##コ
##լ
##ա
##ս
##տ
##٨
##ರ
##ს
##ე
##─
##ի
##ե
##फ
##ウ
##ᅬ
##ⵉ
##ո
##յ
##ր
##£
##կ
##ᅱ
##♭
##ァ
##ി
##ء
##お
##₂
##け
##ث
##キ
##খ
##ض
##ख
##ꯁ
##ꯇ
##る
##ា
##ន
##រ
##ㅇ
##ម
##ᄏ
##ڈ
##ն
##थ
##≤
##¼
##ර
##ャ
##☆
##す
##ස
##پ
##ാ
##ワ
##ħ
##ᄄ
##モ
##হ
##¥
##ذ
##⁄
##ษ
##ソ
##ภ
##も
##ও
##ঙ
##ꯜ
##գ
##ꯆ
##ผ
##ꯏ
##ற
##ひ
##ല
##ネ
##մ
##আ
##ꯀ
##ヘ
##↑
##რ
##ٱ
##চ
##ظ
##ւ
##թ
##ψ
##ז
##ঞ
##つ
##ꯈ
##ꯊ
##න
##އ
##ә
##ফ
##ড
##ම
##│
##└
##ල
##ᄍ
##め
##チ
##♯
##©
##⅓
##€
##ケ
##ǁ
##ㅅ
##├
##µ
##ℝ
##ノ
##अ
##≡
##є
##∴
##ふ
##♥
##ǃ
##հ
##●
##█
##≥
##er
th
the
##an
##es
##in
##or
##on
##en
##ar
##at
##ed
in
##al
of
##is
##it
an
##ic
##as
##ro
and
##ing
19
##le
##ou
##re
##ion
##ol
##ig
to
is
##th
20
##il
##am
##om
##el
##ent
##st
re
al
##ch
##ct
st
was
##ir
##ad
##ers
##ur
##iv
##ay
##em
##et
on
it
for
##id
##ist
##us
##ov
##ce
he
##ot
##ow
##un
200
##igh
be
ch
##op
de
as
##im
##ian
##ber
##ly
##ation
##ag
##rom
##and
wh
##ight
##ut
##ies
##oc
from
##os
se
##ter
sh
##ia
com
##um
##ces
##ra
##ul
##ign
un
##oun
by
##mer
##ear
##all
##ish
##est
##ith
201
at
##fe
##fer
pl
##art
##ther
##ak
##ere
right
id
##olor
or
##od
##av
with
are
km
199
##ican
align
ne
##gc
bgc
bgcolor
##ap
pro
##ain
##ity
##ill
sp
##ie
con
pe
that
##ac
amer
##feren
en
##ember
le
##ab
##ary
referen
##ip
references
pr
##eb
##ard
american
##ople
ar
##ess
##ath
mov
##ate
##ust
##ant
people
##ud
##ug
te
his
##ld
##ich
18
##ong
mar
wor
##ment
di
##ame
##se
##ub
##ort
##orn
##ver
##ge
##rit
other
lin
fr
##9e
##our
act
##og
play
##ast
##ount
soc
##up
198
##ated
##ell
can
##so
##ial
they
man
fe
##ue
##ive
##ore
us
##ost
##pt
ex
cl
this
also
new
##man
ab
af
##ates
##orro
197
##ited
##land
linear
tr
##d6
socorro
not
##ok
##if
has
pol
##ang
##uc
she
##ine
web
count
##ph
##sit
##ome
comp
##ical
##ors
##ave
bo
part
ap
were
##ik
##ach
fir
comm
##lish
sc
bir
websit
##ack
united
##end
born
bec
##uary
##ib
##age
##ord
##ry
first
##own
ser
##iz
##ure
##ey
car
me
##out
one
##mp
196
##00
nor
her
##ions
##ans
##ths
##ace
which
##ict
202
##ond
fo
states
ad
##ass
mus
col
##ational
##ime
death
##pe
eng
##ide
ind
kn
##ern
##ory
##wn
##ound
##amp
##fefe
fefefe
all
births
have
liv
may
websites
17
ro
##cl
##ous
##ice
la
##qu
##ance
##ball
there
ph
city
movies
##ician
##ade
jo
2000
par
year
fl
ag
after
tw
##ater
##io
##te
cent
10
e9e
##9e9
e9e9e9
##ree
dis
##ens
##tern
195
their
had
but
194
sou
##der
who
##ision
##ics
br
dec
bl
##one
ac
polit
##to
##aus
##ock
16
sept
##lect
pres
september
rep
foot
world
gro
193
sing
off
deaths
##per
##ild
its
##und
##les
##ick
##ual
15
call
football
12
about
##une
##ult
per
11
jan
nov
##lev
dr
2001
known
go
##ward
##ec
some
##ah
song
war
min
ger
most
res
mon
when
bas
co
many
##sp
county
##ings
##ivers
##ks
##gh
movie
oct
14
##ire
##ents
cont
##act
##ations
##ober
##old
##ustr
##ied
##ake
##iss
##we
october
two
##uch
##ite
gr
ev
##ince
d6
writ
##ne
d6d6
d6d6d6
##erson
##ould
march
192
rel
up
sch
##ence
13
used
called
national
##istr
south
pop
##ton
sy
ed
##ists
sa
do
##ities
north
##ery
aug
gen
rec
time
reg
january
##ts
german
made
##ind
##ames
##ile
august
##ugh
##ff
bro
##ina
state
##ress
##ments
telev
##ose
##rect
sec
am
living
##ys
television
politician
gre
austr
found
##als
dep
##clud
so
actors
pre
brit
char
##ten
##ons
##ail
##uct
est
hist
will
includ
des
sw
univers
ear
december
cr
more
elect
##ob
direct
##ese
li
alb
##ident
##uring
##ough
november
##ition
died
##0s
##ork
bu
king
##apan
gu
english
team
##ike
##ages
we
japan
##orm
1999
##ril
##ebr
app
ge
out
been
##gan
tra
##olog
bet
fam
gov
work
ju
into
##ause
##ale
##itt
##ix
##span
april
distr
##atch
febr
sm
february
govern
##ier
##ins
cal
over
##az
##ays
po
group
med
str
air
sup
##ica
##ague
prod
##vel
2002
##ft
##raph
##iver
##ury
series
##ubl
joh
ma
num
hel
during
town
bel
art
commun
lar
##ablish
album
british
##inn
award
stud
##uro
##anc
##ep
##hip
years
cre
them
##aw
league
offic
france
##leas
##enn
##inal
##ood
popul
became
high
##uss
el
cap
how
president
##son
july
##oll
name
ass
only
##ash
prov
ter
form
att
##ograph
because
##ank
university
imp
2020
##urn
##eral
##ama
john
district
##alian
music
pal
##ily
no
191
##ool
establish
releas
mo
qu
##icip
mun
played
him
24
##iet
like
than
these
show
##ann
25
player
start
##int
star
##ett
##imes
##ism
euro
sur
##cess
##att
intern
##iel
##ley
serv
june
##port
york
end
##ween
spec
21
between
##ench
bar
river
met
person
lang
##able
main
##ouse
book
##ai
canad
##oman
history
second
##ffer
30
##res
op
##ional
2003
##ely
##uk
again
##ures
##urr
number
depart
where
later
under
mil
##ient
##round
##ve
1998
french
row
##air
2005
##way
2004
school
long
champ
municip
municipal
##ss
arm
three
record
langu
best
such
life
very
##ative
##til
official
then
##are
players
law
##ublic
##ason
##ower
##ll
fil
party
chr
care
century
##iam
sl
thro
former
child
europe
##ement
mod
##ister
2010
23
##ase
ob
lead
##pl
since
##form
old
won
22
##cer
##fect
west
would
ty
space
##emb
##ital
har
##gr
2006
##ather
sk
##ect
##ually
29
##fore
related
sub
bus
differ
back
list
released
band
inst
28
2017
##ren
2019
##ium
until
26
val
cons
##amed
different
##ious
bra
establishments
sport
four
##rop
department
russ
lo
##ets
je
games
rowspan
game
day
actor
inter
age
prof
club
member
ii
island
2007
sim
international
##ats
##ri
area
div
##aint
loc
27
##eng
2014
emp
ret
##ung
ang
rock
##enc
##let
trans
if
2018
acc
house
##sh
##ron
##oss
ste
##au
before
through
songs
inv
government
land
##ott
region
family
phil
##bert
2008
compan
190
##stem
gl
small
##ants
career
kill
##ise
singer
rem
use
##omen
anim
##amm
my
system
well
##ating
dem
##ms
##ology
hum
##thern
make
water
2015
##its
champions
ever
based
2016
produc
ann
##ution
general
red
em
christ
same
31
##ography
##ull
000
geor
2009
mill
east
2021
##ino
##gest
##ont
2011
##bo
##ert
##ck
mak
did
organ
##app
you
##ines
##ds
being
##ange
##dom
cities
##co
cro
wal
often
oly
olymp
##ark
##ural
orig
season
peak
##ator
leg
ep
##els
##ae
calif
##urg
californ
##ral
afr
##ble
pages
indian
##ee
arch
##ounc
build
california
##ove
port
##ever
miss
bre
named
near
##ject
country
language
vo
##ollow
##ered
actress
2013
women
##cc
japanese
own
##oph
ra
early
vill
germany
sports
both
##alia
##ky
##ific
##erv
tre
place
fin
mount
started
roman
cor
charact
##iew
run
against
##ives
##omet
winn
const
##gy
pa
kingdom
##fl
2012
comed
sen
##ata
each
ir
said
any
tex
website
disc
##aly
profess
follow
mag
1997
ec
##yn
black
oper
stat
england
italian
communes
##ony
rev
great
cup
inc
population
sum
##ians
mich
su
##ourn
commune
##omar
sal
av
while
##rest
mid
vide
live
lond
##ene
now
film
1996
##red
tak
##uth
##eter
london
palomar
ke
189
help
##ara
however
around
last
kitt
##velop
minister
##ger
##urch
politicians
add
##ana
class
hol
##ize
examp
##ature
im
##ane
2022
common
including
province
children
##elf
int
##watch
rad
head
develop
##ink
##iation
##ric
sever
sol
def
home
##br
##ful
bi
god
maj
usually
appear
directed
##ison
way
cov
spacewatch
championship
1995
repres
##ains
##ling
set
##iness
##atic
design
##ody
far
##ille
big
san
##yl
var
cour
vers
uk
progr
municipality
musician
##ode
curr
thir
##other
##ries
##ows
neat
could
compos
gold
just
lou
##ago
cast
##ield
america
##ner
##estern
power
es
import
##rog
##ined
canadian
several
video
hy
sign
drama
##ret
memb
##anish
mal
caus
##istan
1994
##ones
australia
##ried
top
del
youn
##by
good
pat
##ular
##ze
##onom
vol
though
open
da
major
##ction
park
colle
lived
william
##ized
ill
business
mes
##ible
vir
church
down
##lo
attack
1993
what
##ald
represent
eas
company
members
ext
##ilt
188
tit
mer
1992
india
son
vi
times
##he
##uction
##ney
##ala
##itz
anderson
##na
every
100
colspan
##ved
tur
##50
assoc
##adem
##ipp
single
##day
public
large
created
##ute
mass
##ience
##omin
pub
##burg
##cr
swed
pass
##ps
##ues
rich
##inc
ber
white
short
capital
chang
camp
##ler
men
present
##lex
adv
another
writer
##ham
##ke
##ka
suc
popular
began
186
##ington
cancer
batt
dav
##ico
milit
don
original
1991
phys
grand
get
current
important
##que
ta
australian
order
spe
bill
contro
##20
##min
saint
left
publish
manag
cens
super
color
##tain
1990
academ
million
russian
##writ
real
##ief
mark
went
mor
histor
##cept
##ams
tem
ant
light
deb
##uck
example
giv
census
cult
##esh
187
director
exp
nat
species
prime
union
compet
##ty
win
##bs
mesa
##ven
countries
even
center
central
civ
gra
mex
towns
##ract
##ived
##ford
scient
cy
er
##ush
sil
political
democ
writers
books
somet
braz
mas
1989
comedy
##side
famous
educ
##berg
written
angel
##me
arr
##ior
cat
rh
##40
##ma
##80
military
##ring
groups
##ya
third
los
brazil
hon
much
##30
six
father
spanish
western
sometimes
kh
##people
roy
lone
still
vis
##ockey
human
include
support
paul
sov
army
republic
means
canada
dut
##ices
line
summer
tot
fre
##21
sea
cath
flo
see
##thers
enter
activ
##ien
##thing
ur
civil
1988
tal
##omb
james
econom
sett
mean
loneos
sold
wind
lab
occ
journ
pos
jack
hockey
flor
gree
five
##60
special
epis
gir
##umb
##ided
professional
vict
##xt
##yle
happ
##ired
##gin
##ida
##itar
fem
auth
college
married
cam
##ves
heart
1981
##ena
albums
##idge
wrest
##ots
50
match
##aces
earth
##ius
largest
contin
social
cond
final
que
result
ha
##10
1987
##lin
##ides
hal
built
##tt
mart
works
louis
northern
##rote
story
body
##ency
##istics
comput
frog
stage
european
election
##chn
stand
1986
need
democr
engine
##led
40
##uel
bal
##37
george
##anch
young
arg
awards
want
rece
##aur
franc
##ij
net
does
dise
##ael
division
ver
##pos
governor
##ple
wrote
footballer
tour
##47
green
hand
aut
stre
##alth
ent
1980
fif
came
soviet
total
##ville
proble
##25
italy
fri
##ania
success
took
chic
expl
tro
fed
##epend
bur
##27
mur
medal
##ek
independ
given
##41
##31
hen
1979
##por
1984
##ansas
lat
##49
kore
##iod
conf
term
##for
1985
become
texas
voice
1983
moved
china
along
rul
ve
##itch
held
##29
##48
chicago
love
kar
jew
##ster
chem
##ised
pak
##45
modern
wash
mont
##ife
things
equ
friend
hall
author
rail
got
battle
mc
##gress
##ano
##iter
##aced
mad
version
character
##ids
association
##ars
word
nys
sn
stars
food
##amb
##gether
1982
fire
radio
##ival
##26
##28
##pes
tom
sun
##lands
##35
##39
ze
following
bad
##ured
chin
##par
dou
guitar
robert
##ories
hot
rom
look
hard
##46
together
##ness
1973
jose
dutch
period
1977
trad
lu
role
##rod
return
founded
sym
##raft
station
1976
ice
using
events
##ady
##illa
crit
science
##ges
ho
put
killed
##ona
david
event
journal
##36
fight
rest
techn
worked
cop
turn
take
secret
type
footballers
##olution
royal
tv
court
level
african
##ators
dev
##38
##iety
mot
counc
road
185
municipalities
sound
##ula
fun
##iro
prote
1972
mother
broad
scott
jud
##af
relig
##aving
##ander
southern
##pect
published
plays
squ
muse
ben
##ev
personal
side
den
1978
parts
asia
plan
##70
##ught
stop
next
statistics
##11
1974
##avy
et
hor
sex
leader
##itions
artist
feat
##uted
ide
free
os
natural
##ning
##ilar
##ases
descr
35
ath
thom
##ittle
pakistan
card
night
served
sent
local
fict
1975
few
washington
africa
chinese
##90
scre
atl
pict
conne
obs
##ota
days
village
alex
musical
ref
1971
ara
aged
##arch
girl
##eth
disease
prom
hill
##ility
council
fall
making
##writer
rob
christian
angeles
little
ce
perform
sam
##lements
##olic
empire
dan
##rael
mel
cir
##yr
museum
##ote
##dle
##antic
1960
mat
##ki
##ically
##cy
##ells
site
emper
ham
belie
press
organiz
charles
##oth
sat
math
democratic
fish
caused
##ally
israel
pet
michael
find
musicians
surv
virgin
becom
ten
##ha
similar
ast
beg
##itzer
non
rap
style
post
##odes
1970
spain
inform
lake
data
##osp
constit
cant
##ified
##ounced
##cle
studio
say
turk
seat
prev
frank
##aland
wood
##nes
det
reach
##go
host
office
richard
carol
less
point
repl
36
lot
##work
led
mary
##15
##ways
##gian
collect
##ta
phot
producer
paint
1968
places
##19
admin
those
sportspeople
gar
##iers
records
##mon
olympics
##earch
rights
eastern
##ump
88
academy
1969
research
mix
sant
struct
test
thought
ball
lim
##aster
paris
accord
lost
control
today
az
##ument
islands
cle
territ
ox
novel
nob
speak
without
grow
fact
discov
70
due
tor
coach
pun
service
coast
seven
money
##ying
##emat
building
sour
characters
##ero
teach
mem
beh
dest
##ced
##75
##ches
##ef
20th
singers
read
bord
##cial
nomin
mac
dam
1967
45
##be
prize
ru
mult
poet
ca
##18
exper
##ket
##ged
oh
brown
80
middle
##eration
##ude
anc
##line
##ba
cla
prem
fail
sit
florida
##76
##ani
##west
wil
##78
computer
must
languages
parl
located
dist
produced
cross
##ened
1964
emperor
##16
greek
elected
pur
peter
ol
##cast
trib
38
##23
connect
60
##uts
conv
prim
##24
bor
shar
received
blue
##ura
##ention
exec
39
##inois
others
fur
##rew
teams
strong
sho
seen
away
screen
##ued
lib
##den
##uce
instit
illinois
republ
administr
##ted
##atives
buildings
austrian
title
##wa
parliam
##gar
##oles
ef
allow
##iga
georg
health
late
consid
according
##ror
clim
force
makes
bay
low
round
russia
report
key
90
fer
mexico
news
##ended
problems
parliament
wife
##ini
prot
kansas
pap
chart
switzer
##79
community
zealand
##ored
switzerland
ancient
prefect
inf
chief
##sy
##ughter
##ours
should
olympic
##ita
kind
scientists
race
##nd
##aves
playing
sweden
##43
wall
##ead
track
##ffic
75
1966
##wood
information
catholic
process
education
fa
##ado
##ari
alm
##ape
mos
let
##ropical
##hi
alth
##ope
know
ok
##ground
##gypt
hit
police
formed
##ped
##ished
resp
oce
cert
gall
mr
areas
poss
##my
##ols
##iana
although
storm
hung
##itional
du
female
##66
van
infl
norm
change
basket
treat
shows
der
egypt
##ctor
pen
##ga
##ergy
##uke
composer
catal
bab
thomas
chann
##atory
effect
hold
virginia
woman
cit
train
announced
henry
##ye
pan
describ
1945
95
lives
##oon
##olf
animals
argent
65
dra
iv
refer
queen
##ained
1965
85
pain
##field
republican
33
##oma
##adu
voc
##ops
society
##22
gun
##lic
##44
congress
##lad
##cent
joined
##ament
mathemat
##ipt
180
action
##board
99
half
##oms
boy
eth
##ii
##ris
iran
##ender
hun
basketball
##onia
birth
##bc
sand
##eball
changed
##era
among
brazilian
##gen
1963
##ew
bud
includes
##ima
mountain
##med
les
never
viol
brother
cand
arab
francis
##icle
penn
##lam
lear
##72
tenn
defe
baseball
##che
ship
##ca
##za
hurr
full
nick
##osoph
##of
mostly
48
uses
airport
prince
episode
##ances
sar
nether
clos
blood
##wards
##asons
words
cur
##hl
98
##ja
hurrican
come
##oria
swedish
##leg
bank
##ements
engineer
scot
dead
1956
philosoph
jun
winners
1962
86
notes
1950
hosp
##idents
culture
hom
ire
network
##olk
ba
project
prefecture
##oy
field
##ersey
1961
prison
daughter
netherlands
whe
earl
board
winning
instr
production
##33
lawy
development
bul
##craft
ireland
##eland
##42
##thod
model
too
bc
mic
##de
##77
##aries
1948
austria
96
1947
product
gave
rac
carolina
entertain
dig
iss
##ste
##icles
jer
energy
##ked
##ength
within
think
##ban
anth
32
included
fest
break
78
##ogn
##ission
tim
federal
coll
##east
##ada
##ims
portug
gh
##aut
program
##uz
comes
##akes
types
forces
appeared
##etic
55
cho
having
##12
better
dog
distrib
dyn
##uit
geography
thr
ins
jersey
spring
value
##ais
media
##99
wanted
##bon
##ato
street
##bor
once
##lement
instead
##row
cost
liter
companies
00
46
##ador
plant
##ux
tropical
##isc
crime
##ests
perfor
die
movement
max
1946
sug
ohio
1957
lower
view
comb
mach
select
taken
lee
##ny
1958
metal
influ
columb
##arian
##iger
1949
almost
68
separ
76
##ems
martin
1959
##awa
##ming
##ware
##17
##wor
pot
##view
##osaur
1942
##cul
flight
animated
sus
songwriter
##ique
##iding
##iff
wrestling
1951
##ological
meaning
independent
front
##ox
##jan
1940
map
1939
##wer
1930
invol
1952
sem
2023
jul
introd
pers
##ker
##95
jewish
established
1954
pie
##itect
working
names
kor
broadcast
##ube
settlements
representatives
inh
polish
week
smith
1936
##13
ros
cann
centre
##sych
##lete
##isl
eight
luc
##ym
counties
aver
##ellow
developed
1955
1941
##bers
scottish
object
iii
##com
architect
soft
ocean
appro
keep
##iy
bang
##eder
1944
transl
##gb
1934
ukra
##igan
observ
text
bern
tar
dark
pictures
66
says
##abit
kent
channel
##ither
cra
georgia
##98
corn
##zo
transport
##agon
nar
##iest
islam
above
past
colon
covid
plants
medic
##ola
done
##ared
fort
##ross
theat
manager
bat
box
##aker
wild
tree
##lor
ground
1933
irish
psych
premier
##get
na
considered
##ting
study
##itan
travel
##ih
##da
##anger
minist
hale
##ova
becomes
hurricane
gard
studied
##gg
##ification
##acy
position
1938
##vir
##iple
##32
highest
mayor
cart
##96
qual
##ference
##ider
able
jim
##elling
##ental
kr
friends
secretary
proper
murder
bridge
1990s
##aria
##ondiss
##ylv
chemical
1929
bass
arrondiss
pian
hospital
##itor
rain
##ints
178
magaz
parish
canton
decl
##roy
fox
release
currently
##ko
winter
priv
symb
leon
1935
various
fiction
1953
34
##ston
pay
##14
incre
advent
give
joseph
##car
heavy
##umn
1937
stan
performan
temper
##self
##vers
##uh
mater
##ashi
##ylvania
libr
56
glob
fly
wars
golden
chair
##over
writing
1943
fifa
carl
goal
som
1931
latin
here
disney
scotland
silla
retired
stra
##etts
review
ven
eos
jr
##uced
himself
rank
biography
##unch
relations
vot
requ
aud
##achus
##oh
##read
champion
fourth
##utes
pas
37
##ua
##men
territory
##34
##eds
bob
##ination
electric
revolution
burn
citiz
##ought
jackson
month
male
##vin
your
silver
jean
artists
haw
penns
doc
might
least
##ately
##aff
opened
results
lie
move
senate
1932
massachus
1928
##ologist
wales
massachusetts
lord
##ils
korean
500
##ouri
cycl
railway
eat
##akala
fac
il
##ards
lik
pac
##oo
meas
conduct
ended
reb
cause
##used
##ishop
##sel
##ella
professor
##oul
##oint
pennsylvania
haleakala
sir
liber
case
average
native
prin
dar
rivers
conserv
##stein
##aka
recorded
fig
material
originally
edward
successful
ren
complet
wat
mexican
micro
crick
medical
##zech
nations
asian
fc
##ucle
react
##king
ww
1980s
sort
fore
##ulf
deg
sav
certain
across
opera
presidential
amb
##mar
czech
ray
##cially
mah
missouri
cell
protect
drum
89
close
journalist
meet
climate
1926
valley
##bour
recogn
19th
envir
##owa
districts
exist
performed
1927
bow
ul
drug
aff
##ently
##utive
castle
##ios
##ette
assemb
##aign
always
korea
plat
cer
takes
environ
services
mainly
##ira
##apt
festival
ident
shr
catalina
##urs
arts
inside
ban
##reg
adult
##eld
##ales
##azz
08
##band
anton
failure
##less
nucle
leaders
entertainment
##hol
58
hind
dom
##li
previous
cele
crash
students
mountains
candid
either
nominated
##la
##ned
##erb
months
programm
##osh
cub
##dy
##71
beat
##face
css
##itive
##ending
05
roles
gal
od
##tar
circ
ran
fle
bron
brand
hop
##mark
numbers
1925
capt
##any
princ
gas
##iev
##kh
theory
commit
dre
fut
##ias
schools
##elle
villages
windows
che
ken
espe
cas
##bab
cab
pract
##orf
oppos
dynast
##ole
##abeth
##oke
something
changes
minor
debut
astron
mir
stad
fame
##ji
background
campaign
peace
doctor
page
##uf
hus
cou
##ively
##ense
ut
amount
magn
gradu
sister
maria
goes
invest
outside
institute
especially
sequ
##off
dance
wid
inj
episodes
painter
fair
##shire
viet
shoot
tourn
honor
seats
systems
##gl
structures
##ends
range
vice
##ores
##iles
##inning
wr
branch
tax
nav
##ques
orch
pope
##och
##73
foreign
iowa
birds
programs
cd
##reme
helped
method
aircraft
idea
##74
bon
destroy
poland
michigan
nobel
##owers
danc
border
ash
##kyo
roll
##yd
##stand
##ivid
electron
constr
speed
##ites
##rey
pu
1970s
59
##ression
further
legisl
environment
magazine
##igr
square
bomb
market
log
domin
shown
imm
##play
religious
reached
britain
06
rod
going
##agn
singles
origin
newsp
historical
signed
newspap
interest
arrest
atlantic
##uments
1924
##urt
spir
independence
replaced
tun
esc
seasons
1923
columbia
competed
officer
moon
##aki
##gn
hyd
technology
abb
enough
assembly
1922
stories
tokyo
##idence
size
##bur
stone
##anda
lay
rout
inse
musl
stay
duke
individ
vietn
nord
concer
bh
##outh
##ume
founder
##heim
bav
organization
pil
library
pred
79
goals
laws
mess
##va
added
2000s
##cel
##ensive
possible
naz
##ati
championships
kil
ron
internet
returned
agre
##ropol
##oto
hous
master
features
69
regular
syn
rome
##use
##aged
##yan
decided
philipp
lem
serie
animal
ak
##ora
soon
##inson
##rick
gramm
ach
executive
invent
dynasty
sax
celebr
1920
commer
individual
our
##ipl
date
conc
launch
ram
##inian
assist
##col
miles
genus
1960s
##the
##edia
stock
##str
cover
parents
##ads
northwest
##lah
2010s
minnes
upper
allowed
bands
bell
oil
##ateg
##ization
barb
wa
##pr
critic
##iated
jac
minnesota
##aska
cannot
armen
autom
tam
##bach
louisiana
quick
bost
1900
killing
performance
flag
theatre
charl
commission
##rd
committe
##empt
shot
wel
##ois
stations
pls
##ila
ts
egg
##ips
##icular
saw
trade
yellow
activist
soldiers
cases
##ex
alexander
jeff
##ali
oldest
ic
##adel
stadium
matches
eun
block
francisco
deput
##airs
##akh
##chester
interview
##win
##iller
avail
cut
except
pacific
gallery
contr
boston
##mann
points
175
winner
rule
berlin
standard
princess
##wan
forms
htt
chile
gian
particip
longer
##orial
divided
wwe
din
aqu
150
##mont
hero
##ros
1921
##ria
oklah
pier
##jo
traditional
ey
165
##ken
cook
jazz
studies
##well
oklahoma
kid
##iences
steph
feel
eliz
beginning
##ights
49
##ades
humans
vocals
##sen
forest
metropol
##ply
code
cry
##ami
finished
lady
romantic
rang
lov
ark
##teen
mario
smaller
fast
##can
##idae
##aine
orchest
length
lgb
##illy
neg
lgbt
##ased
cold
ring
source
religion
##pa
neigh
joe
ther
dun
bol
ris
step
sel
private
nas
industr
1918
famil
awarded
fel
emer
##hood
##wh
lawyer
##hire
jon
online
bund
arth
ah
literature
##aya
foc
discovered
87
brain
mob
true
daniel
##ucky
bbc
continued
available
fant
promot
economic
##isions
committee
##agan
command
##umi
##enced
designed
1st
rog
##ito
belgian
collection
beach
ly
deep
##ential
tall
kings
##ees
##inger
swiss
pand
albert
scr
##ounds
johnson
jones
examples
##writers
##endo
##establish
someone
software
owned
believed
##ift
sources
rules
table
higher
##urity
citizens
va
iron
##zy
anti
alab
##riage
pick
appoint
told
causes
ess
starring
regions
weap
infect
##ela
introduced
accident
##iting
probab
surface
americans
swim
captain
92
##uten
victoria
atlant
senator
wik
##rid
justice
disestablish
businesspeople
ga
frogs
running
future
kong
gets
harry
nine
myth
##war
job
nation
alabama
42
gett
chap
chemist
##rich
access
medicine
uef
abd
ministers
commonly
contains
kob
##ustry
sexual
##lers
active
kir
sud
industry
##don
beaut
watch
##inet
##lications
banglad
##selves
organizations
jes
businessman
santa
bangladesh
tournament
176
quest
labor
kim
1919
athlet
pit
occup
lands
happened
motor
bavaria
competition
kan
niger
formula
elizabeth
##iced
legal
##ran
particular
attempt
planet
described
uefa
##mas
inhabit
##lines
face
navy
relationship
bishop
indones
##abb
selected
##itted
fictional
##enna
metropolitan
lett
ways
kentucky
von
mississ
##kn
tan
arrondissement
edition
elst
self
300
##chan
politics
belong
article
##eda
##enty
##ippi
ko
polic
leading
##din
husband
spok
believe
py
directors
claim
mcc
racing
##asy
tel
affect
tried
##ving
themselves
quar
##aining
fal
alph
elections
170
nuclear
belg
harv
freed
##ipe
usa
document
##mond
larger
constitution
pra
##tim
09
guard
##onto
subject
corpor
nhl
distributed
##ule
diffic
rat
##har
williams
impro
##elly
cells
digital
photograph
hug
starting
##inces
norway
gener
israeli
anne
turkey
difficult
temple
letter
security
orb
throughout
ontar
ontario
alf
tenness
spread
##aps
reading
ott
##mir
girls
feet
behav
93
argentine
acting
raised
swe
fifth
64
lines
mississippi
tennessee
##cher
##elled
brought
desert
81
ky
##aven
below
kenn
remov
cultural
##emic
contest
84
##phia
grew
##tra
create
org
##anth
finn
imper
##iction
cricket
clubs
www
itself
crim
wear
##inct
83
##upt
las
bull
older
astronom
elev
mand
presidents
multiple
skin
##iment
plann
followed
wide
##ders
vote
base
##85
provinces
print
bush
temperature
arthur
soccer
156
administrative
##osl
##isa
biggest
behind
dor
##ram
brook
azerb
indiana
schol
##edy
##ourg
nic
altern
nap
ot
philadel
97
179
1917
azerbai
91
nint
nature
77
spl
producers
##burgh
tell
chris
philadelphia
billboard
sle
##ingu
suic
lor
##eas
rose
inn
jane
ethn
##itage
paraly
tou
marc
godd
reason
accept
##iving
pho
era
deputy
loire
slow
machine
officially
slov
rot
##oid
##kin
bod
spr
##aga
baby
passeng
nintendo
marriage
addition
entire
##utions
trump
##ava
hours
enc
bah
ira
##itude
##uries
youth
##hib
reported
nik
82
eventually
singap
toronto
disestablishments
unit
marsh
notable
bronze
wolf
##kins
tele
vietnam
staff
bird
films
protest
families
inhabitants
cree
mamm
degree
##una
2nd
1901
singapore
##icted
belgium
categ
leave
##bury
andrew
##amin
mission
ideas
##rol
##phy
soul
primary
poor
ale
##86
abs
scul
sac
##cest
communic
join
##posed
medalists
veh
fund
##ax
##gu
mosc
pul
120
hills
defeated
palace
problem
regional
##wide
thous
andre
alt
##osph
carbon
profile
airlines
folk
chairman
thousand
farm
47
foss
path
foundation
physic
heritage
turkish
constitu
94
contract
stro
##western
basic
init
physics
generally
comedian
snow
blues
greece
sky
editor
saf
greatest
conference
rub
needed
adventure
paralymp
##liga
budd
##uese
enem
hem
portuguese
evolution
composers
appointed
##uv
rio
tay
##rison
quickly
dipl
rug
suggest
nep
fav
norwe
goddess
brothers
cham
write
##ikh
sab
queens
han
mechan
economy
respons
eag
why
deal
pad
##uses
whole
damage
##ners
mole
guitarist
weather
donald
billion
moscow
41
terms
##iac
tony
philippines
gives
ago
400
heat
##ghan
supreme
argentina
electr
##onsin
controll
express
khan
##ho
##bridge
urban
##ients
lew
sculpt
hair
borough
runs
rand
southwest
talk
holy
clear
hungarian
engineering
destroyed
arkansas
normal
hund
charts
norwegian
element
##nel
probably
calais
trees
kept
hay
wisc
anal
physical
rhin
orchestra
ib
44
constant
surround
##uan
parties
##istic
1914
taking
wisconsin
becoming
paper
wing
##osed
bott
northeast
sev
cin
lung
ukraine
ped
##orpor
syd
newspaper
##back
asked
reign
43
hong
spirit
teen
##iot
happen
bundes
##rian
km²
74
##ika
tells
complete
portugal
jesus
##ologists
fighting
mathematician
gil
##uation
scored
##her
##cks
##rem
##acter
resign
kal
trial
liver
southeast
philip
##han
units
letters
structure
distance
mike
##ilities
orange
rather
thm
complex
islamic
try
horror
judge
colomb
##erve
teacher
hu
symbol
tag
hundred
drop
driver
##onic
fantasy
upon
##ws
typ
visit
recording
fat
##ancy
universe
attacks
##mit
dream
grammy
##iate
cher
respect
##sa
serb
spoken
fought
shin
##iang
dif
monarch
alg
51
bond
gab
kam
unl
calend
afghan
1912
stanley
fu
cust
bit
signif
57
tas
observatory
tai
explor
cos
legend
jews
##vert
emb
##55
boys
section
##onne
##ship
room
##ori
bos
diam
poly
danger
71
offer
tower
##ready
crown
nam
##icated
##real
grant
ruled
wilson
wee
##88
1950s
thriller
sydney
terror
##encies
pack
marie
##head
zh
croat
##enez
equal
kaz
administration
tennis
cars
dak
covered
double
chess
raj
franch
##ogne
suffer
critics
reviews
72
simple
emplo
##ences
student
ye
fred
involved
meters
kat
##zh
##uki
dry
##rence
moving
##rie
begins
additional
##reat
graph
matt
jur
slav
picture
shap
already
memorial
lists
iranian
bed
##ayashi
function
getting
##ties
investig
##unt
##ello
hip
##utt
turned
training
learn
110
appearance
powerful
gang
sin
adop
christmas
princip
understand
##ires
steve
##ctions
130
universities
finland
##iption
alpes
johann
1916
spent
diplom
twenty
commercial
survey
http
##last
denmark
sad
mis
confl
##ping
gala
leaves
##sey
52
##roit
gay
positive
forced
manchester
charge
earlier
cred
illustr
stephen
creek
hart
freedom
piano
elements
carry
solo
##ields
##ilton
lit
##eck
gor
morn
cel
freder
minutes
##sex
nag
diss
ali
desp
managers
lyr
towards
##eman
whose
##cts
walter
67
##rogen
programming
hungary
##een
greater
si
listed
ethnic
greg
sites
liberal
bach
##icut
##oud
##uri
loss
troops
stopped
ka
volley
oxford
kl
fash
##ls
frequ
assistant
placed
mixed
tail
confir
junior
platform
##known
route
elector
representative
sund
##ceed
chall
historian
##ension
##neum
mom
##izes
pandemic
mobile
passed
starts
christoph
1910
dougl
##emon
search
figure
eyes
##orporated
lif
construction
eye
jam
1915
historic
sciences
1913
##bi
subst
featured
generation
victor
##hold
weight
calendar
garden
##attle
taylor
estim
spee
54
detroit
separate
lawrence
workers
##onian
flood
lux
wheel
vac
##chen
1911
launched
worldwide
designated
connecticut
instrument
federation
cartoon
om
eggs
iraq
sher
screenwriter
unknown
ariz
classical
kilomet
supported
maryland
suicide
##ising
scientific
conservative
##omp
effects
wrestler
##ability
limited
exc
155
colorado
##ardo
##water
flu
1908
egyptian
candidate
sail
concept
kinds
significan
apart
reform
galax
weeks
communist
##station
##icks
cathed
lemmon
lieuten
##alo
seg
piece
fashion
merged
chamber
lock
##oka
bundesliga
plot
nearly
arizona
opt
##inary
communities
##aded
##iday
majority
tran
bring
##uay
industrial
04
comic
romania
lyn
houses
imperial
bag
contrib
earthqu
meant
holly
represented
##iny
quarter
j1
gods
lawyers
pig
commander
##ados
manuf
pneum
manip
financ
pressure
##ili
status
highway
treaty
ax
##arm
##ema
manufact
mp
##ez
und
agric
volleyball
fell
##wick
lev
dakota
sid
ukrainian
affairs
dies
vas
##fall
kobayashi
ambass
note
ern
##ebec
falls
moh
horn
ancest
disord
merc
lyrics
draft
hyg
products
resist
sleep
##igen
feature
bright
labour
headqu
##ras
eld
thing
acid
draw
plane
finally
hotel
nepal
mi
##more
global
weapons
##isation
##ammad
bacter
account
vienna
shape
##dam
closed
3rd
mut
ow
dail
progress
jord
nickn
##aled
##ci
73
starred
deter
younger
concert
azerbaijan
kur
oak
flat
versions
##aux
##iden
bear
activists
lieutenant
walt
composed
douglas
comics
hans
##astic
trains
##ista
subur
intell
##bourne
muslim
liga
##aro
lincol
##eg
##tic
agricult
lincoln
rugby
kon
showed
aer
ross
ships
##rad
##atures
formerly
dj
brian
quebec
18th
140
##inals
rapid
clin
mind
##anna
mythology
sv
morning
danish
insp
07
playstation
aust
pron
chemistry
##sk
philosopher
dim
##anz
conqu
dv
coun
recent
##esc
location
operation
pieces
bib
##oe
160
appl
image
horse
listing
##worth
##oper
##weight
##enge
taiwan
store
drink
tradition
##uy
##wr
##izumi
mps
##ugg
antonio
conflict
ay
ele
##ables
compounds
powers
##iance
solar
stroke
ans
cav
bulgar
venez
##pose
##ially
management
01
touch
gi
clar
lad
exhib
doll
fill
hear
sha
##arters
mars
##box
simply
dur
hour
##usion
63
apple
##89
sang
personality
models
##ione
brad
weak
maine
##iva
arms
##house
159
##hs
mathematics
intellig
mol
alumn
##change
corporation
previously
pneumonia
##ises
##ify
inte
dub
wins
cass
gord
##65
doing
vocal
electronic
kash
etc
##ni
##itation
##stone
02
ends
yam
##key
yout
marine
scientist
##athan
articles
architecture
measure
adam
lewis
oizumi
##zen
universal
hindu
detail
cool
mu
##ager
produce
score
montreal
completed
hou
arn
actually
##soft
senior
treatment
##mo
label
dal
##pson
salt
likely
patrick
samp
##wal
kelly
##elli
##iba
evidence
clark
03
##iform
steel
##iat
comment
dc
##osen
capit
philosophy
kennedy
specific
fern
##ele
buddh
extra
hawai
##esis
ford
maur
madrid
daily
zone
##sky
suff
associated
scor
divor
complications
alumni
pup
##asters
1909
physicist
vs
atom
academic
issues
clev
##works
nearby
glass
animation
neighbor
removed
ful
##regon
split
muh
rud
##len
pierre
##orter
victory
##itting
21st
reve
alan
appears
welsh
##xim
polo
125
anthony
creation
objects
vlad
liqu
conditions
lith
##asion
##osis
pir
##down
taught
speech
62
beng
nfl
twice
disp
crew
solid
##ills
##eastern
remains
oregon
thin
fried
afghanistan
ton
##oca
##ysis
pic
prec
##edd
depression
widely
##ingen
referred
alco
pin
serving
1907
discovery
microsoft
despite
cm
wave
finish
prevent
##iful
##cycl
archae
influence
pok
##fort
defin
kw
defense
journalists
sixth
barcel
discography
alexand
mort
##rig
##under
##olas
bruce
buried
bot
catch
ny
remix
copies
whether
belief
drive
needs
##rane
1906
sequel
vik
oxy
category
##inated
via
##gers
##jab
opening
cow
##chi
ais
threat
anna
resour
##bre
##erto
confirmed
mammals
cha
painting
attract
governors
activities
ker
bros
cleveland
##iques
flows
missing
file
sri
regard
cathedral
jordan
opp
jenn
alphab
finnish
ivan
dragon
##zburg
scale
guide
dinosaur
winds
ones
##eller
##val
##oli
shooting
pilot
bible
grass
bought
lic
mm
christopher
ry
clo
##lyn
1905
voiced
malays
hunt
##uff
145
flow
practice
drugs
jump
lam
warner
venezuel
bou
bak
fruit
giving
assass
entered
transit
##hr
##lets
cambridge
punk
wings
comune
gray
operating
eagle
tamil
fix
##ui
shah
palest
barcelona
indonesia
confeder
matth
simon
titles
property
##ray
milan
emmy
##book
nich
rate
##ety
##pected
therefore
controvers
##olis
ranked
pink
evil
attacked
##met
hamp
automob
significant
##porary
surg
olympians
bio
overall
mention
vel
helps
persian
conductor
au
jay
##ares
paintings
sides
##do
##onse
coal
strength
doct
chosen
##avia
illness
alfred
bound
##onde
shrine
policy
hang
##zz
emerg
studios
volume
laur
guy
##sl
allen
dia
fra
##pp
##feld
coming
penins
semi
diagn
prepar
push
colleges
##mers
consist
bene
##orney
bodies
dall
howard
61
ded
really
saying
##eding
##cha
aired
dat
trying
dro
globe
##enh
allows
femin
subs
##ns
graduated
##onder
rid
##inth
matter
##iology
reference
keyboard
poetry
arrested
billy
alaska
brun
numer
dol
##arus
fear
##vi
owner
nazi
financial
priest
contain
wants
##je
speaking
colour
##otte
agency
hamilton
wy
bey
utah
##tha
##ando
tracks
approxim
athlete
armenian
hers
silent
135
libert
finals
davis
declared
reasons
juan
siding
tol
attorney
karl
53
1903
instruments
dh
jess
##light
##olved
happens
plate
songwriters
physician
##wart
theor
##ration
##tery
roger
guine
restaur
##fish
unc
economics
##iop
##ensity
buff
sain
##iya
trust
rick
spin
theme
beautiful
##town
ronald
oxygen
##ante
rapper
vert
##ening
trav
levels
sed
sons
dick
ward
soldier
giant
computers
##ledge
##no
##fc
orle
##ception
maxim
memory
gon
longest
nom
criminal
mit
covers
refers
spect
rober
drums
alternative
paralympics
##state
headquarters
transfer
bun
else
arrang
gene
salv
motion
easily
cloth
yet
images
column
168
##ographical
magic
veget
ober
acts
vinc
##udi
wit
##68
voices
authority
brid
orleans
##pet
happy
##dorf
earned
##ivity
##iko
explos
##aver
##phone
##osaurus
pitts
##pool
crow
##ayer
electoral
strip
captured
myst
romanian
academics
walk
legs
maps
recognized
##yth
recip
course
##cano
trip
knight
centuries
impact
franklin
##kshire
burg
officers
##cules
mouth
tu
##bed
agent
##oster
youtube
virt
##69
##pton
violin
##ocol
quant
bry
raw
diet
bart
sr
toy
exact
consists
punjab
##rupt
prix
puerto
detect
defeat
##roll
kevin
variety
easy
adams
height
direction
growing
convention
##imir
ages
sugar
edge
materials
4th
##eline
habit
##sc
remained
rein
votes
domest
##put
alphabet
alone
margar
dna
pitch
shop
##ulation
metro
##where
sweet
houston
address
serious
flying
ip
oblast
ecu
guest
##isms
connected
twin
squad
##oration
looks
controlled
leaving
##abad
hands
responsible
earthquake
eric
fresh
annual
prisoners
jimmy
percent
condition
bure
1904
races
growth
symbols
##anced
##gas
sched
kit
forests
hits
sie
thus
poets
cape
tat
##leman
exchange
melbourne
perman
anat
planned
shir
serge
fields
lion
um
##die
lakes
##rel
singing
churches
lank
paid
sympt
supporting
sah
poll
rural
sor
eleven
##road
##oa
facult
esp
protection
directly
baltim
param
environmental
gulf
unlike
sod
##ester
sao
designer
succeed
socialist
aisne
hosted
illeg
##tv
ski
raf
vit
poems
clean
gordon
reagan
passengers
##di
underground
pow
quite
bottom
##hatt
##onstr
##idel
##adesh
##nia
forward
grey
##ucted
hampshire
peninsula
bath
##time
southwestern
colors
baltimore
torn
##eless
##anny
diseases
behavior
tries
##bro
sounds
satell
##usal
orient
enemy
encycl
800
send
17th
classification
experience
##oro
concent
broke
johnny
correct
iceland
1800
indic
buy
600
##ao
1930s
safety
hell
males
extended
cardinal
##eing
novels
##arily
normally
##enne
nev
parks
armed
jerry
frederick
ss
##otes
banks
everyone
borders
purpose
females
issue
script
adopted
miller
dancer
ku
arc
users
##rh
##enburg
ecuador
ll
##ti
personnel
nel
harris
##wald
rangers
atlanta
##iti
16th
amaz
calcul
##oshi
bann
eff
lav
colony
escape
##nie
##92
phoen
wag
arabic
metres
sense
##ido
1902
featuring
tribut
encyclop
duch
selling
yug
wrong
occurr
hugh
ign
##ault
dallas
completely
pull
##onent
activity
nak
rise
whit
calv
arrondissements
meeting
rabb
nebr
##omm
##rap
cuba
renamed
nebraska
share
household
couple
##wich
looking
rare
##enz
##igg
ministry
holds
distribution
employ
agreement
warm
resc
managed
dogs
provide
diego
dangerous
vent
uncle
display
discuss
ghost
device
price
territories
naval
clay
gers
luxemb
worth
content
whom
singh
russell
appearances
focus
documentary
cum
ability
faith
##uits
##ibility
decision
worship
flower
desc
treas
circle
##ucks
crimes
birthday
question
##ifer
carried
negative
hex
##iano
muhammad
##ographic
debuts
dvd
hiro
cord
attended
kra
zo
meg
autonom
immigr
##cia
playwr
runner
pattern
##aph
comedians
pays
repe
properties
save
1940s
operations
bacteria
stated
pittsburgh
claimed
pel
##mouth
approach
##div
##agen
description
hollywood
aviation
learning
alger
##osphere
guinea
pear
##ogy
switch
kills
everything
muslims
intelligence
##uces
neut
remember
historians
response
##rier
alcohol
##cular
kids
brief
floor
hid
mans
invasion
grav
shel
##iber
##cht
scene
carib
symptoms
hur
hors
miam
departement
fab
wien
alliance
##hattan
organized
##abe
trin
5th
rif
vic
##thodox
pleas
chain
##sequ
monte
cooper
user
cabinet
##uda
violence
increased
colombia
miami
fan
mong
somme
herb
hyp
##olo
diamond
reprod
warri
theater
leaf
principal
##97
interact
jacob
install
increase
buck
##uma
plans
diale
compared
contact
volcano
ambassador
datab
##omy
carlos
insee
##bl
##illes
pav
invented
bes
concern
##ogen
rocks
expand
galaxy
acqu
tribe
sul
chlor
moore
1899
nash
sick
manhattan
cris
biology
vladimir
zoo
##kov
orthodox
sales
matthew
gib
archb
reality
pianist
constituency
munich
fans
##achi
norman
wonder
extrem
pakistani
carn
ballet
roads
##utional
speaker
700
lack
imag
reaction
defend
##bean
dave
sell
##tered
nba
entry
thousands
aar
fuel
##isters
peru
##iley
costa
rene
##asing
##izing
twel
serve
knowledge
##94
sty
##asa
samuel
core
##wall
peters
failed
liquid
flowers
##ailand
##aho
##lan
##asia
milk
1895
novelist
analysis
bureau
106
hawaii
##xual
debuted
chrom
cryst
faculty
jama
##iph
##mund
tob
250
titled
heb
pret
lots
breath
calvados
custom
dir
fuk
synd
slavery
mick
101
lasted
agreed
wikip
##usalem
##angel
##sec
ordered
jerusalem
combined
eug
##emen
107
recently
bigger
hp
margaret
yor
follows
tib
favor
##aware
holland
teaching
purple
waters
c2
jar
##enos
uns
officials
retire
translated
normand
electricity
##iki
moroc
throne
engines
128
##ighth
chanc
boeing
classic
straight
hat
##mission
##stad
gran
divisions
nigeria
##rat
adapt
rice
wol
tribes
harvard
##stan
148
##kar
choice
yugosl
dress
##atsu
aster
videos
coc
##sters
incumb
##anthrop
mental
michel
pp
corps
describe
jobs
elim
robinson
thailand
extinct
township
circuit
opposition
twelve
atm
coron
journey
dates
sure
##93
nothing
equip
##eva
jefferson
ni
##unk
baron
counter
phill
griff
christians
stream
##po
##holm
proposed
scen
ted
rhyth
clothing
##aceous
wrestlers
nut
rav
##91
romance
bapt
##eme
moves
fro
anything
cycle
partner
gam
lud
ryan
##esar
earliest
cem
neck
honours
witch
##dale
perfect
genetic
resources
cbs
ft
attention
bour
effort
##ably
rou
##ging
##enue
highly
adventures
acted
incumbent
##cles
##ontin
continu
liked
manipur
door
achiev
##eries
##ctic
creating
technical
applied
salzburg
synth
##hel
nit
caribbean
og
butter
seventh
##wig
##aling
alice
insects
edit
scar
filip
sarah
inspired
##ovich
shad
ending
##rene
phoenix
##racy
1896
ruler
huge
gained
indigen
harm
continue
benj
influenced
##ferences
##atherine
virus
equipment
##rell
##uguay
injured
ottoman
lanc
shim
leban
demand
1893
presented
hydro
118
rough
queensland
executed
##61
thick
##emia
interp
##rees
flash
belarus
##incorporated
##alle
critical
percy
guns
revolutionary
lies
##eno
joint
wayne
resistance
unincorporated
broken
uruguay
learned
stayed
congressional
shaped
surn
disapp
medals
domestic
density
##uins
##osa
indigenous
visual
quality
vehicles
##fri
##umin
barry
orbit
kaw
138
oliver
methods
symph
legislative
sess
##oku
settlement
saxony
brooklyn
accepted
surgery
mentioned
advis
##via
##tm
##atively
##stre
provided
camer
estimated
hope
##haw
##ilia
##cla
emot
immed
mig
mist
zero
difference
screenwriters
fleet
charlie
opposite
fossil
##ffe
meat
string
stev
sult
teeth
gust
gamb
register
broadcasting
peng
##atar
hydrogen
thunder
strik
barbara
sas
##asc
jason
plus
troub
literary
nelson
soph
##adi
clinton
ja
trail
##ears
indo
genre
cous
advert
delaware
battles
emergency
begin
##oba
chancell
reserv
kath
nomination
determ
heard
conver
infant
1897
patri
surviv
##heimer
idaho
contem
syl
kashmir
6th
rena
boat
ethiop
productions
secondary
economist
commonwe
luxembourg
link
osaka
benn
##born
presid
benjamin
pregn
1898
yok
items
actions
florence
malaysia
cu
audio
commonwealth
mitch
hunter
mouse
gef
##oni
anime
tourism
kin
rush
sword
archive
bernard
identity
gender
##64
nbc
##ographer
##apolis
poison
1890
##usc
##assic
##zer
ell
berg
sunday
fine
kiss
ens
doub
didn
##mingham
sens
##aza
ov
##ogue
withd
##illo
victims
christianity
armenia
ig
lan
personalities
promoted
spider
boss
candidates
explorer
##ering
birmingham
presenter
required
sulf
1920s
slaves
defined
particularly
philanthrop
scholars
shortly
trophy
adults
tab
provinc
punish
shared
walls
affected
wikipedia
##father
conn
nickel
colonial
resigned
typically
##yt
goog
##hard
##opes
dominican
cret
pont
##akia
filmography
##ente
massac
##rim
susp
doctors
sard
##oir
##67
unique
mediter
slave
cantons
##riel
##jar
1892
codes
##kir
agriculture
illegal
##wers
##ouver
integr
##ods
montana
functions
diplomat
##ranean
database
saudi
charlotte
##lem
##igo
900
panc
essex
##inia
noted
austin
archbishop
1889
scholar
meite
phone
income
franchise
aires
electrical
7th
kum
tools
formation
grace
ble
##eh
##onym
tunis
gate
ich
frances
##iations
movements
kos
remain
benef
cad
wet
murr
carter
104
composition
1000
replac
positions
vanc
##rome
revol
##enberg
##isch
heaven
clock
dedicated
##haus
reserve
experim
chilean
ian
oz
separated
##mitted
partners
##izu
planets
dod
ech
##long
chick
accomp
standing
eating
operated
hyper
##omot
##agues
disorder
approximately
ain
##cott
##bul
##iven
##opp
morgan
aw
publishing
risk
##ourt
bin
##bing
##ffff
bibli
hein
paulo
nasa
##char
compil
buenos
heavyweight
marshall
divorced
revealed
mack
xbox
amend
transform
visn
mediterranean
admir
doubs
target
beauty
pione
isa
abra
meitei
denn
rear
onto
marin
consum
suffolk
vancouver
migr
##62
heads
infection
##esco
seattle
##ichi
phr
joan
attach
occurs
liverpool
wur
##thal
satur
transportation
fellow
gary
##kan
##urer
rhythm
alive
haz
mall
pip
##clus
tong
convicted
cosm
cot
represents
vermont
visnjan
breast
continental
gym
dram
moz
signs
soil
pruss
classes
photos
google
13th
intel
1861
performing
fit
gone
lingu
##oda
flav
syria
finds
painters
drummer
##owski
alongside
##mi
chance
stein
leadership
buch
lap
traffic
kick
ri
##itis
alz
gabriel
cere
cats
zim
ist
##imed
spot
pradesh
suz
luis
oscar
require
##bir
##ivia
monster
walker
nikol
permanent
baker
hurt
pale
abc
grown
departments
crashes
moment
cemet
dean
appe
##othy
sets
bog
hir
residents
safe
defence
tox
##58
##mat
brig
stor
15th
advanced
mrs
vincent
kap
pair
prel
senators
vehicle
hebrew
cemetery
blind
medium
provides
1894
##iji
napole
neighborhood
##ieval
##caster
tang
preserv
##uka
mystery
##ivals
visited
sultan
founding
roberts
kang
##63
presidency
##pur
youngest
1888
cretaceous
12th
blo
venezuela
mck
##igi
slight
changing
rum
##etime
stewart
1891
painted
gur
gironde
saturn
croatia
##emony
serial
por
##mun
cricketer
wright
360
tir
##nij
bald
lis
##obi
athletics
satellite
gy
##roph
causing
particles
goth
rhone
nauch
##room
overs
feed
drivers
sak
anch
##iders
##ikov
calls
arrived
factory
translation
homes
showing
sung
heav
arena
##erne
scand
warren
reflect
batman
joy
##eto
##ielder
nauchnij
##con
##bes
stick
chern
##aceae
owners
ultim
provincial
mul
##aco
##8072
occas
autonomous
prior
worst
##ensis
degrees
pent
##pan
alle
adap
luther
narr
diagnosed
##uster
102
devices
communication
buffalo
##arians
medieval
behavi
bones
retirement
8th
hud
orders
steam
occur
rebell
suffered
jung
mine
participated
photographer
herself
serbian
hend
##page
robin
ceremony
sculptor
newspapers
##rev
automobiles
##uto
neuro
10th
##etti
radiation
educational
lil
##sch
guilt
coastal
individuals
fa8072
temp
j2
subdiv
faster
amph
competitions
fully
jag
##rov
##athers
103
coup
##life
##amo
##enson
theod
##ovic
##orus
spy
drag
##joy
stockholm
crop
larry
sloven
dish
zur
afc
##ibly
remaining
haute
audience
holiday
martial
##uman
springs
treated
turns
##aj
stores
elder
nevada
alp
knock
smart
1887
marvel
##lication
voted
gol
seb
mayors
democracy
damaged
protected
numerous
divers
abraham
tibet
##aug
inventor
hab
##erc
##eston
pole
jacques
seem
views
mail
rah
##rus
protests
dancing
clothes
ral
1885
##mes
compar
committed
looked
##rain
##tained
mercury
lanka
##omon
depending
steven
collab
fossils
bil
atoms
seconds
plain
poem
diction
prop
guer
selena
duck
gather
##hu
campus
1865
chancellor
contemporary
knights
supply
educators
beyond
gain
sisters
##ea
##load
liz
stu
engineers
serbia
leo
constitutional
hole
choose
crisis
styles
chron
##iago
##zi
##alt
peop
provence
challeng
maced
##bell
necess
felt
filipino
lenn
mate
shall
pyren
##wise
abol
1880
narrow
hav
hond
chose
##amese
outer
cuban
croatian
mik
figures
##mel
##oming
useful
statist
purch
chand
tourist
baden
indonesian
coffe
pyrenees
coord
thompson
##olia
knew
combat
sacr
murray
ms
rhine
settled
occupied
##ocard
occurred
nose
##umes
graham
anthem
colonies
swimming
##iable
11th
goods
1883
respir
peoples
dy
##inate
##ache
pokemon
josh
lag
##alty
firm
105
##ternal
pied
##ju
strugg
internal
##hen
##rah
superh
tornado
c2ffff
prey
opin
passes
eleph
succeeded
epic
educator
lind
1863
mond
sag
experiment
julian
yorkshire
minute
bobby
yeung
values
machines
passenger
##otic
subt
boris
achie
14th
##friend
##berto
extreme
##cript
nest
1882
1860
descent
##iere
##fa
gross
htm
##ifying
madison
selection
jonathan
cod
sic
##net
disab
consider
hub
##uls
locomot
replace
##gom
##cop
shell
avoid
easier
fishing
lamb
##kes
tod
courts
entr
marit
blog
childhood
delhi
democrat
issued
governments
holding
closely
bug
kle
tap
wine
spons
format
arnold
bert
##issance
termin
naturalized
multi
##berry
weigh
branches
mud
wound
##vo
meets
talking
pere
veter
##orph
anthrop
alzheimer
##rum
tok
escap
pronounced
waves
1864
rgb
##vision
##isha
##aba
canal
##standing
encyclopedia
##orig
soundtra
##organ
##encer
reception
##eta
apoll
mathematical
hunting
##etta
angl
infar
capac
anyone
bone
truth
disaster
potential
weekly
beatles
hob
##aman
##aca
##levic
reports
playwright
ade
estate
rocket
therm
lose
maz
##gio
marry
115
railroad
situation
message
infarction
lig
finance
cards
bulgaria
rib
cloud
signal
guitarists
tehs
##oxide
##oker
114
murdered
parishes
layer
till
marks
cru
pod
wish
##vis
##gau
unus
aborig
exped
##oki
photo
jup
len
serves
severe
##helm
gymn
tiger
wo
##istol
supposed
killer
capture
iw
rit
##iant
##akers
bom
deliver
korlevic
rach
soap
trap
foods
myocard
portray
mixt
bibliography
aur
##aku
upd
bowl
rolling
cable
psychology
##asaki
expected
elementary
investigation
lisa
tick
##furt
amster
##orrow
##ibr
harrison
arabia
offered
tort
kab
thor
manga
boh
horiz
interested
kilometers
proph
playoff
triang
##ously
nigerian
lomb
##asm
reject
prague
1873
tend
##ei
##iri
newton
persons
1879
limit
kazakh
adapted
talent
ric
1881
honour
claims
involving
saints
gent
receive
amsterdam
##ters
recordings
turt
magnetic
astronomer
surrounded
##ebra
agree
heidel
regul
daught
1862
bourg
vision
##iens
##ivan
roots
resident
louise
index
hundreds
1886
heidelberg
##maker
ask
shark
links
wealth
demonstr
nominations
describes
myocardial
nan
rapp
endings
hitler
rider
compound
ds
##amoto
honey
refused
tig
##ru
##low
##oven
tea
portra
hamburg
differences
vin
##idi
projects
bridges
##aging
shock
valent
angry
cort
cote
mikh
##bar
##omi
##aste
1868
physiology
finding
gardens
mickey
wii
leop
marg
##aws
networks
sig
116
advance
spiritual
##yo
##lie
##bet
##resp
distinct
breed
ferr
breaking
guilty
chat
suppl
##bria
bengal
lt
none
##rep
109
1871
performances
paramount
##anes
enjoy
perry
planning
challenge
gill
vul
camps
copper
santiago
eaten
tip
tank
inner
paralle
cousin
cs
decide
inch
1870
montgom
fighter
##burn
##anne
triple
speakers
nicholas
##oty
partly
fired
daughters
ud
wedd
##thy
basis
harold
exhibition
extremely
pc
##uchi
##inner
athens
survive
confederate
eighth
tiss
##omer
organisation
survived
dropped
andy
throw
parker
judges
thinking
##donald
##oga
##anni
accused
stef
popularity
kidney
stal
emir
organisms
concerts
ingr
allies
broadway
https
superhero
nur
atomic
tet
##antine
connection
wilhelm
circum
dinosaurs
jupiter
cn
1884
slightly
nee
leagues
southeastern
haut
stands
introduction
biographical
promin
montgomery
3d
nem
##chem
chel
columbus
housing
terrorist
dust
##arn
monkey
eddie
distingu
suggested
trouble
##ulu
geomet
suit
teachers
danny
chocol
thirty
sovere
declar
details
sharp
slowly
sovereign
dwar
yu
agn
mode
thirteen
representing
kyoto
cock
##e0
##ario
containing
camera
weapon
aid
compete
##rix
kun
sop
plastic
trained
##eeper
##boy
bened
lect
1875
injury
surname
jin
canc
conservation
rating
xing
outstanding
##lington
dennis
##gov
charged
strike
eurovision
smallest
##ipped
sentenced
inher
rodrig
stuart
franz
cyclone
exactly
##gie
##pre
1848
announ
turin
landsc
##agh
tri
nova
enemies
byz
palm
cardiac
definition
coffee
bic
hann
rar
##onents
walking
ceo
essay
celebrated
surrounding
obama
altitude
amendment
arsen
constell
evening
rival
##esa
##omes
existed
encour
hirosh
morocco
lane
##iately
bears
ordin
mini
formal
losing
symphony
##stream
mend
tin
##bus
catherine
##roid
##elor
amy
mete
mant
sap
gren
corresp
electrons
friedrich
kush
sony
##fielder
edin
applications
barn
annivers
caught
immediately
luke
vend
burns
questions
molecules
curt
massacre
correspond
rico
##etics
britt
terry
restr
refug
eis
##enko
##81
ready
perc
depend
1869
athletes
maurice
titan
1867
citizen
abbey
carp
cream
backing
1857
channels
pedro
##opter
uss
operas
ki
##uil
##urance
##rin
basin
profit
cinema
##ocaust
##igny
appar
belt
potter
documents
printed
otto
ralph
aquit
9th
wire
comte
##seud
herbert
1872
rescue
eb
##cal
##ader
lah
noble
conducted
industries
atmosphere
saturday
dict
jet
allied
overview
holocaust
solution
descend
organic
virtual
lob
111
##ahl
sudden
filled
##iformes
ug
##87
scap
##prise
##hawks
shore
leads
raymond
anniversary
hamm
cob
creator
assault
autobi
##oned
##rot
##poses
destr
nickname
850
klet
pure
rings
##phal
basil
##ublin
simpl
sentence
##lon
pros
garcia
initially
lun
##set
rocky
1876
beliefs
cinc
jav
llo
helen
1878
programme
soundtrack
keith
napoleon
apollo
##lee
files
##ishi
##inned
volcan
continues
cyclist
wagner
##unity
resort
francois
concentration
pancre
ost
##akov
##sea
publisher
boxer
piedmont
aquitaine
##82
shakes
actual
##erty
progressive
interpret
mitchell
##ithm
##fully
importance
##aurus
kay
ps
neil
situ
shrines
aleks
shinto
dictionary
gn
117
hugo
pseud
marked
museums
utt
##bow
asp
spong
enfor
##izz
expensive
tales
sequence
mikhail
shang
coat
##tons
pi
botan
edinburgh
tamp
##oly
arist
decor
decre
airpl
##ieties
1877
statistical
stages
server
interstate
snake
hammer
lac
##elia
murders
##fficient
ernest
crist
advant
ferdin
choir
bosnia
suburb
petersburg
##inum
abuse
##away
interior
bub
golf
##fs
grandm
##gi
##idad
sheep
##text
doesn
##agi
##uez
honorary
legislature
yank
##84
##come
reun
seeds
adj
voting
grad
loan
cathol
capitol
hut
##fia
linux
2020s
abbrev
hed
kel
linked
patients
cultures
urs
giov
sib
yonne
offices
papers
ridge
perh
grande
answer
gw
ple
##oux
stress
##ierra
capitals
sale
tube
##asha
tommy
wallace
fib
gosp
##unes
tests
belongs
respiratory
jum
isab
184
streets
corner
cincinn
chan
tomb
maximum
schedul
perhaps
convers
leonard
737
aub
cash
tub
##mith
protestant
aude
##ridge
##fam
smok
opponent
##icia
##rec
unesco
marath
xinglong
##fare
charges
larg
swimmer
sebast
cincinnati
jail
##83
##olph
##estyle
manuel
##000
kidn
chase
congo
nashville
commons
phase
112
obit
glas
rulers
fisher
forg
##ateur
##geon
relative
buddhist
fixed
scenes
##raction
##elles
##fta
landing
##break
mull
pine
##vent
skull
##agne
##esse
voy
romans
chapter
laboratory
respectively
nicknamed
zurich
##pear
stones
minim
indians
verb
yugoslavia
iz
pyr
vow
##gate
ala
##apy
calc
delta
novelists
visitors
horses
parallel
bish
nerv
vern
attend
cypr
shadow
chocolate
ein
##wi
126
mining
##velt
advoc
vietnamese
##ardy
paras
##hips
jennifer
porn
##ski
skills
catholics
146
turner
possess
giants
lloyd
ues
##sburg
##atra
incident
talks
commissioner
##oslov
gand
yang
182
reduced
bachelor
vacc
kate
nancy
ing
sean
parliamentary
collins
crystal
check
root
strange
focused
##oons
opport
collected
broadcasters
identified
##du
##anian
##ieu
abu
primarily
expedition
biden
germans
shakespear
mats
##cious
##fly
bac
kre
##iring
chal
avenue
philosophers
##borough
lope
artific
loy
archer
biological
##ohama
rogers
ibn
mold
stom
northeastern
hof
subjects
behaviour
eg
##uin
##ality
##eton
##rac
merch
massive
##minster
temperatures
salvador
nin
##enders
evans
##neth
antar
camb
warsaw
kas
possibly
craig
increasing
typical
kilometres
bulgarian
renaissance
yokohama
amp
##usa
##sole
roose
campbell
commerce
regarded
kg
pep
oxid
czechoslov
heroes
disappear
jor
181
119
##ionally
runners
caesar
violent
colonel
graduate
kurd
ruth
##ption
grade
venice
nazis
##imar
geneva
devil
crypt
telesc
pm
##uj
##fast
183
##ucker
authorities
shakespeare
##gow
legacy
developing
causs
motors
1859
rebellion
##onna
recov
geoff
retrie
helping
claud
##tr
deer
friday
anglo
equation
falling
toxic
hack
ment
pancreatic
brom
dad
analy
airline
aboriginal
vess
phen
murphy
gregory
meteor
ride
##airo
unusual
gif
holt
castile
measured
roosevelt
##oz
assign
##ifications
wes
##nell
linda
helic
denver
cauc
sitcom
recognition
improve
horm
pon
##ansk
laure
classified
tallest
restaurant
isaac
sind
##van
cler
121
adding
mcm
random
nomine
##rup
##night
rey
stret
combination
tributary
ion
miy
usd
surr
oxide
injuries
neighbour
paralympic
mechanical
bever
democrats
susan
gonz
lip
##erd
cruz
bread
predators
false
johannes
foster
##imp
##enda
lightning
religions
dublin
lions
##greg
aspect
##ahn
##stadt
lopez
hide
riv
##iling
superv
incorporated
disorders
350
sz
##bn
shut
schm
bee
##illon
console
##ortion
statement
capacity
##osexual
studying
##world
##ymph
premiered
##54
corrupt
blackhawks
publications
1874
survivor
marx
tasman
nice
##aments
##emberg
177
##insky
latter
feeling
1866
sacred
ml
claude
stronger
uesac
caussols
cave
dw
mile
thai
##atus
arde
rebu
amounts
apost
grandfather
periods
ferdinand
##ige
chate
##iolet
statue
##odeon
cec
##ede
forever
vaud
eliminated
##tor
##uns
ottawa
rifle
syndrome
nickelodeon
bold
##fo
thorn
reich
##acher
residence
spacecraft
absor
hidden
masters
inches
asc
ethiopia
aleksand
##icas
chi
##abi
derived
minority
inaug
beth
dee
hauts
factors
communications
##ingham
##ivore
beet
1850
northwestern
consult
angels
franco
abdul
constituencies
##asi
angle
vegas
ballads
bafta
instruct
tul
plac
relatively
##encia
sanders
darwin
##56
##53
chest
##oping
147
rhode
lebanon
font
##isph
unable
gilbert
ladies
withdra
origins
morris
hurricanes
instrumental
rus
##cs
##57
##agre
proof
inters
##amps
smo
sussex
wwf
dos
##gra
##gart
##hai
##51
exerc
##manuel
##endorf
113
businesses
grows
krist
existence
criminals
duchess
dialect
##ogo
parag
equival
dum
truck
moder
janeiro
banned
##arin
roof
subsequ
characteristics
hudson
##inus
##place
returns
chemicals
necessary
##bek
seal
hosts
##stit
syrian
presenters
ranking
cattle
##fr
##irus
mixing
testament
sharks
stomach
nico
jurassic
dating
fi
##uctive
produces
farming
attached
patt
##rete
##ovo
##anto
henri
dynam
brooks
declaration
plains
valle
relationships
amazon
kol
decade
reduce
portland
##rik
##aire
granted
wyoming
ya
##arta
##landers
137
edu
standards
sudan
quantum
baptist
sull
wiz
tool
butler
##ieres
empress
purs
burned
kenneth
wurtt
vor
##iled
##uras
brah
myster
villa
successor
liberty
##df
##52
##unc
polar
glac
texts
understanding
wurttemberg
hatch
worn
releases
##uzz
admiral
phrase
offers
copy
1858
funeral
institution
franche
palestinian
marion
fever
##hn
##issa
wearing
drew
##km
application
resulted
liberation
athletic
hearing
habitat
pioneer
nu
vil
##contin
expans
dame
##ilo
evolved
harvey
sierra
##gs
driving
simpson
remove
##psons
cotton
eup
fitz
wed
##woman
##ining
pray
currency
parkinson
institutions
heir
deuts
elli
tyrol
producing
mask
##amental
thinks
sodium
bourgogne
fung
rica
##estone
cole
genes
defensive
patient
expos
eugene
##atem
##child
monument
entrep
nadu
##itals
##oust
adolf
149
accur
auto
kirk
fluid
punishment
##ht
reed
129
budget
benedict
giovanni
fount
kot
##emaker
aband
factor
festivals
chicken
lon
##ykh
##oko
chapel
guardian
picard
aber
##eim
orn
parad
pool
stops
wildlife
molecular
largely
nort
tiny
##ials
##enses
bullet
colombian
frequency
artificial
simpsons
essential
sample
bam
beij
fourteen
##rising
finger
exclus
imprison
purposes
##atoes
crowd
##gne
ceremon
##lock
##ussion
midfielder
passing
cheese
wedding
pill
##nik
##ingo
isol
##andez
monaster
writes
131
prefer
prominent
cp
yosh
##erse
carr
amateur
volun
qualified
hindi
fairy
alberta
##59
##itus
##roe
summ
berke
effective
kurt
vary
##pie
spoke
particle
parent
platinum
infantry
##rill
##aking
neph
watson
reactions
chop
illustrated
expanded
ninth
gerald
organis
ardeche
aj
##cription
chore
##uta
presence
occupation
mast
##ication
##ocese
estonia
##rett
entreprene
berkeley
hired
##atics
edited
mainland
closer
conson
exam
locations
sonic
##ienne
copa
collections
cricketers
algeria
gast
westminster
cyprus
knows
disasters
edwards
guild
infin
magazines
watan
loved
cameron
rachel
rept
external
duty
setting
woods
infr
controversial
html
nou
##edo
##itter
ard
techniques
hog
sees
pharm
##ologies
##yla
haiti
pearl
sardinia
viv
##mad
vii
friendly
1854
diameter
byzantine
keral
##dles
unified
cliff
afterwards
writings
antib
suburbs
witness
alpine
mg
##iah
moons
tyr
psychiat
gameplay
insurance
agricultural
keyboards
##onso
##agawa
allowing
storage
aux
vast
##xx
tyler
ports
trading
burning
goddesses
beijing
##amer
##elin
spencer
compl
revenge
cardinals
vamp
##enton
##avian
para
##grade
routes
steps
farmers
literal
jamaica
efforts
sara
##rine
##ding
anarch
##imb
##ocene
generals
jury
uz
odd
tale
##jani
##aha
approved
nurs
waste
laura
##ensions
solomon
influential
fuj
frequently
coalition
ninet
wang
zel
##lying
143
eve
##itarian
lowest
absol
roughly
##zig
##ails
croc
ghana
ahmed
telephone
fernando
lithu
tehsil
watanabe
theolog
toward
isle
chad
dioxide
##ictions
##ipping
criticized
rising
mechanics
lithuania
guatem
headed
occitan
hemisph
buddhism
temples
amphib
ordinary
nok
worker
sebastian
skill
criticism
pirates
kerala
##keeper
mann
exists
##inters
keys
mim
statesman
loud
cooking
bangladeshi
palestine
aaron
scheduled
gem
oc
##ses
##emy
airways
protein
keeping
drinking
diabet
##oi
##pat
##ilis
frame
downtown
improv
##folk
##ici
##amas
authors
traded
ranges
normandy
istan
gymnast
rappers
eu
##yll
1856
##pec
##active
assum
glen
crossing
istanbul
bast
ree
1837
1815
raid
fertil
measures
griffith
##inter
newly
calling
helin
##ographers
supports
miguel
anchor
aube
##san
##star
##iper
fruits
surf
erupt
promote
wheat
cheap
carrying
hipp
jak
monsters
invited
portion
visible
uran
resulting
santos
duo
volcanic
##inations
##inction
chuck
maple
chernykh
ced
sut
##odia
recomm
empt
restaurants
uttar
fifteen
robot
emperors
substance
ancestry
philanthropist
evangel
supern
michelle
attempts
teh
laz
123
picked
##hausen
##uni
adela
richmond
ruling
penalty
seems
expression
storms
panama
boxing
lifetime
accompan
ras
wake
1849
estonian
testing
excell
gravity
seine
designs
algor
bryan
wool
##rial
##berger
terminal
picardie
gel
wick
##ayan
##oted
chip
alpha
siege
##zon
##ucing
disk
169
133
controversy
warriors
##enzo
##acle
1821
1847
harmon
dawn
flanders
255
gott
riding
abst
allier
miner
recre
##auer
expansion
ffc
rol
##bie
craw
astronaut
##rano
spaces
herze
metals
volt
##point
earn
typh
maker
intended
julia
license
##gang
##cing
consp
##uba
171
161
crus
proteins
cul
##anie
##etical
blow
##ilda
##olds
##ressed
holes
sarthe
graduating
width
organs
ludwig
crops
percussion
##family
ace
rican
rated
240
execution
dreams
auver
vect
itv
frag
imposs
summit
colored
ernst
oakland
gav
nix
##rib
##recht
spend
download
photography
facilities
dancers
caval
gustav
wis
##eed
arctic
1840
genera
implement
breaks
request
kidnapp
sight
chen
shield
pries
disability
bombing
credits
pam
coins
elis
technique
1851
expert
explosion
deleg
railways
hiroshima
volunte
wend
discrim
incidents
controls
opposed
suffering
constellation
450
##ozo
km2
courage
justin
publication
felix
improved
skiing
households
disabilities
diabetes
##uer
seoul
arrow
decisions
pete
constructed
logic
##eer
spots
opens
herzegov
sust
stable
##urb
propos
manus
fires
lights
cornwall
successfully
precip
hughes
bloom
wounded
auvergne
kom
ranch
1830
edmund
230
##eenth
heath
decides
talked
celebrity
contrast
portrait
##dre
chev
##monary
magnitude
glasgow
java
mason
##yon
##ocent
norfolk
173
strateg
quart
reaching
convent
prisoner
entirely
gospel
rip
##ben
bea
bras
window
saved
gates
xi
##nan
##iso
carlo
134
##enger
##anche
drawn
nascar
threatened
pov
tum
depos
consort
glenn
camero
diesel
dolph
lennon
##most
##pass
##adors
1844
peaked
homer
naples
suggests
lug
trom
##gal
asks
##iab
beck
offensive
132
settlers
1855
warrior
rhe
anto
##ading
westph
viii
traditionally
1845
populations
electronics
grammar
ply
centen
armies
summers
kenya
astronomy
legendary
mtv
##gro
shorter
uniform
decades
163
qualification
nad
##aran
##alis
1846
144
wells
succession
processing
##coming
ana
153
monten
herzegovina
°c
##lar
##uaries
forum
seed
boats
tested
experiments
prussia
ahead
toul
##erts
shaw
##aks
##odon
americas
##eyer
muscle
centers
reporter
neutral
alien
beer
##outs
167
122
palat
roma
saxoph
promotion
favorite
equivalent
sitting
##kt
##imo
creative
processes
scoring
tigers
fountain
charity
grave
prelate
sullivan
##orous
shiva
graphics
destruction
##lett
returning
atlantiques
repeated
opinion
tourists
administrator
springfield
observed
fay
ng
##tz
stored
chamb
##iman
meter
brab
taxonom
recipients
landscape
rarely
impossible
bid
ville
##hin
##pm
##body
##eri
##oney
##agua
rainfall
nominee
##icus
1841
raise
petro
policies
joining
anatomy
ultimate
bishops
eco
##rist
##2e0
chef
##ebo
1838
152
luigi
planes
celtic
eri
mild
iso
##udes
clan
##oks
confed
navig
converted
jungle
ffc2e0
das
depends
emma
malta
lesb
owen
schedule
acquired
elephant
bless
merced
wooden
cdp
initial
ritual
yas
joel
buses
healthy
todd
kazakhstan
retrieved
organisations
rup
alto
graphic
tributaries
nokia
bruins
##unda
##ughton
##ushima
physicists
hemisphere
piet
rab
otherwise
adrian
174
themes
educated
alexandria
dement
unf
##izer
strict
##hof
bristol
##boro
advantage
bats
kem
context
1836
1500
strings
broadcaster
stanford
renew
brittany
westphalia
dup
ek
##brid
##agonist
heinrich
hood
##erg
usual
trek
turning
philippe
tampa
confederation
sections
##inae
##ennes
sandy
utc
task
boundary
arranged
plum
manit
##ibi
archives
explain
fewer
loves
galaxies
tad
##arl
guar
mixture
ltd
pyram
adelaide
##ifically
124
malay
latvia
crazy
lak
##oor
##orian
heights
edgar
charter
quad
##ukee
legends
lords
stim
hey
genres
servant
210
versus
lucas
algebra
hil
tusc
##oric
alv
ald
exile
strat
millions
supporters
snakes
multip
regularly
credit
suzuki
mam
taste
leap
schw
crush
powered
associate
historically
rhodes
surviving
involves
bolivia
intellect
##erm
mineral
skele
recipient
pitcher
playoffs
proced
transg
pilgr
commentator
occitanie
compilation
paraguay
gum
##raine
leeds
martha
swan
connects
certified
fasc
junction
##babwe
transferred
geometry
dwarf
dying
##essa
temporary
coaches
olive
##licated
julius
tunnel
attempted
axis
manufacturing
session
hak
##esty
##phis
computing
precipitation
daw
nathan
shops
agents
homepage
honors
azur
asteroid
entrance
##uve
##py
##ete
##apest
budapest
photographs
faces
##oj
emil
##crib
traditions
frankfurt
apartment
nac
162
##ija
tours
sophie
subtropical
triangle
1819
1843
worse
formally
seeing
assassination
gul
jaw
pump
##hem
theories
##inder
##chair
##ctional
spelled
albania
canadiens
argument
##waukee
qur
tied
##cra
##fb
colours
continent
chromos
pregnant
##esi
unter
maintain
oceania
cay
##ulate
flour
vegetables
dale
sized
##urai
##istry
1831
laid
throat
taj
debate
1852
1853
experi
airports
julie
domain
determined
cairo
duk
yale
##eler
spar
creatures
affair
142
milwaukee
filmed
silk
siber
tissue
jub
kart
rig
##db
1839
##anga
warning
locality
psychological
existing
credited
ions
ueda
##iser
##imet
1818
bris
germ
victim
azerbaijani
pulitzer
achievement
ned
##esia
1812
listen
followers
casual
dorothy
anglican
furn
hod
soci
obtained
civilization
sculpture
transition
arrangement
aus
gm
##rose
1835
feminist
zimbabwe
gut
##cement
joins
creates
handed
hinduism
##eli
prayer
invaded
mills
believes
researchers
respond
a3
unp
elite
archaeological
entrepreneur
rays
##eria
trig
cargo
bruss
resolution
calvin
registered
##isf
##isted
orland
164
forming
glad
sixteen
hardware
##eness
##isy
lex
##ipts
##ucl
prescott
betty
monarchy
bj
faced
kul
lod
##anco
220
conquered
gaz
hier
lub
sank
telling
dial
##ifa
brows
viruses
digest
##commun
feelings
prepared
shopping
dementia
##utor
idol
##ords
basse
##bruck
##keep
discover
derby
fastest
penguins
heavily
wer
##oan
##alu
##ched
struck
proved
principles
tehran
nixon
sector
reaches
distinguished
rodriguez
##gary
##urst
crust
erik
##going
taxes
drawing
jura
##vor
##aru
##atore
##acles
abortion
bennett
kushiro
dock
pom
pist
dix
trick
notably
monk
appearing
delay
homosexual
krish
eagles
manitoba
vall
##rical
##dal
##asis
tribute
strait
hanging
##ulated
nept
doors
subway
##yees
keeps
substit
ambassadors
##rent
##lings
##hill
##icial
##quin
troy
##amba
zeus
juda
construct
evolutionary
employees
struggle
leopold
wides
meh
genoc
georges
bordered
primera
travels
shimizu
sicily
ik
##inks
##icon
styl
item
highness
metre
loop
girlfriend
powder
mumb
beings
unless
usage
agencies
twins
displ
operates
variable
memphis
principle
brussels
mph
##uoka
##zan
##istle
108
farmer
signals
putting
screenplay
marcus
normandie
alberto
carroll
thanks
demograph
odas
tunisia
luck
tie
##alus
##itic
##chw
##iane
##agar
##utation
span
feud
edmon
smack
divine
hearts
badly
somers
##colm
bise
dated
mou
ore
prostate
khal
medalist
hospitals
lucy
kaneda
slovenia
phenomen
riot
##yu
anders
ord
complicated
blu
calgary
enters
fights
teenage
overseas
poverty
747
rag
yo
##iar
##aken
acoust
smoke
harbor
chelsea
conspir
aids
diana
##eo
malcolm
traveled
patterns
monday
cancelled
smooth
##rate
##arr
##ahan
radical
solve
defender
venus
wait
negot
divorce
phillips
bourbon
pepper
literally
transgender
demographics
edmonton
hok
##enstein
##icz
neb
##apa
farms
cornell
automatic
immigrants
fing
l4
hercules
rooms
artistic
flights
hawks
sergei
coordin
manila
retail
aviv
confess
investment
immune
blocks
wheelchair
cun
fold
##oids
##dot
##core
chiba
meth
##ondo
##ahi
humid
jeremy
nephew
978
saxon
slovakia
drafted
venezuelan
automobile
baldwin
chateau
util
thames
##umber
spa
civilian
philippine
lyon
##ipei
fellows
jamm
jsl
##gard
alc
expect
peruv
companion
extension
dollars
jesse
orlando
dil
pall
reh
##idal
##agram
editions
metall
covering
biochem
mercedes
beast
##andro
babies
guatemala
750
rut
##nam
##isons
##apse
genetics
##encing
announc
breeds
autumn
nicolas
mathematicians
##kers
##ischer
directory
atlas
crashed
tournaments
cumbria
zamb
##cule
ish
##ampton
warfare
electro
quint
specifically
taipei
fifty
confused
matters
puppet
brabant
intellectual
##rand
ster
uno
emily
denis
hypoth
supplies
##enza
alumin
##arte
consequ
endang
referee
deputies
platforms
collabor
lamp
##rated
oral
acids
resemb
patent
costs
widow
harvest
lover
nass
##uru
trio
swift
jackie
experiences
crack
appeal
gap
##aa
reef
##icts
perth
minne
providing
##flix
balance
flew
lok
##uo
feathers
tril
monroe
nationalist
strate
hoff
destro
waiting
1900s
subdivisions
judaism
ou
##here
scores
debeh
battery
andrea
contributions
##claimed
geoffrey
plymouth
debehogne
rash
##ching
1820
phosph
twitter
monica
outbreak
##ettes
explan
feder
protocol
nikolai
lisbon
ranger
##itary
##agas
diary
colin
advertising
cc
tact
vag
prosec
aragon
##inda
quiet
ratio
adaptation
corruption
inaugur
peruvian
kok
##miss
##eback
##anca
reds
owns
leslie
defeating
mlb
mumbai
endangered
dag
##mus
##ulus
sporting
georgian
buddy
messages
scandal
320
##aser
##illery
diff
##astr
maritime
telescope
dys
hollow
##si
##ebob
##ogl
##ogs
relatives
profession
papua
requires
sainte
reproduction
ingred
minerals
priests
pond
##ku
marian
smash
accidents
markets
netflix
explained
limits
trials
aleksandr
binary
pock
##wing
terr
millenn
floyd
secretaries
dialects
locomotives
strategy
##cot
##zel
seas
##uccess
submar
indianapolis
##ylum
1789
rebel
crocod
genocide
koch
chorus
shak
batter
unsuccess
summary
jas
kham
morph
marketing
frit
gear
sikh
##gon
##thro
harper
error
karen
shoemaker
libraries
interesting
infectious
innov
##ych
stol
inducted
contained
scotia
preserved
obituaries
assigned
nipp
ves
peas
export
twinned
closest
fundamental
fukuoka
tibetan
fol
##pread
tooth
forty
##ucc
caps
skys
landed
grandson
circul
princes
cinemat
kamen
lynn
spongebob
330
650
tone
##bane
emph
argued
goalt
therapy
categories
randy
constantin
smackdown
bip
##eon
towers
orph
norse
##ensen
clement
strongly
ancestors
riots
lets
##fi
##fire
##ativity
##otten
1829
notice
phones
originated
layers
bringing
theoretical
widespread
aim
oss
suk
##rons
##mish
##erner
regime
territorial
##iii
crowned
plateau
replacing
ci
ecl
stur
stall
monuments
archers
cultiv
libya
mirror
airplane
##noon
##dp
##itors
##uter
##cester
teleg
marne
geographic
topics
berry
shooter
resignation
ravens
stevens
##fight
##chang
skier
280
arabian
drown
bruno
wu
##pus
wore
establishment
survival
lotus
shares
embass
briefly
replacement
achieved
lahore
ji
mood
neither
##ynth
nights
dances
ahmad
relief
organism
slovak
remembered
theodore
shanghai
##bu
##avi
mines
electrom
##ushi
##uttle
assassinated
rabbit
chloride
lombardy
descendants
fm
kane
tic
##mill
##bid
marl
canter
##acht
subpre
patric
equations
##osaurs
sidney
detective
ahl
vat
wc
##rams
##kina
diocese
cox
broughton
surrey
310
1801
princeton
preparation
subprefect
gig
hij
##rant
1842
outl
mcdonald
collaps
architects
ultra
accidental
windsor
kawasaki
escaped
gius
nig
##cat
##rets
##omo
fled
afternoon
ellen
facts
nicar
opportunity
ios
muscles
##flower
oslo
initi
shapes
cogn
qatar
tight
yemen
##rt
##rors
amar
landfall
gothic
soprano
980
dong
tape
winters
##lif
##atically
##uli
regiment
swing
volcanoes
giusep
tucker
violet
##mate
##hd
##etch
##agers
pride
guards
duties
friendship
savoy
jessica
sask
##eus
##pro
##eric
shog
1813
sox
##ashire
europa
qualifying
cartoonist
nervous
monastery
elisabeth
minneapolis
bend
mb
muk
##aters
##bery
prohib
herm
instance
salam
iraqi
bruns
lancashire
##oppen
##lov
##avirus
grove
hardy
rosen
dollar
czechoslovakia
isbn
chester
carson
tenth
translations
goalkeeper
conflicts
hi
mum
ti
##ilian
output
artillery
passage
##castle
wolfgang
quarterback
kitami
tuscany
vest
monaco
depth
##alez
barber
midnight
nato
##ambig
funk
mosque
##while
strikes
sulfur
bicy
abandoned
gp
##strom
##igne
spelling
1833
attraction
devon
melod
suddenly
960
##var
##wyn
sco
finishing
macedonia
empty
hort
haven
kad
##dum
roth
##ullah
everyday
experts
bhut
boroughs
namib
fraud
dion
##acco
leip
1826
blake
epid
mozart
absolute
nc
unic
1810
canon
breeding
attacking
flags
pretty
reptiles
yes
stamp
##oses
1825
scope
flies
sole
receiving
##cycle
woody
cycling
clarke
roc
##bb
android
releg
1828
1832
blank
berm
moral
graz
latest
facebook
penguin
circumst
gonzalez
950
dome
lp
ura
1824
boom
carey
doug
benz
concord
francesco
##itled
reyn
tech
trent
repair
valu
republicans
influences
mccart
dissolved
trinidad
theologian
tune
##su
##jara
##isie
1700
edwin
operate
molecule
achievements
noun
pix
##olar
##igar
##ctica
##anton
barr
barack
verse
passion
streams
discrimination
centenarians
yan
annie
merit
harder
penis
vendee
cyl
yuk
##kre
##nu
beau
##quer
disambig
villain
concrete
infections
tonight
##lemania
naked
pound
##mare
inqu
##olve
mainstream
cherry
##unciation
canterbury
hag
ub
##ailles
marcel
allan
aggress
gram
##ebrates
likes
praised
aunt
hull
ile
puzz
prostit
cohen
celebrate
lungs
sessions
horizont
880
##rag
##kel
##cor
##oves
engaged
defeats
logo
focuses
generations
iod
##iad
##xter
theology
##uge
drinks
shortened
##eshire
candy
celebration
grandmother
abstract
nina
pbs
##hra
clif
britann
greatly
avatar
##redited
easter
abolished
disambiguation
340
jen
kyr
pdf
260
missions
pastor
fortune
##egro
viktor
pushed
bombs
electromagn
moss
welf
chains
##athy
patron
councils
bassist
insect
lithuan
vertical
telegraph
990
flam
##ucture
europeans
internationally
holmes
josef
monthly
identify
essays
vocalist
indicate
mongol
pregnancy
rejected
acoustic
giuseppe
pf
saving
##alam
##isse
specim
seneg
turb
wrestlemania
equator
shoes
physicians
curtis
uzbek
fate
nun
advice
1806
nitrogen
emirates
dere
jos
ns
##dr
reward
1814
societies
carries
legion
honored
##affe
weekend
aspects
montenegro
diver
##jov
##leton
##awi
performer
increases
practical
powell
wess
shi
##clusion
coop
guad
palae
signature
guitars
tribal
participate
tanz
happening
travelled
trinity
tasmania
cure
##olan
##iza
helm
milano
skater
lorenzo
instructions
adm
##assium
##arez
superman
indicates
somerset
hain
lup
moll
sik
tj
beating
neo
boot
bowell
pulmonary
bengali
wak
##ird
##usters
phon
hels
##otted
bayern
inspect
potassium
interactive
480
gases
deport
milton
wald
ferry
shirley
jets
kitch
clara
carrier
terra
##riers
##loo
##strong
kirby
conquest
samples
antarctica
jorge
vessels
fen
gad
raz
##fts
evac
geology
##ammed
motorcycle
astronomers
freshwater
alleged
rams
##sson
input
stem
clou
sauce
regent
exposed
urata
hotels
##onaut
viewers
hopkins
flooding
neptune
leipzig
l5
rust
marina
1790
silva
fighters
collapse
circus
beaches
dhaka
eugen
portrayed
nurse
enforcement
dug
xia
##hop
plural
##derland
juris
experimental
##hart
chak
comfort
palmer
remake
printing
besides
sindh
brisbane
420
##wana
como
##ipper
arb
parade
sensit
filmmaker
designers
variations
sexually
ranks
consisting
advisor
brunswick
fbi
xx
zen
##oire
##yer
##ean
tru
##onda
deck
rockef
##restrial
caroline
drake
entertainers
translator
brandon
abbott
belonged
bonds
pollution
millennium
pairs
rates
##bal
##storm
referendum
##eca
treasure
igor
vampire
senegal
##dan
##uting
##ubs
##endra
underst
harbour
conscious
discip
urdu
puts
memoir
climbing
lymph
##asse
reedy
##unct
promised
nobody
kobe
eldest
bradley
benefits
guerr
cambodia
experienced
bm
##vet
##hist
##px
inject
entering
madagas
bonus
watching
stripes
diamonds
rebuilt
bisexual
lithuanian
koh
pour
toys
##enter
clause
client
##lingen
esper
pointed
rosa
practices
duchy
marathon
moderate
paradise
970
sansk
##icate
alleg
##imi
##rys
admitted
strongest
facing
dalmat
sanskrit
##idays
1816
sheph
roh
economists
measuring
legislators
alexandra
madagascar
370
421
zones
##hall
##horn
##press
1827
herald
evan
schles
karn
tomatoes
substances
situations
boul
sizes
##riet
quit
visiting
professionally
functional
tsar
participants
stalin
kara
wich
##fried
##ono
##acks
coy
greeks
roller
duncan
wiki
illustrator
manufacturer
mitt
##uing
##ucci
##ahu
256
thrown
christine
voiv
extensive
racial
affil
perez
turtles
exercise
wizard
trilogy
rockefeller
mv
##mm
marqu
repr
##pective
catalonia
rotten
marshal
jamaican
welfare
ved
zar
##rina
components
##ernal
wein
flora
lesser
delivered
gradually
pag
##rice
##rea
forbes
disco
communists
populous
restored
bahamas
partnership
knockout
ussr
abbreviated
infrastr
##mal
maya
airbus
bars
270
rainfor
rubber
ancestor
tobacco
vector
chambers
kdot
##istere
shif
prizes
chronic
gloria
athe
fallen
pilots
expressed
installed
coronavirus
toulouse
gest
vand
als
chec
prove
attrib
emmanuel
holder
martine
restoration
tenor
annex
adopt
727
heter
ming
transmission
glory
coral
civilians
terrorism
losses
victorian
griffin
lebanese
miz
wre
##arium
##imate
mayenne
##quez
specialized
citizenship
innocent
sherman
pulled
rna
##etto
leuk
leather
claus
drives
relation
geographical
beta
explains
councill
yamag
gibson
breathing
kumar
och
vish
##found
##iration
##rite
armstrong
listings
dayton
campo
labels
leonardo
detailed
conspiracy
##vas
##gel
##onc
##isi
notting
centres
surgeon
finistere
superior
persia
rainbow
factories
crossed
1803
mohammad
dramatic
brigade
ticket
valuable
mccartney
840
##rates
##hand
##anas
stood
##urus
##imal
consec
feeding
brass
belize
nucleus
attractions
##enhagen
determine
stefan
bent
tut
##person
anast
##elt
prices
sally
verdy
architectural
rudolf
violinist
patricia
660
bism
yev
##mates
newcastle
laugh
permission
overt
portal
facility
jeffrey
tanks
rotter
jammu
pab
##ovan
tram
copyr
azte
moses
##chez
fortress
watched
determin
icelandic
revolt
beverly
830
fusion
holl
mits
nile
##anmar
##aton
##reen
##olith
tosh
stere
##etz
neu
wei
biologist
castro
firearm
sevent
measurement
kuwa
mog
mugh
oise
piz
rent
##idt
buzz
timber
uruguayan
patriarch
loyal
mice
##wil
##eres
plates
##acio
##ardi
##aches
consisted
klein
gandhi
##pecies
430
jh
yun
##itama
alk
##ershire
##anta
1822
scales
highways
barnes
numbered
kingdoms
##flies
kenny
pronunciation
narrator
circumstances
kus
yar
##cos
##olt
sings
1910s
##cker
competing
lyric
elevation
sleeping
mongolia
lesbian
bits
hate
##bone
shear
nwa
##kow
##osc
shuttle
openly
graves
timothy
leonid
affects
constantine
accounts
shawn
occasionally
nih
plague
##arts
##ugu
hispan
##kaido
battal
donkey
managing
flowering
helicopter
dorm
sue
##lia
##hyd
myanmar
courses
cartoons
counsel
weakened
collaboration
dul
gc
hd
tons
yard
##apor
reputation
magnet
##ipeg
leafs
exclusive
380
gift
rally
zam
##bral
reorgan
##adh
127
technologies
##bird
321
940
ae
##uber
##erver
anx
ondre
1811
##orne
driven
calder
##aze
belgrade
brack
remote
meanwhile
madh
rafael
##otype
infrastructure
870
dess
ria
##bank
##sten
##stown
abh
schwar
provision
##inki
extinction
publishers
earthquakes
butterfly
voltage
cameroon
kron
##mons
##amics
forwards
245
216
skating
morrison
dans
vibr
##mu
marse
cancel
willie
endate
valencia
coverage
sailor
taiwanese
rope
vie
##case
##pin
##atural
##ango
##orship
phara
belle
biologists
##istances
racer
veloc
customers
connor
cooperation
rotterdam
lich
##cz
##jun
ants
##thum
flames
blade
1600
##cluded
apply
modified
lessons
falcon
belarusian
henderson
ninja
urawa
1km
640
aes
hiv
wise
##alie
atlet
pla
newark
doo
matrix
##ymes
dirty
##rang
##inas
infer
rect
bean
copenhagen
##rises
deadly
probability
responsibility
dent
hik
wals
chor
marco
1776
gerard
136
volumes
angela
diplomatic
jamie
##ytes
kurdish
bce
dors
distances
kern
##ieth
##uga
1817
governing
belly
glou
##ylan
meanings
##bourg
maurit
tongue
lenin
consecutive
920
##oque
##eur
##nut
##gia
##ław
abroad
bases
everybody
jewel
psychologist
buddha
520
630
710
bolog
dow
fiv
hns
hesse
kyle
revenue
graf
mahar
spectrum
benefit
einstein
caucas
consonants
460
930
##iture
##imov
peer
1795
cruel
215
##ropri
holstein
##fordshire
seek
teachings
bailey
venom
##harmon
eruption
470
aew
bout
rex
outdo
khy
babyl
tsun
orbital
eats
fog
koppen
##zzo
##anti
##quet
genesis
reconstr
augustus
valid
classics
hautes
drain
penny
instruction
refugees
570
vid
##lain
isot
alps
laf
grim
administer
cyclists
dispute
comparison
lunar
voyage
860
pett
tup
##ener
developer
membership
enterprise
chiefs
spirits
andrews
equality
vitamin
subsequently
550
sg
saga
dew
unity
##allow
##avel
proport
##ourse
manual
##iban
cran
sanchez
readers
processor
homo
timeline
traveling
dominant
nicole
pocket
nottingham
pharaoh
ered
tah
##run
ank
sta
beaver
##orno
##ogan
##001
desire
animator
hybrid
freestyle
cabin
assistance
1793
1800s
cerebral
minimum
antibiot
fingers
dual
flex
gan
hul
##hed
anj
##sev
scheme
founders
winnipeg
avi
bills
symmet
oliv
cutting
subspecies
arsenal
dictators
taxonomy
sheff
partial
naming
herbivore
suspended
golfer
##tes
##atur
##osy
##ellar
winston
burial
richardson
balls
emeritus
regarding
ellis
purchased
embassy
pia
##ovsky
abel
compact
herman
hermann
eva
amber
instant
handle
lucky
voters
recognised
ratings
editors
cnn
autobiography
740
eh
lal
rats
sass
##icing
shu
comba
cruc
sno
radioactive
denomin
sharing
1809
pianists
fairly
corporate
prophet
unoffic
atletico
patch
rost
vig
stern
##etown
1834
twent
brave
panel
wheels
##ihara
infected
stafford
jumping
aph
cater
cake
wander
##atan
monitor
hym
lima
fault
flemish
belonging
flowing
sediment
roberto
ondrejov
cine
thy
##occ
component
blair
este
##atchew
##lette
##ammy
middles
rape
legislation
bhar
discussion
810
fas
tac
vy
zinc
deity
newfound
partially
saitama
underwater
interests
claire
connecting
decline
ticino
##kreis
gim
iphone
lying
##eni
##using
sega
fran
agu
blast
154
diving
##ront
cups
holidays
365
icon
motorway
1791
algae
manipuri
consumer
algorithm
331
ling
ole
##gus
chir
158
##itta
bark
coaching
1804
sheriff
fluor
pilgrim
voivodes
copyright
390
hbo
vista
##icul
##bern
receives
1807
eur
pounds
sok
##lav
indie
decay
relay
prehist
organised
intent
guru
nacional
##atchewan
680
fug
zomb
conce
conrad
##okie
##amma
1805
aquatics
1792
cuis
hello
tough
vine
polyn
preced
sanct
multipl
##werp
difficulty
contributed
scorer
rouge
emotions
saskatchewan
bermuda
horizontal
325
jp
kub
mt
tus
yad
##reh
janet
sofia
elvis
##uku
antwerp
grounds
identical
programmes
bombings
fernandez
prussian
fritz
understood
aka
bie
qing
rw
newman
mead
indies
151
greene
##atti
interc
variant
representation
publicly
hook
malaysian
frost
honduras
residential
norton
ecole
clouds
wichita
fivb
tav
yuri
##lore
##kos
##enbach
##aby
225
##gyz
burton
naturally
boundaries
defenders
typhoon
dylan
##stra
##ausen
##azar
mali
garonne
suspected
properly
continuous
##borne
merchant
laureate
sustain
540
hes
ix
wider
##card
##alf
scout
##ocks
strand
noise
discontin
somalia
concerto
laurent
kyrgyz
cly
jake
##lag
aless
beeth
clergy
1200
willis
ears
impression
235
arrival
bavarian
customs
uncredited
immigration
excellent
341
dmit
oy
##emi
shen
prep
observer
suspect
bahrain
fatal
resource
sous
##aye
2024
germanic
707
rapidly
veteran
ff
kai
nh
toll
##des
205
shift
trucks
1775
warwick
##atta
greenland
cannon
exploration
disappeared
skeleton
shogun
bess
hank
##sv
##ische
##ivisie
##ahon
139
christina
santo
congressman
darkness
astronomical
##zhou
theorem
frozen
khyber
eredivisie
##jay
##amic
scat
surprise
armor
interv
tao
satan
1788
##utenburg
nepalese
wesley
431
dud
sach
yards
##zing
##alism
##ivores
chu
asking
spiders
commod
##azi
maintained
315
oceanic
##what
slavic
clarence
achieve
calcium
vernon
cavalry
cuts
cesar
kak
204
whale
comet
plaza
congest
##ipel
##antes
emin
brew
revival
topped
satisf
climb
mrt
1808
meetings
analog
emotional
surrender
410
misc
rov
tent
stutt
spark
##acker
worlds
soy
subfamily
compositions
andreas
reforms
mansion
crawford
bail
nes
werner
feels
bash
highland
##urring
interface
ceremonies
palatinate
helsinki
voivodeship
fet
fract
gior
mcl
##uous
pluto
##apo
leak
grid
##inski
##anning
humor
tautenburg
prefectures
konst
withdrew
rita
sends
##jing
##alay
##avan
secure
kingston
creature
solutions
davies
freeman
##afa
homeland
mighty
prair
concepts
attracted
sheffield
beethoven
erect
jong
lut
##uen
##hor
##jee
##arth
##isk
##isible
##emann
##ceeds
deals
plas
manage
feast
carmen
172
parth
strang
grain
judy
judicial
logan
pyramid
martinez
kv
kag
tack
##chus
dear
prob
perm
saar
smell
microsc
interviews
travelling
advertis
reservoir
namibia
mys
##amura
forth
shells
1823
dischar
magical
topic
thoughts
nobility
accidentally
pyth
floods
intelligent
survivors
shallow
711
cors
vib
##care
hash
mayer
somewhat
differently
##riages
governorate
speaks
aquatic
pierce
please
dukes
bologna
til
stuff
whites
seth
brick
##ennial
demon
anymore
aval
##eroy
segment
durham
playwrights
turtle
mysterious
ses
tables
##gets
borngen
moist
##apping
arrive
olga
amazing
wolves
fake
nie
omar
ink
phant
141
recover
armour
humanity
celeb
lorraine
mechanism
clearly
joshua
inherited
basilica
valleys
imprisoned
##ozoic
derek
bind
gael
kais
##muth
##vic
defect
##odor
prest
basel
crater
traff
populated
##borg
libertarian
coronation
ownership
reynolds
pud
xv
##vious
##sted
spike
manner
##urem
meiji
allah
290
samurai
recognize
rises
habitats
tadp
##kova
##nn
##vian
unre
edo
amanda
reducing
patrol
handball
hamlet
liege
rebec
wears
##brook
ingredients
375
aja
dash
trop
##xide
##inity
inland
wasn
##aders
##imedia
##illion
joey
disagre
gros
##icking
guang
helena
baroque
acceler
eps
cyber
entitled
postal
alternate
monarchs
phillip
##onymous
requirements
auck
bik
##oibi
##smith
##orrh
##opl
spending
##ifest
brings
presents
johnston
##cessor
vera
researcher
entertainer
circular
swimmers
atlantique
algerian
slovenian
krishna
dhar
##urers
forbid
angola
arrives
memories
sailing
nicaragua
auckland
porter
sink
##mail
##zin
##raid
editing
gunn
curse
bankrupt
hayes
oxidation
leukemia
521
820
ora
riley
##abl
upcoming
missile
ecology
operator
lighter
maxwell
kyiv
sergeant
efficient
##math
thread
##ayev
##ulin
##alli
##ako
pref
governed
##velle
judg
begun
torres
roses
miranda
nicol
constantinople
890
iber
kann
mia
pets
enh
abilities
##iffe
counts
syll
211
##elyn
organist
declares
reformed
subsidi
enjoyed
schleswig
590
sack
##iner
##alla
peg
guess
gujar
emigr
campe
rounds
navar
welcome
tasks
learns
conquer
clarinet
uzbekistan
newfoundland
lens
sne
ties
poles
knox
brill
discoveries
accessed
contestant
recovered
beetles
##lord
##idd
##abited
clash
##boys
crab
licens
purchase
accompanied
wcw
##stead
##odyn
##antin
##sein
##order
roch
##unden
dres
coin
greens
noah
undert
invention
archie
anywhere
pakht
prede
aerosp
disputed
elliott
fungi
pablo
sending
##lich
##log
##vae
##gun
##reats
rever
clown
traged
##okes
silence
explo
funny
shoulder
ashley
celest
kosovo
kuwait
higg
brut
amo
baltic
coached
suicides
reinfor
cameras
vinyl
vatican
715
##yard
##anor
##onica
209
##unkh
##upp
noticed
musk
philharmon
irving
exception
baku
doubles
hispanic
jed
lago
nago
##ivo
cluster
basque
caliph
harp
treasury
dishes
adjust
vowel
bhutan
440
cb
cott
##alan
##idan
##ebody
afraid
##ensional
##engers
##caa
hawk
bronx
folklore
zhang
mgm
aa
##wear
##jin
##atu
adri
button
drunk
geological
251
obvious
ethics
yankees
670
vital
##bage
##ivery
bride
raising
burrow
wednes
accurate
kidnapped
bicycle
##unkhwa
aure
crom
##lu
##imony
##abil
##rities
yearly
##obia
253
berger
debt
1870s
verd
osc
getty
bibl
qa
##rels
beef
convert
##omez
apoc
##tenham
barrier
##gradu
legally
porto
scream
destination
reader
certific
jerome
wax
neighb
embry
pakhtunkhwa
espan
yours
##aise
##nas
##imer
abe
apar
mush
##obe
maiden
bergen
mccl
stopping
homeless
saxe
contestants
bleeding
updated
neighbouring
aberde
celebrities
335
575
631
cia
della
ome
yak
##andra
hern
archipel
bernie
cubs
trumpet
contribution
arcade
dragons
hedge
submarine
##omorph
ongoing
##ulia
scots
##ende
muss
##ussia
remark
variation
delivery
socialism
oswald
hosting
viewed
cooked
package
bradford
rabbi
inspector
shepherd
720
780
##rock
##iler
sham
##endered
austral
liu
median
rockets
varies
1880s
premiere
conductors
barbados
lifestyle
encouraged
muller
339
741
dip
fk
pitt
beam
sperm
notation
sheikh
johns
jef
##engo
##isei
defenc
cafe
connections
racism
anthems
broadcasts
ai
dot
sells
winger
##oso
arlington
##atha
edges
tract
angles
hardcore
macdonald
mahm
whitney
lancaster
hormones
811
ez
gomez
ncaa
sd
##right
##enas
stir
##ayama
marines
##ups
ammon
crane
competitive
##ushu
madonna
promise
orbits
zambia
stolen
nagoya
628
aimed
gog
pter
##gae
##atel
##adays
##otam
##adeus
amor
slide
interim
ecw
defending
oceans
999
somebody
migration
occasions
interpretation
ips
rode
##master
##anov
206
##ibu
##ilyn
divide
nowadays
filming
costume
falc
siberia
stuttgart
fiji
lj
pant
##eaux
##vich
thumb
##once
##oline
beats
##ande
ate
spart
spell
1798
burke
chemists
periodic
feminism
linguistics
flavor
bard
hague
##las
##nian
chrys
shan
knife
157
gramp
knowing
theatrical
columnist
espn
ligue
supernatural
strategic
nebula
560
flet
##lies
##sd
##gir
##roc
uprising
wellington
versailles
signing
churchill
turks
##archy
sami
separation
cinem
tuber
oriental
integrated
tanzania
541
576
dinner
homet
mash
vrh
##eros
##orgh
commem
##ouses
166
##undy
portable
loses
##porter
mandela
surgical
pavel
##rahim
smoking
unofficial
cork
hast
##aan
##atas
##ioni
shizu
notre
brent
popes
impe
barrel
karachi
campaigns
teenager
vikings
philanthropists
announcer
uganda
sensitive
##olithic
rebecca
a1
pach
##kaya
heated
##illing
##oby
moor
richest
posthum
hallow
395
medicines
straw
galile
boliv
lynch
horns
scorp
jol
##fred
##elius
##chio
fris
##phones
schiz
saul
directions
247
berkshire
verde
journalism
inns
pulse
vacu
dimensional
doubt
prosper
mcmahon
antoine
petrole
525
cz
cerv
tues
##eny
##icit
##angu
##idea
directing
albany
mao
whereas
malt
latvian
tomorrow
theaters
moroccan
asteroids
kend
luk
reid
italia
chim
preston
##see
##ifies
somewhere
weimar
releasing
##engths
daisy
titans
confuc
qualify
spiral
percentage
tajik
wessex
anxiety
velocity
545
cac
hence
rim
##jor
sheet
monter
crni
##ierre
capable
lasting
limestone
1802
candidacy
favou
elsewhere
reinmuth
lankan
accomplish
abolition
maritimes
veterans
ajax
hometown
dell
kav
nud
tina
##sis
##fel
##igs
stap
##iry
beans
##oco
unh
retiring
tempor
hindus
nutrit
bamb
lily
nong
nied
vr
##notes
##ов
andor
whis
sworn
swamp
guests
212
milky
##icester
teaches
##centen
reacts
automatically
3000
segunda
diverse
monkeys
glands
##bin
##igata
##amy
##idon
marvin
counted
acute
edith
##rique
landmark
defended
happiness
ideal
additionally
frequent
austen
opponents
propag
browser
administered
427
910
gale
pwi
sits
##stop
flint
communism
##annon
238
275
sentai
melody
catalan
breakfast
segreg
employed
challenges
trapped
assumed
mughal
##osystem
ducks
yah
##gent
anh
stuck
##empl
unt
anger
demo
reverse
visc
freud
taliban
burma
cyclones
sequels
stadiums
viking
striker
ethiopian
jill
nerve
##gor
inten
forec
##ifice
carc
warn
artem
terrestrial
runway
1890s
shorts
persu
perspective
approval
ambul
loving
mohamed
drawings
indoor
apparent
aristoc
##keepers
electromagnetic
petroleum
nurem
##urrect
##opus
##illed
ley
fraser
##onduct
##spring
juice
elena
starr
cros
##aek
defunct
ruins
1797
communicate
tunisian
twentieth
ces
caves
hc
lift
rak
threats
sting
##acion
##ikawa
aftermath
##tenstein
servants
filed
nearest
martyr
inspiration
breathe
scandin
recovery
explanation
vale
wives
##leen
##iants
neur
encl
214
231
turbo
samoa
boyfriend
honda
kitchen
337
425
##sts
heating
shane
brock
241
hoch
eyed
reproductive
concerns
##continent
dora
raced
soria
##yg
##coms
##ivorous
chenn
uncer
##ipse
marilyn
worms
cologne
1777
##irect
schne
augsburg
larvae
221
##gren
sendai
rahman
roland
marseille
nuremberg
hr
##erie
##olin
203
##irt
hector
##lywood
whales
leicester
rochester
traits
258
25th
waterloo
supercenten
turkic
turkmen
hunger
##amento
tarn
medici
satellites
continuing
locomotive
cuisine
f1
bei
coleman
schum
##tenberg
swallow
##otti
trem
cameo
motiv
danube
mrx
treaties
flyers
cerro
hemorrh
neighboring
fabric
nutri
##iveness
appeals
opinions
sponsored
jurisd
hitch
lum
md
thurs
monet
relativity
recurring
albanian
222
ske
705
destiny
##yeong
jacqu
mccar
alfonso
controller
pigs
cassette
##enzie
ricardo
323
jelly
zach
##iates
##cock
##onen
##osing
decoration
grig
##ashtra
formats
speeds
distant
brands
tatto
lonely
nouvelle
coordinates
collapsed
prairie
326
777
lill
nt
pest
xen
##bel
##esian
##stro
heather
proud
contra
grun
harsh
intermed
salem
merger
haj
protector
juliet
gardner
temperate
lemon
hunters
switched
##hardt
suitable
impeach
jal
wah
##ajo
alder
chitt
herr
1750
1778
schl
impress
midlands
##naught
everywhere
##cripts
antip
sitcoms
odys
hydra
sailors
shizuoka
borrow
ioc
##jima
##thus
ort
nationalism
suite
##101
premiers
sharon
hospitalized
practiced
ecuadorian
dependent
auxili
wednesday
##asu
##entin
##idian
hert
flute
appropri
254
obl
##aea
hyde
structural
lucia
rebels
headquar
shirt
ultimately
tornadoes
abbreviation
cecil
hypothesis
329
435
821
gly
katherine
lund
°f
##olves
208
ital
bees
maori
metaph
226
graub
timor
synthes
anthropology
aerospace
dart
dough
##jat
ally
enz
##icho
brady
russians
mya
humph
mercy
antiqu
kanagawa
doctrine
diversity
gentle
##continental
exposure
choreographer
fletcher
347
kry
niel
sapp
tier
##wang
##oning
##than
##adian
##umont
##odies
##osta
##quel
saff
##eryl
toured
garfield
##islav
brandenburg
commissioned
participating
wisdom
craft
##comb
##atz
##itable
##opotam
spo
##ebe
disl
bru
brush
upgr
##lla
statues
hyder
grab
info
sandra
philosophical
collision
hartford
mohammed
niigata
germain
relegated
##graduate
graubunden
641
770
gond
nish
sams
##oard
##kinson
##cu
##atist
##alom
##amon
##chu
##abel
usb
phd
minis
juels
slam
##shan
paula
limburg
ivory
amongst
viola
##marks
commanded
owl
announcement
schwarz
chennai
345
610
zion
##nt
##acc
mang
exit
1780
1796
##ieri
259
demol
micha
touring
mcd
discovers
crosses
protagonist
utrecht
##cestershire
##chaft
toyota
shelter
##cribed
hokkaido
battalion
discontinued
411
witt
##koping
##oded
arte
monks
stras
##inness
257
corinth
bihar
denied
etienne
primitive
1787
sprint
ruby
toler
mozamb
preservation
vaccine
initiative
639
pard
tens
##anan
##adder
##opol
lever
doom
cres
royalty
declined
optim
toledo
orphan
congestive
629
rous
##itudes
207
proceed
##assis
laos
##actic
##ungs
steal
antlers
cyan
judith
1794
rifles
hutch
fellowship
tadpoles
580
fy
feld
ily
pau
##iors
##yen
toad
isles
mane
centimet
preserve
##ffin
juvent
218
associations
355
885
sacrifice
hannah
730
mistr
##inho
##itian
shipping
##apes
spotted
indus
secular
217
makers
1850s
chapman
siblings
provisional
tuesday
intense
595
760
fah
fischer
irene
pend
##bons
spears
##uddin
1799
parma
##atty
consoles
okina
sandwich
elephants
dolphins
saxophon
336
929
cage
dai
diane
hyl
tart
yuan
##cope
##pi
##bound
##arms
feather
acres
246
213
mori
observations
1785
audiences
telecommun
rhineland
hawaiian
columns
orientation
concerned
valentine
announces
subprefecture
596
745
841
gos
pis
pagan
##cube
threw
andes
##elo
##unn
seals
marble
parody
dismiss
soup
trace
maid
307
sunlight
holden
bullets
recommended
lent
nir
nab
pou
yoshi
##aic
##anu
##onzo
sect
shots
byr
plata
##avier
1770
##ulture
##space
##yson
305
obtain
hara
311
trevor
##bye
fergus
predict
mammal
drove
synthesis
##kirchen
328
##enov
##itas
deities
newer
sergio
knee
supporter
johan
creed
consul
banking
immort
fuji
harmony
seemed
nippon
327
hos
kamp
meyer
pes
sabb
tate
fork
sep
##ellan
carac
belfast
surin
sharma
frontier
abbas
pirate
diaz
chromosomes
##chwitz
349
447
510
vick
##amine
##iani
##agement
##odont
proto
sociology
truman
bred
symp
reggae
redd
castles
1860s
similarly
savage
lauren
fitness
robertson
cus
dana
kof
tear
andr
##alliga
##apur
worm
agnes
juven
skiers
iris
ecosystem
sanf
protects
tunes
funds
horizon
inherit
moldova
gifts
britannica
prehistoric
philharmonic
bis
mature
##arya
herz
flesh
mafia
227
busy
braun
rao
incred
varieties
##hei
devils
##eldorf
encoun
estimates
wiener
pornographic
infinite
walsh
cip
cuc
ges
##jev
##alp
toes
##akk
afford
bois
281
midfield
variants
405
baloch
convinc
jeanne
peaceful
princesses
phrases
terminology
forbidden
675
721
eut
oath
pose
ال
##hurst
##orious
##olid
deaf
##fering
neill
boots
carm
232
salmon
##201
antio
specialist
confusion
squar
curry
paying
alek
commentators
gamba
##ikovsky
triassic
advocate
wendy
archipelago
ely
lance
##vement
##arov
neal
##sei
hassan
##ibald
rox
dob
##epp
248
load
313
continents
tomas
republics
digit
dominated
ibrahim
furniture
nxt
##fit
##atin
ine
##ersdorf
##iments
243
285
statements
lasts
antig
visits
standings
bonnie
ramon
molly
sergey
##angelo
dressed
yevgen
prepare
476
eul
vince
wyn
##theless
##agus
shy
eden
moth
quinn
252
295
312
verses
layout
ranging
negro
luxury
beyonce
synthetic
marinos
reunion
625
kop
mock
##list
##days
##org
fee
countess
hered
rookie
secrets
metab
slim
slang
##otta
##aeus
eras
mascot
richards
describing
birthplace
predator
segments
optical
exhibitions
macedonian
elliot
proposal
navigation
halloween
475
bust
fathers
hiding
lager
tud
tann
viss
##xi
##amation
##ignon
orth
conve
##anted
mank
##ifax
1400
228
bret
revers
sunny
borussia
stephanie
pleasure
wealthy
isabella
cedar
sociologist
maharashtra
vacuum
auxiliary
hin
lava
ner
##atro
revel
##tering
##cliffe
pars
footage
goat
teresa
radar
templ
explore
thrash
literacy
rankings
jacksonville
reacting
disestablished
favour
alcoh
sahara
echo
fow
nd
ratt
yong
##vana
##olism
heal
##atham
mothers
mainten
303
##uko
##shine
314
halifax
fuller
venues
eleventh
khamba
429
749
gia
osh
wavel
xvi
zagre
stays
hisp
webster
offspring
306
emi
##loaded
floors
burm
mcnaught
385
missionary
souls
sculptures
punjabi
employment
isolated
uranus
delayed
379
426
526
790
831
dort
tik
##kok
##jiang
##uria
beak
##odo
lep
mega
crest
overth
airing
##erald
3166
radius
designation
realized
curve
strauss
omn
option
manufacturers
aargau
vulner
bubble
ornith
trigger
nutrients
chit
##uti
booth
genome
receiver
healthcare
involve
gaul
estimate
significance
atmosph
chronicles
eduardo
645
##auts
##aved
fool
1779
coe
##ght
249
236
glam
intensity
developers
performs
collecting
commentary
displayed
##craper
circulation
pizza
zagreb
438
cigar
tian
wies
##yar
##asso
butt
tracy
accent
##zek
boxes
nordic
oilers
selen
spokes
imagine
preferred
canceled
527
bant
cbe
hare
##chin
##chel
shrew
serp
##onds
schwe
daytime
##araj
sunshine
1786
fukushima
linguist
iwata
dictator
pharmac
plasma
sapporo
346
338
479
615
618
717
dz
erit
eph
hms
xiv
##worm
##eti
##cephal
unex
compreh
##cession
membrane
##301
sentences
posts
465
offering
cruise
sovereignty
intersect
displays
378
439
911
cena
mell
nog
raven
abund
##undi
weber
219
##appy
addiction
vega
cardiff
petr
mosqu
##ofen
1783
terrorists
riders
coloured
vegetation
lagos
esperanto
thursday
gb
wan
wille
wrap
##oked
##izh
retreat
##atories
maggie
##210
prevention
bordeaux
predicted
messenger
blocked
suburban
ipod
chlorine
decorated
fitzg
unsuccessful
348
awar
bing
eros
fier
gaga
hitting
nue
sf
wade
watt
##itational
shor
providence
318
greenwich
performers
crimea
puy
logical
imperatore
tails
stevie
ensemb
fou
hust
sss
uh
wimb
ches
##opods
##esset
worried
click
##ibo
239
gamecube
interchange
annually
farther
madame
squid
ballad
##cheon
banker
jules
romeo
spreading
eleanor
cowboys
installation
zimmer
distinguish
schmidt
commemor
825
nara
##yst
##iras
unfort
firing
upset
schu
237
camel
squir
olivia
astronauts
jurist
dubai
tobago
immediate
bohemia
nineteenth
konstantin
subsidiary
547
529
627
725
bots
zee
##hog
##lemy
chee
leh
##qual
flame
underworld
296
confidence
mcg
obsess
melissa
886
murderer
sexuality
##escu
dodgers
johannesburg
uranium
hail
nomen
##mb
##200
theft
##eses
##agu
byron
mae
##auf
incor
businesswoman
hotsp
tribune
##theid
marcos
##adeshiko
manuscript
aggressive
unfortun
635
dund
kashi
ngu
nadeshiko
yus
##court
##bles
thief
whate
aboard
##okee
##erness
##weed
224
229
islanders
273
arguments
conducting
cello
occupations
levy
pronoun
glacier
destroying
goaltender
377
wi
##alous
spher
fries
manages
aggreg
resurrect
sof
mounted
50°
digits
teenagers
explorers
gregorian
answers
chaos
streaming
torture
puzzle
apartheid
620
626
gag
tna
##igl
##ilder
##gee
sought
highlands
elm
endors
297
cyrill
payment
participation
baghd
mutual
##skaya
mistake
reserves
thermal
regulations
withdrawal
riaa
middlesex
omega
biz
duss
ero
tamb
##beck
chips
asylum
mangan
apprent
##ukh
261
differential
tottenham
deriv
penal
sabha
situated
bacon
clifford
dresden
maintenance
whatever
376
748
gop
het
lia
naw
##rob
##eling
chun
asth
##ucn
meal
knesset
acron
resid
##azaki
quot
obso
squares
boards
environments
feminists
##piece
sterling
428
478
ej
gore
lach
ramp
yi
zu
##oit
##nels
##icious
comunes
elton
##aires
223
emm
domingo
vaucl
nationwide
patriots
update
subsequent
nursing
biblical
akh
bury
pipe
##uya
##jon
##inos
##onan
##etically
trench
gob
augusta
overd
helium
22nd
299
peaks
civic
##former
arabs
magnus
bonn
rotation
constantly
excav
waltz
correctly
adaptations
scholarship
throwing
eisenh
evangelical
schizoph
innsbruck
343
441
666
939
caf
fare
lime
##olini
conven
manifest
counting
allison
1620
sauro
244
286
loose
lego
pawn
humanitarian
condem
burkina
panic
airplanes
deutsche
auschwitz
faso
fitzgerald
cyrillic
449
446
649
morm
rik
wong
##ceae
hepat
congreg
##acent
groß
guinness
myers
##erville
winchester
hunts
closing
involvement
1784
bowling
lawsuit
buckingham
havana
troms
phenomenon
inauguration
evacu
gujarat
campeon
jacqueline
miniseries
515
bore
kov
nuts
oleg
tb
tast
wart
yv
yog
##ycl
##inians
##edon
##rek
##stock
##ums
##ieg
peach
tek
presby
##acts
militia
rapids
888
ronnie
encry
explosive
advisory
sacramento
disabled
vowels
dwight
cylinder
forecast
schizophren
548
839
aal
bian
dino
mie
nim
##has
##agic
##esti
##oder
protons
offs
1300
outs
276
settle
##ledon
characteristic
astroph
nepali
bosnian
container
surnames
terrible
hyderabad
burmese
445
cic
koll
tension
xin
##lass
##hal
##wen
##ør
##orah
##reuth
##umps
orton
trium
##ikes
##ryn
dried
##action
howe
288
esther
406
firefight
secretly
##ihu
dealing
jenny
crusade
quran
nassau
professionals
tsunami
clyde
obsolete
511
sque
##lay
##aroo
##cho
##illac
leone
##uca
centered
disband
saone
recall
invisible
##eneuve
victories
787
immunity
praise
hanover
frederic
measurements
cowboy
wonderful
vaucluse
528
611
731
718
dah
##iency
##100
##anum
##aren
anah
##imon
grover
basically
308
316
takah
donna
angelo
benin
matilda
posted
bulld
observation
inventors
removal
nagar
bunny
seriously
sylv
piper
botanical
decreased
##recce
manuscripts
reconstruction
awareness
546
690
875
cube
gaza
kuz
nost
oster
##adt
##adan
##ules
##aparte
283
##appa
raja
viral
karate
trainer
sailed
diagnosis
vertebrates
gaming
cerezo
guadal
certificate
sanfrecce
436
676
726
848
kah
luna
##liest
thank
##ameral
##emer
seiz
##uder
roe
eds
obst
weston
hamlets
flynn
liech
agrees
assisted
carbonate
underne
explosions
employee
sylvia
bugs
zelda
headquartered
underneath
448
947
935
aks
jaws
lass
mug
##zilla
##utz
##estrian
pepp
canyon
bladder
buying
##ographies
noct
slayer
goodbye
366
889
381
shoots
333
##antha
funding
aeronaut
banner
lutheran
ceremonial
466
616
927
euk
nah
oita
vom
##mor
##wara
##dia
inver
invert
##itone
##acan
laun
disgu
brien
registr
amn
##ussy
loos
emilia
sunset
baba
antony
hussein
familiar
prav
laser
respected
ricky
witches
sulfate
##optera
botanist
antarctic
casualties
cognitive
michaels
549
679
778
lips
mish
rt
za
##kk
##hara
##ingly
##bergh
##ithms
aryan
marino
carne
1740
##icians
##ilding
relax
ups
missed
##ophyll
lester
goalkeepers
beaten
casino
pageant
removing
vegetable
hammond
aberdeen
946
gou
pto
tears
zap
##mings
##pers
##pill
##pox
##rous
chow
##agna
##rab
nec
cone
pean
leigh
##abul
##ecy
amadeus
walked
##501
presentation
ruther
certifications
potato
miracle
doctorate
nikolay
bomber
isabel
437
779
849
bench
iucn
vitt
xavier
##ataka
##thood
##ilst
##ovna
bez
preach
emble
sportscaster
dense
memor
catalog
insert
kirch
hemings
parasites
kurdistan
phantom
716
937
931
936
benson
oman
sq
vog
##vey
##part
anten
##iland
maybe
##sha
raiders
variab
cyrus
posit
autism
bedford
swords
aurora
wireless
eminem
tubercul
wimbledon
astrophys
liechtenstein
578
866
dams
pork
##git
##itimate
##ications
##chy
sphere
##pha
boog
##auss
1650
syrac
##onscious
assess
noel
298
##tym
359
faust
targets
1707
bulls
absence
renault
carpenter
lymphoma
baghdad
647
638
678
815
gould
korn
lb
tl
stunt
seab
##acon
mare
webb
279
steep
##flu
masses
##esha
##401
408
thomson
observances
371
kilog
cherokee
rajas
integer
harmful
suspension
rainforest
juventus
ferguson
incorrect
eisenhower
322
637
827
845
878
gains
niss
##uno
seam
enrique
twelf
presley
artwork
##ancing
30th
publishes
murd
robots
boyd
archaeology
chevro
tactics
tragedy
twelfth
effic
kens
kiy
katsu
pt
pts
pomp
rc
wen
sto
stating
plug
apo
adject
##club
##psy
succeeds
reporting
persec
661
mandarin
tailed
disputes
oriented
trailer
kapoor
hemorrhage
mccarthy
syracuse
aims
cows
uter
##eet
##wy
onwards
##rav
##athi
induct
calm
233
intercontinental
balt
naturalist
451
casey
bombers
rodents
hubert
repeat
vicente
pleasant
pornography
possession
hormone
dawson
kyrgyzstan
predecessor
728
925
jah
ning
##oise
toile
une
supple
##sheim
386
panthers
##eldon
mortal
lionel
townships
vorarl
delegates
renewed
hierarchy
grampus
alcoholic
presbyter
876
949
mama
##rington
##cup
##01
##fil
##enes
##arina
##leader
alma
stabb
sticks
##otr
neust
##ieux
##ipur
margin
linds
##ibe
1598
##ilee
##yss
319
##ophy
##801
devoted
605
possibility
protecting
dunn
falk
manufactured
beneath
travis
imprisonment
batteries
consciousness
619
776
976
hanna
lays
rij
sime
##hot
thuring
chant
##ichy
mari
newport
compass
indicated
287
271
landmarks
##aneous
505
509
aston
raph
399
ethan
767
581
##zyme
sprinter
klaus
cleaning
megade
gravitational
sponsor
interscope
quartet
mozambique
975
aware
gis
nils
pike
paw
sagan
wards
##pse
##enta
1760
cald
##epants
242
##alypt
satir
485
481
785
768
semic
colonists
renown
seventeen
cineos
strasbourg
dusseldorf
megadeth
324
342
746
hue
hons
lus
saves
tired
##iu
##edge
andres
##ustion
tradem
mayflower
dozen
suprem
empires
godfather
donated
labr
##force
361
565
1763
##ommod
titanic
volunteers
outdoor
hernandez
atmospheric
erotic
vorarlberg
695
729
879
bisc
ceb
kand
mating
uly
##hy
spinning
##mental
##achim
carriers
gron
filipp
accommod
##boo
bremen
halo
motto
ideology
catholicism
treatments
655
486
555
1781
futur
speedway
bhag
calculated
jenkins
ambulance
squarepants
636
766
926
966
eternal
fins
kell
lid
tes
##jav
##iston
chol
shik
minds
metam
sketch
listening
278
landkreis
colleg
arranger
marty
455
tunnels
promoting
landsl
##know
twenty20
lithium
discussed
lamborgh
tissues
neighbourhood
andorra
artemis
rutherford
599
838
dante
etym
rides
##arck
andalus
##inga
hew
proclaimed
##ritic
brat
apples
##iera
grouped
crem
elf
##annah
slip
234
262
272
277
##otting
radi
goldwyn
extends
887
punished
moselle
separately
renal
vaugh
andrei
neighborhoods
cromwell
favourite
intermediate
423
579
775
921
bb
burr
healing
##opa
##udh
worcester
##upta
assets
309
jealous
avo
silicon
facto
bonaparte
aliens
sieg
hydroxide
tuberculosis
577
829
828
819
bates
dae
hanc
joke
tara
zoe
##kas
##isle
##itr
anita
##rooms
beard
##rach
pratt
scared
##eye
cray
metric
obe
284
289
floating
seeking
##601
357
musicals
363
duet
965
685
hoped
1758
aquarium
freddy
rumble
subdivision
gathered
gathering
podcast
ferrari
restrictions
helicop
hymn
gaelic
648
928
baz
jab
itunes
##opy
##eba
define
wanting
mcdon
characterized
sato
855
flee
sequences
bundest
funded
omaha
conversation
portsmouth
antibiotics
lamborghini
621
deng
gin
mn
##bys
cheshire
trunk
##izations
304
23rd
263
26th
demons
revised
taluk
358
applies
apparently
procedure
eclipse
wreck
drainage
020
847
945
dang
fury
##jet
##lean
##tham
shannon
##umen
canucks
usher
compat
##endium
relating
earning
##grass
291
282
317
villains
natalie
silv
honol
757
referring
bollywood
emerged
generated
bitter
packers
clinical
ensure
##kirk
essayist
vessel
surrendered
mvp
ensemble
chevrolet
bundestag
010
699
biss
kik
mord
ust
ull
##lis
##nikov
##bard
chapt
##ocation
conway
tej
gluc
archd
villeneuve
extent
etat
hampton
369
browns
461
seminary
cannab
protective
immun
kashima
alexandre
lambert
laurence
principality
customer
joyce
jagu
aristot
##jatjara
schizophrenia
honolulu
698
835
948
eure
hick
nests
sis
##oys
##had
##cie
stam
1737
perpet
contents
retro
transpl
myel
##itsu
covent
erin
argue
##ijk
765
darling
lovers
resistant
dimensions
opportun
cheaper
giorgio
eukary
090
566
826
dord
kats
mih
pang
pash
##rance
##rats
##vy
##pc
##fu
##idy
##imoto
comments
##akura
joa
regulation
deskt
##anka
finale
italians
casting
camden
402
458
1782
telugu
pigott
ghosts
##claim
cosmic
chronicle
autobiographers
beetle
iodine
okinawa
campeonato
530
632
719
837
816
kou
wad
##makers
##hak
incl
##itiba
##ocated
enroll
dias
stark
294
265
##loe
407
356
robbery
collector
456
primaries
lowe
651
##holder
attempting
cocon
thunderstorm
arsenic
tubes
##rupted
dixon
chapters
050
571
646
hai
nj
panch
pistol
rih
tuc
teng
##nis
##code
##fin
##inte
##church
frib
##upe
##mans
##erna
1100
guam
proven
obsc
punch
processors
panther
bangkok
taxi
1768
controlling
drops
katie
weightlif
cathedr
##lenburg
cocaine
narrative
bertrand
conversion
##foot
reelect
surfaces
yadav
vissel
dortmund
asthma
941
ding
hats
pius
##hang
ori
boo
apes
##ikon
meck
quentin
annabeth
sixty
368
704
391
393
savo
synch
jonas
locked
barton
permanently
challenged
portraits
restricted
consultant
sturm
anjou
caterpill
confucian
hepatitis
anaheim
080
512
bould
henn
oro
##mart
##arest
cong
##aryn
blaz
1590
goof
missiles
paolo
solving
downs
506
367
808
387
334
semif
darker
dynasties
abdullah
protestants
alej
extraord
dirt
sophia
gabrielle
thermodyn
telecommunications
lindsay
gat
mund
isn
isonzo
chew
adds
indirect
##ilde
assyr
surge
myths
varied
balk
latino
nobleman
behalf
332
##iyah
##market
armenians
bolt
sanga
integers
unconscious
aluminum
appropriate
metamorph
070
846
dic
fior
giro
mk
mh
pots
uc
wacker
##zier
alain
##adier
marries
##ibal
##clair
volks
sometime
508
cardi
755
draws
987
independently
theatres
liefering
circuits
levi
poker
burgundy
couples
aluminium
skyscraper
karnataka
rectang
falcons
011
cull
fert
##lio
##oris
##enheim
##atops
toads
whilst
probe
condom
manning
carb
twil
##techn
nationale
amino
deserts
##azzo
airs
##apped
brett
humanities
403
eighteen
fleming
freddie
flooded
descended
cordoba
##birds
voyager
czechoslovak
clerk
discharge
higgins
midfielders
comprehensive
raphael
060
416
818
bella
cush
dair
kung
nr
nymph
yel
##nitz
thal
##ionale
1766
disks
brend
booker
simone
lighting
natives
locally
georgetown
commanders
approximate
##ithmetic
witnesses
substitute
consequences
licensed
642
bick
cis
cag
dill
dover
kee
rai
vass
##ruz
##erman
thur
##asan
unw
##ieve
arithmetic
linz
274
imdb
##adox
995
lucerne
gabon
marsup
rescued
worshipped
granada
momentum
vishnu
nutrition
humphrey
mistress
hancock
fribourg
598
938
iq
ngc
td
##rish
##irs
##andan
##eart
genoa
transmitted
makeup
countryside
sunderland
beginn
394
vanessa
996
psychologists
rubin
vasily
guyana
distinctive
##music
sanctuary
877
dumb
goss
kish
##gil
cheng
uncom
concluded
fres
parana
desk
assam
302
champagne
264
valais
email
extract
flores
wilm
384
388
396
985
orchestras
bolsh
fantastic
bottle
pupils
interaction
crystall
lecture
obituary
norte
saxophone
sabbath
524
836
979
biel
ecc
hs
hess
kolk
##jak
##arie
##roads
##thou
##osi
##ipa
exchang
livest
mons
slower
292
##boat
capitalism
409
entity
sunni
takeoff
peterson
362
institut
865
786
accessible
##oslav
dimension
confederacy
significantly
imaginary
wolver
wishes
decrease
outlaw
babylon
enzymes
samsung
021
372
fencing
gamma
lv
rp
stup
##estown
clients
1741
stranger
invade
reduction
##ulla
erich
array
totally
805
##ricke
vacation
treasures
paleont
lizards
1840s
scattered
422
696
duc
foll
jug
vad
wounds
##auc
##orio
##chat
dece
shia
adul
adele
1730
miners
sche
genius
recr
avis
midway
grandchild
404
mcn
383
398
392
effectively
developmental
claiming
options
##ppard
clayton
michelangelo
specimens
kashiwa
helicopters
516
633
cory
dd
nos
nath
rational
vip
##ratic
##arat
sts
marriages
diagram
polym
##anson
1621
293
waterfall
goodricke
competitors
errors
##hao
citation
legislatures
heinz
conventions
nigel
avalanche
##employ
supercentenarian
willem
botswana
renowned
634
cited
dove
hap
jade
panda
tc
thistle
##isition
##ilion
alter
##adic
chung
unions
lea
canary
1566
coaster
southampton
elig
24th
##ophil
##brand
majesty
farra
cataly
freight
circles
708
806
955
869
wilderness
venue
ult
rolls
tellur
bacterial
prayers
utility
discipline
olivier
nguyen
523
kost
zack
##fus
##amous
##opic
##berra
whitt
##raf
ida
##illas
enlight
trips
1774
brenn
northum
ammun
guid
weaver
##etsk
daylight
simmons
remar
seneca
erup
ballets
rounded
488
insult
468
rosario
cheer
baha
dreamworks
diplomats
wheeler
gateway
dodge
deeper
recommend
pietro
lyricist
desktop
twilight
415
432
gus
icc
##crap
##beth
##inh
##isan
alam
spinal
conclusion
##ongo
whenever
##ormal
##aira
carefully
remn
##itsch
##iewicz
malaria
cyt
equally
858
681
tablet
concentrated
anthropologist
tehsils
recreation
dialogue
temporarily
honshu
712
bite
fon
fulf
hilton
nij
tiff
tcha
##ᅥᆫ
##aris
##aden
unemploy
spear
excess
partition
singular
##ffy
##inny
slash
walks
tops
anthology
julio
##uhr
opposing
1765
polytechn
nagasaki
brighton
aerial
muj
venture
ammunition
433
pony
rivals
##mg
##tal
##frey
##enant
##itely
##sta
recept
stack
unn
spiel
1560
depicted
barth
irrig
suv
##inka
halle
352
459
bayer
machin
gasoline
navajo
protesters
reproduce
benny
skyscrap
##millan
scooby
saxophonist
aki
gland
jov
lump
mourn
##lake
thie
##eson
frat
canberra
clap
webpage
carth
warming
grades
syph
quarters
everg
associates
expelled
haun
##parents
354
763
373
renov
1755
##rolog
randolph
archaeologists
assassin
##books
teddy
poisonous
mantle
fourteenth
cunning
caucasus
schneider
cathedrals
027
543
hig
kuro
ness
hect
##andi
sparta
enzyme
1749
1745
268
incarn
workshop
collective
968
668
665
rudolph
kerry
bamboo
vagina
python
balochistan
mosquito
skyscrapers
3ds
522
cement
eich
kiev
rains
wagon
##ан
##onn
altar
##soon
fey
comprom
boone
phyll
parach
cron
smile
##awat
avengers
##brian
##writing
507
soviets
karab
copied
robb
melan
astur
garage
inflamm
686
inhabited
vault
reigning
bunker
consonant
vastra
##through
anastasia
multiplayer
odyssey
variables
713
hath
qin
tz
##bra
##far
##isal
##adia
chili
##uco
cola
paradox
1066
lois
stealing
develops
##maid
hoh
702
802
##baum
606
mountainous
photographers
reformation
clarks
dolls
judgment
tchaikovsky
544
dend
io
iro
kow
pens
wink
##rise
##roft
##omiya
sheets
1596
perce
subcontinent
intest
realm
351
457
##beat
397
tarzan
completing
beatrice
pueb
reveals
jennings
brilliant
mecklenburg
735
lumin
pamp
sino
wand
zip
##fun
##ersch
pras
apache
physically
antagonist
louisville
hillary
maternal
ballot
608
ethel
986
scratch
speeches
definitions
numerical
ssr
volunteer
aristotle
344
aro
cf
cet
jou
kant
poul
vhs
##yang
##aid
##tail
##stable
reys
##ayana
##agos
shire
##ignan
clade
indeed
##ensburg
registry
##inde
grains
macmillan
452
959
997
combine
naj
galicia
contracts
searching
krakow
exclusively
khalifa
aztec
yourself
etymology
442
671
geb
kod
tide
##zone
##xton
##orum
##ostic
carved
coburg
christie
mesopotam
sonny
gotten
881
curved
867
967
##aptor
theresa
giul
prevented
addresses
sacrific
kabul
demonstration
simplified
forgotten
deutsch
isolation
deposits
crocodile
trafficking
jurisdiction
026
490
477
542
awa
ket
##elong
dexter
orion
manor
##izers
1772
phyl
barra
rivera
slalom
harriet
##ophys
corb
castel
trojan
coastline
469
separates
hawkins
liberia
kenyan
bellmare
botany
strengthened
stevenson
hobb
sesame
672
boc
muc
poc
paz
wond
zak
##rage
##vre
##vik
##eras
##omed
seym
##estan
neville
##arde
tect
##ibilities
adolph
bram
blamed
servers
franconia
burt
devot
garrett
756
656
653
489
deadliest
textile
667
gauge
liquids
geneal
carnival
amphibians
improvements
crosby
unfortunately
efficiency
040
674
871
beds
j3
##rs
##ml
##wind
##wari
##arine
stitch
stoke
chassis
una
pollin
carrie
1599
##ectal
269
parking
colorectal
melt
balloon
604
859
781
689
julien
boxers
597
safely
mercia
feminine
carnivore
gymnastics
lazio
lexington
serpent
emblem
472
474
##rics
##kal
##word
##post
##bee
##aram
##arius
ismail
##amel
forcing
ching
unification
clare
afro
##obacter
airb
slope
regionalliga
##cca
extend
joseon
706
reads
damages
389
gallen
crafts
medications
audition
planetary
bryant
shelley
tobias
pseudonym
marxist
absorbed
sparrow
disbanded
##abulary
419
cw
lied
luch
##yder
##prises
##asco
##chuk
##umed
##iku
engel
acknow
gerhard
grams
weiss
medina
mai
consent
##evich
macau
453
drac
hunted
462
commercially
watches
snowboard
shaft
drought
shadows
pilgrimage
rajasthan
trademark
cody
jinn
moul
viva
##nar
##hov
##asio
##chev
##isto
##tera
shields
peac
laus
overl
lateral
daup
##loy
fails
958
988
989
medication
wilde
staying
synonym
constituent
commercials
chamberlain
mutant
pipes
placing
jubilo
prostitution
neustadt
471
fond
rage
sina
xii
##mand
##yp
##arc
stole
##etian
aside
tricks
##endale
1746
1711
##qui
builder
betray
invas
rememb
##ippers
50th
703
willy
463
maxi
683
shootings
charleston
poorly
consumption
escapes
nanjing
lobby
patterson
dynamic
rituals
truly
hedgehog
tajikistan
convinced
025
518
643
812
lys
nolan
wester
##pot
##inge
##stones
##udo
herbs
decimal
basal
charente
undergraduate
filter
28th
267
##ropods
physi
episcop
config
devast
informal
884
nobles
execut
fauna
nevertheless
688
pascal
predomin
boulev
transformed
guerrero
attributed
maltese
unhappy
crescent
424
843
cels
ebert
lust
##vd
chich
##itya
pey
examin
lax
assists
##ssel
266
deliber
settings
758
bloody
breakthrough
467
ashes
594
celebrations
ryuk
lavender
corey
bucharest
cpu
aggregate
extraordinary
dens
fiber
nero
sins
##ech
relev
alley
alison
##therland
spd
prat
clusters
compuls
##ansen
1748
1715
bran
acet
weird
##azu
lars
##eps
simul
dividing
shortest
specially
descript
353
364
709
conservatory
1759
kanji
anatolia
calculate
ichthy
lecturer
encourage
jumper
strictly
biochemist
flexible
propaganda
avispa
443
444
473
714
kro
kut
oval
wigg
##antly
herod
blizz
1521
ecological
moreno
##liner
halls
firearms
torped
856
857
991
556
semen
batista
##daughter
568
methodist
591
bombard
rodney
immigrant
yugoslav
tickets
##grove
renewable
hijack
councillors
weiß
sustainable
presbyterian
573
623
624
617
673
924
971
##los
##sf
##het
alicia
##ikan
albire
killers
builds
richter
haitian
vez
tenure
holdings
483
861
choices
smithson
cdu
pathan
editorial
quantity
poisoning
theodor
jumps
russo
examination
jakarta
procedures
kaiser
tattoo
upgraded
418
412
742
824
gle
huss
##zt
##iton
tope
##uben
1773
pert
##ports
mets
myspace
sutherland
avon
authent
607
759
659
commands
photographic
buffy
demands
heavier
lizard
sutton
hodg
reprint
yamagata
jewelry
labrador
opportunities
xiii
##uana
##atism
##igraph
orang
##orts
adobe
agr
perkins
eli
attending
##urnal
bare
backs
transmit
masks
troph
petit
azad
382
652
969
669
baton
huang
##untary
locks
owens
morton
alfredo
uncon
nakamura
thorough
skilled
symmetry
peppers
reysol
seymour
030
572
817
cynth
dive
ego
jing
oasis
pog
pomer
ucc
stability
seville
shores
unix
thatcher
clint
##issions
guided
barker
modes
harass
everett
developments
needle
restore
samantha
woodland
809
956
654
##steen
objective
pyotr
1565
##guard
hansen
##wright
kathleen
lantern
##criptions
correspondent
adjacent
increasingly
folded
bankruptcy
peggy
vulnerable
496
722
771
bia
cen
nil
oj
tiber
##alach
##emes
shrek
arv
engagement
twist
palme
moose
christchurch
godzilla
goodman
gotaland
hoover
putin
609
557
josephine
abdel
##backen
confirm
neutron
butterflies
hubble
claudio
cliffs
algorithms
blessed
byrne
manganese
574
b2
gull
kins
nachi
vort
##vant
##leigh
##elope
diag
canoe
1040
##ensky
coch
swab
##lli
careful
bandy
braves
##letter
transpar
companions
olympia
##aldi
##vester
veronica
petrov
788
559
##iyama
kras
567
casc
1757
daniels
marcello
dissolve
bouches
prefix
segregation
dairy
gilles
hild
lena
##vist
##geme
##emont
shout
##ugawa
manfred
pollen
scroll
carriage
##aceut
joachim
1685
mona
highlight
paler
loth
##aev
imam
goldberg
esk
deborah
journals
##290
roberta
998
487
868
payne
569
593
otis
namely
laurie
integral
weighed
leopard
ingrid
cryptography
destroys
644
943
bree
cyn
pik
penc
##lights
##kl
##vide
##hou
##inen
spice
fright
exha
clip
##ifier
mei
disag
1640
minas
livingstone
copp
promises
turku
484
962
687
769
pottery
somali
shrubs
##erback
bombay
697
appointment
##rology
custody
velvet
pushing
cumber
clocks
daddy
stretch
fragments
jedi
bambi
724
923
977
jod
##oot
##zyn
##ombo
##chool
forget
chord
sele
tres
edmond
stripe
elias
##ollah
explored
latitude
bolton
padd
padma
touching
gonna
remainder
grossing
ugly
infinity
hogan
chromosome
zombie
hertfordshire
carnegie
434
fidel
hm
nl
nets
pants
vander
##cence
##fields
##ædia
##ulas
##eburg
volta
vienne
urb
cope
devi
prompt
883
macc
602
prototype
658
789
drummers
582
difficulties
slee
dubbed
baked
illnesses
##zzi
hazel
eduard
##eboard
innovation
rwanda
cipher
hereditary
phylogen
albirex
031
813
rans
sark
vos
##xy
andhra
##rak
planc
spies
tric
hera
##ansky
allig
1747
blanc
grants
sob
apps
elsa
departure
sla
##ainty
##ophone
irreg
defines
caste
activism
504
frankie
981
potatoes
hopes
pubert
originating
sinks
moments
##walk
demonstrations
nathaniel
homosexuality
hastings
acronym
katsuura
collegiate
boulevard
cynthia
lyd
lening
vu
##riz
##nir
##bold
shri
##oding
ariel
cannes
1736
regina
willing
gloss
salis
avant
williamson
battlefield
snout
##afi
454
751
egyptians
482
combines
682
corners
##verse
riverside
##print
jonkoping
pyg
sweat
nicola
##backs
unlock
cooling
mentor
dynamite
dolphin
emphas
inquiry
bmw
rovers
anhalt
nissan
thuringia
622
dign
euth
nay
rs
zw
##raj
##abria
prisons
exter
exiled
monts
edible
belfort
27th
sufficient
morales
handling
woodlands
882
planted
664
561
374
691
synag
tanaka
koz
mystic
hellen
neutrons
lugano
drowning
reorganisation
irregular
833
auction
bows
eleg
fang
gong
lighth
sich
##may
##wat
##front
##edel
stella
peck
prints
bloss
ware
poit
harlem
designing
503
washing
crossover
753
862
558
551
privy
privile
banana
graduation
goalscor
ipad
tulsa
reeves
##stroke
saffron
spherical
kensington
livestock
syphilis
539
buc
boll
eucl
##nake
tow
##irts
ono
shade
##estr
fry
##eco
nationality
regency
##awar
##intosh
loch
interval
treason
revived
salad
merry
freely
502
criteria
curs
cycles
ulster
akira
1769
polymer
pupp
kangaroo
grandmaster
oxidizing
thornton
pharmaceut
jubilee
specimen
fluoride
intercourse
cannabis
612
743
fuck
gour
hatt
pact
##iem
##kit
##kowski
##agher
##allo
##esta
conse
linn
claws
boost
boiling
sci
##clamation
joao
perp
goose
##ysburg
##ometer
graff
equil
##irol
macbeth
603
mrkos
657
553
007
464
761
introduce
563
592
1658
gettysburg
lyndon
kerr
tatar
fertility
lodge
sankt
dudley
turkmenistan
leningrad
414
972
cout
mous
viz
##pit
##atio
toe
dei
plut
##abo
fein
##lectric
1550
perception
weas
olympian
raul
irina
##alya
midwest
charted
754
957
telenov
frequencies
archaeologist
troubles
cobalt
simpler
fibers
infrared
improvement
implementation
negotiations
cinematographer
tudor
eritrea
karabakh
495
733
973
dm
naut
sars
##oes
##dar
##enau
tos
##thor
##owitz
unders
neuch
norwich
alla
artif
terrain
metac
treating
michele
##loid
troll
karak
primetime
keynes
5000
magnific
illustrations
salvation
demanded
integration
ichihara
buchanan
jasper
wanderers
oracle
suriname
overthrow
unexpected
resurrection
puberty
413
535
514
677
795
796
933
bump
dl
dus
kc
np
rama
##mia
##nic
##won
##pel
##zman
##itory
##aming
##entric
reop
chong
plato
lean
leis
carmel
1710
brune
1595
grind
backup
governmental
organize
midland
malik
politically
labyr
distinction
782
794
exceptions
orchestral
danielle
orbiting
reportedly
sculptors
substant
phillies
weighs
laurel
guarant
malayalam
goofy
neuchatel
041
538
aman
lc
sinn
##hyn
##pard
##stick
shat
shrop
spices
aria
##ansson
##leva
alba
rows
helpful
occasion
954
boarding
562
burnt
bowie
dunham
unclear
jacobs
concerning
awak
refuge
##grave
##garten
dictatorship
hotspur
registration
rihanna
northumbria
417
773
823
912
cern
coca
kami
u2
yoga
zolt
##iast
##cell
##olome
togo
forrest
chill
shake
mecca
1719
hades
buttons
##onshire
els
barrow
militant
superstar
##370
robbie
toro
ferment
papal
961
784
insane
influenza
1655
improving
ethnicity
confederations
arrangements
explosives
telescopes
supervis
coyotes
remarkable
mankind
smithsonian
shropshire
614
834
jensen
uci
##aul
##wo
##jas
##jack
##ск
enthus
##iped
exclud
1718
flip
1147
dole
reginal
creators
establishing
modest
solved
pauline
aziz
##oshima
respective
clinic
theorist
focusing
photosynth
bohem
jumbo
kreis
excellence
fyodor
loosely
kolkata
##video
918
934
drom
jiang
xp
##aud
##bol
##frog
andrey
toh
##chet
##irang
##opod
coma
prose
aren
compens
gerry
amos
guys
endemic
obey
angu
corpus
##rico
realizes
##270
collar
programmer
identification
ibm
investigate
burgess
mistakes
dramas
occasional
constellations
resorts
mentions
crustace
affiliated
cinematic
abundant
cebu
pharmaceutical
772
814
bount
cough
dorn
joker
nude
##atri
##adena
forts
chil
##ulates
nect
spro
clive
schon
apprec
##iero
themed
barrett
backed
bandleader
epstein
severely
composing
royals
snyder
screens
chairperson
1754
doris
cinder
dreaming
sioux
mansfield
gibral
elimination
mckin
rivalry
vaccines
unsuccessfully
injection
shifted
gloucester
sedimentary
juvenile
convection
glucose
alejandro
eccentric
513
974
cind
lille
mey
pah
##tics
##alysis
##urd
chav
prost
manson
colts
1739
lawn
1649
1536
mint
nationals
pools
strips
remind
##heit
##eshi
karls
traders
santander
knowles
##opsis
ghaz
citizendium
microbi
felipe
gorbach
regardless
sorry
autonomy
apostles
inaugurated
staffordshire
niece
triumph
613
gd
jockey
rin
riz
sj
##puts
thel
##alm
##allgau
lethal
diaries
mayo
1771
1675
perf
scho
##ankton
kitty
##look
natasha
baller
803
964
watts
wingers
electorate
glasses
wyatt
disappoint
elderly
1830s
analyst
ponte
andersen
councillor
inheritance
poseidon
endorsed
fertile
wilmington
topeka
499
nood
oph
pena
##kus
##kick
##went
##pen
##pri
##zens
##anese
anonymous
stems
##irn
##urities
##oved
shine
##race
##odus
1735
lai
1680
scha
gew
301
consado
animators
##atorial
heading
thirds
socialists
##yrus
destinations
juno
micron
chooses
663
strain
1764
embedd
filling
hanged
fraction
expanding
witchcraft
pentec
ptolemy
consadole
798
corro
##iq
##lift
##sm
##words
##inished
strom
spur
##onga
clans
adr
reliable
livingston
attitude
quin
rede
incorpor
antimony
davidson
melanie
807
951
963
touchdown
sulfide
apostolic
chopin
hoffman
italics
overdose
murdoch
##byshire
reginald
533
744
842
##uis
##vine
##orr
##arna
##iances
arter
##ornis
##asses
1676
##unders
##icki
greet
moths
quotes
throws
interfer
##shaw
gloves
irrit
keen
granddaughter
storyline
distur
painful
choosing
plantation
eighty
privately
1656
jesuit
randall
hazard
considerable
lectures
gavin
fascist
peasants
pixar
944
aq
bony
bunch
fus
haus
kyl
nm
nast
nail
##women
##cover
##icity
chau
ada
adel
##qua
minsk
geo
famine
slender
slopes
##uckle
verlag
derbyshire
864
baja
modeling
jericho
costumes
tarant
cellular
galactic
##wski
finishes
montevideo
napoleonic
chandler
tokugawa
landscapes
psychiatrist
uniforms
bismarck
viscount
monetary
semiconduct
salisbury
874
915
922
faw
homin
weld
##irk
##etia
##iale
##izo
flux
drift
desper
maure
##ankar
##anking
##sses
emile
bias
##psis
finalist
protoc
racecar
reactor
furthermore
##orax
documented
bahia
absent
katrina
beside
sickness
kinder
transformation
spawn
dundee
launches
groningen
pentecost
dab
eus
jurg
pim
##jud
##leine
##thys
whip
atari
abram
##oken
brooke
amin
amus
guin
trauma
##shore
##coe
walton
inca
farn
##211
alexis
convicts
libyan
752
hungry
candle
984
racist
certainly
894
touches
ladder
kumamoto
transformers
ultrav
guerrilla
uterus
palermo
723
844
942
cah
dillon
gdp
lol
pace
pint
##mod
##got
##fur
##asian
##agin
##osha
##akis
boyle
1630
##ologically
busiest
##shi
mald
popularly
khor
refuses
cease
petrol
983
694
##roscop
49ers
vasco
walters
brigadier
prelim
sultanate
anglia
jakob
isotopes
shrews
boulder
736
822
lunch
mw
sot
tain
##zes
##eran
alvin
##oden
##elland
1731
php
acre
augustine
trails
##itters
magdal
enterprises
urine
nightmare
clever
863
684
662
murderers
564
891
585
793
promotional
saddam
owls
controversies
occurring
mistaken
##ascus
ghanaian
impeachment
erosion
mcdonnell
transplant
coconut
grandchildren
spielberg
disagree
899
kinn
pv
sint
vapor
##kop
##ng
##power
alert
##urav
seki
proton
conferences
lec
##ogens
##achal
1716
##tex
1049
1070
wario
coinc
upps
##onson
29th
backwards
##onyms
marking
##ijah
madras
sniper
olm
693
gangster
bearing
licence
striking
javier
reunited
pursuit
nineteen
arrows
repeatedly
petty
stirling
irrigation
executives
euthan
498
832
cv
kep
mj
sans
woo
xl
xena
yen
##nay
##hat
##onov
##itate
heis
shonan
##umo
##antan
playable
apolog
norris
1738
lao
eddy
smur
airplay
noon
himalay
module
##unga
glow
intention
##aldo
hostage
ruff
994
993
combustion
narc
inventions
##guer
dimit
duran
cummings
matthews
gambling
habsburg
decorations
reyk
neighbors
condemned
uppsala
519
872
895
873
932
ping
sien
yere
yash
##dh
##elas
stain
##uld
energ
polk
mein
1714
1492
foundations
##obal
canadians
irwin
blacks
varese
billie
superst
socialite
samar
851
764
hawth
587
791
quarks
detected
crystals
pursue
tumor
rupert
##ablanca
apprentice
bells
cain
coul
ditch
emanuel
gok
iau
mister
tones
##dn
##icide
##thouse
##ocar
nex
clone
madeleine
pooh
##plus
punct
783
554
shrub
493
monarchies
##chenko
bags
attractive
rabbits
pontiac
mackenzie
advantages
drowned
snooker
labyrinth
tips
tuv
tyson
zah
##mant
##ser
stanton
##ayette
##etes
whal
ars
birch
flown
##ateral
##uala
1149
warrant
genev
workplace
##aleigh
subd
simult
##ossa
smallpox
donau
jewell
judah
mustafa
vanu
953
853
982
081
dominic
essen
zhou
investigations
gorilla
dissip
unfair
helmut
lafayette
oscars
dismissed
gibraltar
dand
fats
lans
maus
roster
tach
##iol
##pow
thou
##isen
tome
sheldon
##akawa
##acular
##antis
trend
##assa
amelia
palaces
hume
entries
##390
frankenstein
damascus
552
combining
frontale
privacy
893
scripts
elevated
pedal
yugoslavian
auburn
baptiste
tyrann
methane
##girl
ulysses
joaquin
cindy
024
732
aig
bain
dop
henson
igu
mound
samb
##lang
##dc
##aty
##omans
##oti
beir
conj
lech
exceed
##site
1047
1670
##ulton
dru
##obic
elaine
euros
surpr
baritone
covenant
##ijn
henrik
torah
multimedia
952
vocabulary
juniors
committees
491
1767
axe
steelers
toni
calculus
##iggs
nitrate
wurzburg
mimic
epidemic
dalmatia
atheists
bismuth
myself
demolished
cunningham
celsius
planck
774
dental
fencer
lapt
mens
##zac
##jant
##atl
##ulam
spac
enjo
mariana
notorious
scouts
aden
caled
tyne
sims
accum
operative
grape
henriet
##afar
992
baum
cornish
cornelius
pasadena
892
1756
1751
tablets
kohl
feared
gothenburg
claudius
bromide
kidnapping
responded
denominations
saurop
537
531
cid
cakes
ks
pg
##haven
thess
##arity
##lefeld
##iona
stake
enab
enorm
argy
clair
abused
roche
1048
##iversity
recipe
deploy
bela
harald
arche
realize
competes
melting
poster
torre
##ihad
meetei
chapelle
kyushu
touched
patriot
##iciary
kernel
gloucestershire
qaeda
mussolini
pravec
orioles
asturias
embedded
ultraviolet
yerevan
damp
ett
hated
sights
trit
##lop
##web
##joki
##itative
##ivka
shades
##ulating
##mere
neolithic
arie
herd
engra
1723
decis
blanch
1648
evelyn
lix
metz
harps
simulation
retain
accus
villers
magician
magistr
goldman
bali
harding
804
shoe
inflation
microp
mahab
1659
printmaker
missionaries
keyboardist
ignored
interactions
pentagon
knocked
framework
gelderland
pamela
mongolian
mauritania
intervention
undertaker
534
ao
boun
gaining
h2
mok
niz
yaz
yakov
##lund
anand
##ayy
##iak
meps
##quil
1688
##leville
##irez
loans
31st
salon
##brunn
erie
actively
##uela
greenville
resting
athena
curitiba
wwii
captivity
pitjant
091
guardians
grasslands
granite
prospect
inaugural
bamberg
rhein
siberian
bipolar
annexed
satirical
##javik
799
898
919
bans
dahl
hux
seng
tand
zepp
##tel
##geb
##gins
##bas
##jord
##icy
##alling
marm
trim
##acey
1530
1145
meditation
consens
##bris
fars
camille
handel
critically
courtney
garn
##utsu
convict
furious
newsletter
lifted
scorers
faithful
treasurer
emotion
mesopotamia
reykjavik
532
eman
eury
pug
rue
sver
saus
wires
##pal
##bh
##fal
##icist
##igious
wasps
chik
unrel
prol
fron
becker
##ouss
lact
flick
1660
1610
1638
minh
weaker
append
surpass
emerson
justices
mermaid
wrestled
##rode
##after
cephal
limbs
762
danced
792
letting
katy
accounting
nicknames
gambia
senses
chandra
gnu
ursula
minimal
algebraic
cultivated
dorset
mauritius
alessandro
nielsen
immortal
coventry
enlighten
himalayas
vanuatu
beirut
cbc
dye
lange
piny
##mila
##aute
tha
##alaya
1743
blades
1141
recycl
elastic
barney
operators
entities
burlington
hooker
woodward
852
networking
ramirez
zhurav
precious
confederates
jessie
cousins
cruiser
valentin
chalk
##patrick
borrowed
blizzard
071
arom
cache
pins
zag
##oge
##ska
##hey
##aret
androm
alten
stiff
bye
plenty
orator
clips
carbo
rooney
1520
valve
##rops
reduces
static
billi
macro
failing
primates
909
854
abdomen
occupy
policeman
mechanisms
consistent
adviser
necessarily
hiroshi
withdraw
equatorial
dmitri
posthumously
dracula
metacritic
mckinley
surprised
pitjantjatjara
enlightenment
lakers
rott
tant
##lace
##tains
##hes
##dor
##blad
##ст
##inating
##orca
##leep
##oplast
plast
##upo
afl
##erno
1526
saud
##oughton
guides
helene
barre
loir
archibald
##yler
patton
khar
handled
vegal
garrison
disturb
bullying
disneyland
audi
##iosis
589
taxon
rodgers
797
spray
paths
fuels
siem
jamestown
habits
superheroes
requested
goaltenders
nouns
landslide
uccle
vegalta
517
896
fist
foul
hire
kj
kard
pern
yon
##iw
##nor
##journ
##ен
##ouk
##reated
##ilation
stun
##owe
##osse
##uble
meals
1045
1046
warned
syed
subc
##ungen
constance
pais
malawi
##heads
exploded
burials
garland
administrators
catalogue
004
inhib
logar
692
497
huff
massacres
amendments
jinja
beech
psychiatric
yamaguchi
invertebrates
slaughter
014
536
aang
faz
kall
lama
mott
rover
tau
vaux
##listed
##zai
##anus
##alon
##oule
##igue
##omic
##add
ensl
cane
allmusic
##quette
##ahr
guilla
##ebrate
lawson
portions
eccles
operational
vijay
academie
rhy
##umba
greenhouse
eta
osborne
similarities
907
003
##iscus
carlisle
paso
savannah
ceramic
061
strokes
lincolnshire
cooler
nichols
quantities
addressed
soda
reserved
updates
thirteenth
claudia
recreational
ordained
collaborated
allegations
zarago
bielefeld
corinthians
yevgeny
mormon
eligible
gorbachev
amusement
##powder
023
ave
bum
benton
cuy
eust
##thest
##agger
##iae
##avers
leima
##abh
##ichord
compose
minnie
##actyl
estates
guiller
slot
##shot
olympiad
epoch
incom
malone
passer
antis
cleared
gallagher
translators
interviewed
deeply
ratified
dickinson
domesticated
targeted
ribbon
corresponding
hammers
pompe
deportivo
memoirs
reddish
toilet
016
kris
lenses
nk
##para
##omial
aly
##ivism
##overed
unstable
##estar
carver
1041
brag
brenda
1619
amir
noir
suarez
castell
##heed
debates
sunk
horr
athen
observe
rosem
welcom
cookie
494
corporations
lorenz
nagano
ernie
reveal
nomadic
linguistic
gwen
plummer
oliveira
hainaut
allegedly
hulk
##iculum
fowler
bounty
zaragoza
028
duel
tidal
vold
yuc
zod
##bat
##eters
chatt
##optery
comets
##rae
##illera
colt
indy
communaute
crete
ella
palau
specified
barons
sumatra
##otherapy
hyogo
occult
##ijuana
luft
technological
santana
conviction
climates
903
penet
springsteen
##oulos
083
billionaire
aeros
exhibit
wetlands
flavour
reflected
dyke
anarchist
implemented
phenomena
reefs
lagoon
acknowled
pinyin
917
bd
mata
ried
rss
tung
uv
wanna
##yi
##yana
##bot
##food
##asim
##lewood
##idis
##acia
adoles
1076
bloc
1616
gertr
monty
elbow
skat
actresses
##ophage
solanum
##retto
visitor
##219
specials
finalists
balkan
governorates
believing
905
gunpowder
translates
naruto
588
stadt
emerald
kimber
generate
dalton
preventing
nichol
compiled
talented
stratford
moody
marquis
aesth
defencemen
bolshev
protocols
a2
hahn
sos
vl
##kie
thesis
##enland
##staff
stats
##emort
hep
chia
chatham
##oplan
##umar
##ubb
norr
1713
acclaimed
coel
albion
rowing
transf
discs
default
401
petition
macos
902
583
051
princely
investors
atlantis
gilmore
zhu
levant
shaun
##metics
approaches
sylvester
pioneers
turbine
franks
hydraul
caracas
072
032
739
bauer
kass
kaf
yer
##making
##oin
##wl
##pop
##buch
##fold
##anos
##inov
##oum
##amar
alarm
##uration
sepsis
##icher
##pherson
compare
##ysh
geologist
smirn
poe
formations
sonn
##256
confident
##rodite
fishes
wilder
904
naomi
completion
ancestral
weakness
lamar
encyclopædia
pulling
cordillera
doubled
supplied
absorb
mollusc
advertisements
oblig
weightlifter
734
b1
ct
tilt
ufc
yeast
##link
##onies
##atum
##oue
##ilon
##omac
##opatra
whedon
##abor
##abar
marge
scler
1079
1555
##ultural
auguste
deposed
guill
##urya
##ukawa
rower
##areth
careers
instinct
avignon
##aneously
##hampton
montp
territoire
sharif
institutes
processed
thrust
##ihan
rainy
warships
casa
akbar
promotes
laboratories
nevis
shelby
crushed
skeletons
emilio
digestive
cholera
semifinals
stupid
recruit
evergreen
iroqu
lausanne
brunei
073
916
gama
gaut
kis
lengths
miro
raleigh
##zed
##oram
##ouard
##ilies
##eleration
sten
styr
##adur
sew
leiden
##athlon
newborn
twain
1629
##unde
syrup
##inders
titus
colorless
findings
sandstone
baxter
##uxe
conservatives
586
mariah
bombed
messier
zhong
maximilian
suzanne
gentleman
bubbles
dewey
ipswich
hitchcock
gyeong
hoss
lom
##wagen
##zk
##jana
thall
##olly
reiss
rejo
##imeter
pele
ares
##iche
lineback
exeter
scro
herak
1695
1689
reson
outcome
slogan
troop
##bao
##atiya
iconic
risks
alec
heming
dissolves
llc
defendant
circumc
mendel
grenada
nerves
1820s
encryption
thermodynamics
022
012
738
bai
cary
doping
giles
tire
womb
zay
##wolf
##cats
aneur
##agong
enlar
##asta
hasan
sheppard
##ernity
mono
recon
louie
australians
##109
##linary
##319
judiciary
replaces
caec
009
ambush
084
cubic
agreements
tamara
affecting
lask
investigated
pinto
dolly
tololo
gustaf
subdivided
##ulsion
tetrap
patty
alvarez
metallica
eurasia
antiquity
ejac
preliminary
guillaume
013
ginger
hound
pino
rko
##vinsky
##hoff
##pian
##fax
##anim
##esy
##entina
reformer
##cheng
##ocial
##ithec
idi
neum
arid
compression
##ibar
mep
phylum
paren
novara
warmer
##nev
##ileen
loaded
campuses
censorship
grac
float
badge
rapt
multic
dynamo
payments
492
tallinn
kanye
sabres
seventy
reigned
gorge
quarterf
dvds
diab
hypn
merchand
navarre
##jevo
nocturnal
carbohyd
aero
pence
rb
##sar
##stag
##chlor
##etten
deux
debris
##ianus
##aky
teens
linden
##ikk
scal
##quist
1637
1140
depict
guiana
interference
olympus
deluxe
menu
##106
##107
burst
##701
horace
##901
olaf
bayreuth
distributions
avery
chaplin
1709
austro
catching
preparing
vinci
burger
##kirch
sticky
##hofen
phosphorus
brendan
cinderella
huxley
019
914
domen
rana
senna
taek
viper
##rio
##park
##anium
##itism
##oufl
stamps
heian
##agara
##igned
##avis
marguer
countdown
joints
1075
footnotes
##uchs
doyle
##obo
liam
bett
longtime
consolid
intra
##207
explicit
burundi
snap
clem
tribun
injuring
orchid
1568
responses
gilgit
umbre
##iferous
neurolog
cobra
cecilia
crocodiles
affiliate
mushroom
wavelength
compromise
trophies
ei
hach
hib
mersey
nell
siam
tm
##kill
##qi
##inomiya
##aring
##aline
##iten
tosu
##ented
alad
##ieur
newest
abn
mez
norma
1647
1611
1618
permitted
minus
gubern
quito
seasonal
##203
tempo
gravel
verbs
##pora
cao
halfway
boycott
006
semitic
qualities
897
minorities
puff
axel
threatening
1683
neurosc
eruptions
constructors
determination
nihon
uncertain
hispani
dordogne
incomple
913
euc
fulton
gai
pemb
seller
##now
##vara
##emar
##opia
##ongs
##adec
flats
1625
1628
palazzo
##etting
jeop
landes
olympique
finest
winnie
paterson
tito
verdi
greenwood
##297
judoka
faction
kramer
082
akron
wikimedia
093
elevator
protested
diploma
oaks
winslow
calculations
continuously
prophecy
caucus
stretched
tackle
celestial
nieder
incredible
supplement
cumberland
equilibr
maldives
enormous
buster
mural
rfc
sb
##gger
##houn
##houses
##ра
##itated
ante
##aghan
##ulo
##aci
##ichiro
##ellen
tristan
##iker
1146
traum
provider
##gram
croix
filmfare
currents
extending
breakdown
bernstein
crabs
mirrors
##colo
##rosse
##utenberg
exploring
##uyama
ayat
imagination
challenger
sarajevo
nurses
fayette
mitsub
hutchinson
rattles
bissau
savoie
tiffany
035
bike
dice
sage
veto
##mium
##nard
##uence
##jit
##anova
##amus
##ignac
societ
scann
goats
depot
universidad
guern
elijah
numbering
##vez
salts
##inkle
taft
##202
##206
lineage
occident
torch
##242
psychedel
garde
ulrich
graduates
##ydon
metropolis
092
ruben
resigns
sinclair
nagorno
brightest
kurds
questioned
gotham
sapph
##urasian
fungus
subprefectures
cottage
revelation
015
gt
gug
rms
##botten
##thel
##eles
##umoto
##ishing
atoll
prok
##usted
teatro
##ifers
##endish
phases
decree
1615
mina
grizz
schul
supers
arturo
communion
##annes
##airn
archdi
raff
solids
extens
sonata
batters
donetsk
##204
competitor
royale
visa
frey
##218
francaise
halluc
organizing
cleopatra
##232
introducing
stravinsky
renee
##ranos
4000
illustrative
yamato
precision
trinita
scarlet
##street
horton
aviator
nirvana
antigua
kollam
inductees
unemployment
zeppelin
aneurys
076
auf
kes
ler
m1
riga
uph
wanda
##kim
##nav
##zia
##jal
##jah
##arro
##atre
stig
##ayat
hears
##iao
connie
socrates
##osto
brug
gerais
edouard
genital
genetically
impressed
sumo
##araja
downhill
extr
##hea
unionist
camoufl
##251
##otechn
climbed
semin
persist
069
coldplay
singaporean
shining
pigment
bridget
anchors
hendrix
cortex
merchants
pilgrims
spaniel
abbottabad
adriatic
carthage
voldemort
hemingway
mitsubishi
jy
renn
yield
##hoven
##bear
##isuke
reind
##emed
heil
##otive
sealed
unrest
canals
polling
polls
##achen
engage
##erney
1078
reck
amal
traces
##ismo
steele
##ometric
##yna
blackburn
intens
mora
washed
##285
sounded
benoit
nightclub
considers
908
citrus
005
crimean
transported
mythological
1761
accepts
04°
concertos
catches
tonga
kangle
refugee
descendant
accuracy
yukon
mclaren
microscope
emigrated
thieves
episcopal
099
aosta
bere
duct
fag
ike
kud
mup
rath
tender
##kha
##hole
##prising
##bull
##thitta
##unya
chok
##anders
sek
neon
feeds
##iks
carinth
agust
perug
goa
traps
overcome
##inna
quinc
barium
skaters
angus
breton
sued
sufi
salary
voluntary
##208
##205
cypri
##214
##212
##217
haley
##258
garner
ballroom
906
papa
vanilla
eighteenth
maharaj
nuclei
##theim
contrad
pulp
omiya
1597
approached
jointly
consumers
pereira
unicameral
overturn
wrapped
consensus
gubernatorial
archdiocese
046
cim
dach
yves
thoibi
##inational
##olving
##advant
chey
##utors
comeback
ats
##ichte
maroon
megan
allerg
aggl
1686
basement
terrier
obstr
bravo
loz
discipl
daim
##216
haifa
##103
martini
##275
##293
romero
##irov
horst
wilts
##bonne
bangal
ambros
broncos
##ochond
criticised
therap
generator
1569
otter
sheridan
mutiny
coordinate
tokushima
glaciers
complain
adoption
shogunate
probable
metabolism
takahashi
caldwell
siegfried
machinery
nicholson
bop
bok
bae
fals
glee
ij
oste
pinned
yates
##dog
##jer
##ᅡᆼ
##ος
##eratops
theological
ingen
##amins
alike
alias
##utta
platt
claw
scary
disqual
1690
britney
##obar
##leased
impl
munster
divides
##aean
berber
##209
histories
##308
##215
needville
##470
##282
tombs
romney
denise
survives
premium
##234
##243
##ariat
certification
sands
shrimp
584
captures
generic
1567
exhibited
hurd
steinburg
##otypes
attendance
tasmanian
conventional
beaumont
laksh
bentley
iberian
sinai
bohemian
##ophageal
029
fanny
mered
pus
pile
ruk
rca
vod
##base
stellar
##adle
asleep
##ulous
neander
conan
##ugs
##uger
tec
frames
##ellers
trash
complement
scrap
1627
perl
schal
buie
##olla
moirang
munch
suborder
raion
##bride
tempt
##102
##257
burbank
authorized
##262
##287
ruiz
##233
##244
galleries
mythical
trumpeter
fluids
fears
megal
tortured
shocked
aspx
fishermen
masturb
prosecutor
venomous
##apuram
marguerite
jeopardy
psychedelic
042
077
bose
dfb
ea
kuala
mendo
nod
naur
nakh
yum
##eau
##pu
##pd
##pad
##°c
##oring
##edias
##reck
##oway
spends
arbor
exams
trends
hass
##002
phel
aguil
dozens
##indi
munchen
skip
submitted
acceleration
professors
sanam
##104
verc
##253
##259
##318
lowell
saras
venge
bahadur
##hoe
dissolution
lockheed
cavendish
succeeding
dramatist
rodrigo
marathi
loyalty
meteorological
monasteries
resembles
vaughan
airbender
nectar
hott
jokes
nand
oils
rae
siv
wir
wow
##eers
##will
##enay
##aluation
chloe
seism
##akar
leb
##mani
abig
nora
disadvant
saur
safer
##aille
##obile
appalach
terence
surreal
skinner
retained
transist
brewer
##ophobia
##flight
##306
##213
##254
explodes
##296
##266
lucius
audrey
celebrating
1762
remixes
perfectly
converts
patriotic
mixtape
fontaine
psychiatry
##group
pyramids
##umberland
dorsal
guidance
haunted
hectares
magnificent
037
075
018
2d
eck
fuz
null
pich
pank
##dong
alonso
##ogly
clues
compress
indre
1148
secured
geographer
supp
palma
instagram
vald
sportswomen
romani
colleagues
grandparents
antique
##108
##252
buren
##316
##311
equestrian
##261
##286
##289
benito
brotherhood
008
reno
087
062
ottomans
rotating
anatoly
syndicated
##birth
lindsey
announce
electroly
comfortable
rainforests
galileo
congregation
relevant
torpedo
wiltshire
043
017
bala
cfb
hiber
rend
wahl
##mie
##jid
##anza
##enthal
##omera
##osuke
##ulum
peel
arun
##very
friction
##sohn
exo
seren
1724
centaur
1535
octopus
evalu
reconc
prejud
helmet
skane
skyl
humbold
magma
biod
##zej
erd
angelica
##307
##ijo
##274
##277
##312
romagna
raped
ruined
mustard
panels
projection
dogg
bernardo
ramos
picks
mandate
alternating
dropping
locke
industrialist
yamamoto
solidarity
subscrib
pearson
bergman
consulting
##ilisi
clifton
dmitry
espana
bolivar
scorpion
centimeters
euler
beginnings
leisure
jurgen
gertrude
reindeer
mendoza
036
eurasian
nana
pisa
sip
tends
£1
##mother
##vili
##game
##giving
##ın
thier
##anity
##esth
##ouch
toch
waseda
##etus
chances
##imus
##este
peps
##acao
lept
canvas
polly
##avez
serra
##anski
induced
1717
1185
coined
schwart
lara
##ancement
showa
bari
steady
delph
100th
grapes
##303
paulista
##315
##299
equals
##267
##263
##evsky
behave
gunther
carlton
sorted
heroin
innoc
billionaires
calendars
svens
baking
kitts
bathroom
cristina
cristobal
sustained
##arthur
advertisement
grunge
intersection
evacuated
boogie
stabbed
kepler
zhuravleva
guillermo
zodiac
iroquois
aladdin
meredith
049
048
039
boca
catt
feb
fok
hides
sall
waff
##moke
##nius
##puff
##arg
##asp
##estes
carly
muscular
##class
joanna
deciding
1644
perd
marching
willow
smugg
internaz
housew
croydon
salle
imported
downloaded
massif
erwin
##309
##105
##272
##273
##292
##264
##269
##283
##151
002
psychoan
declare
darren
054
shotgun
taller
dealer
saharan
discussions
acquisition
wolfe
feedback
destructive
amphibia
frisian
##worms
balkans
jinnah
lighthouse
047
078
aort
bion
dots
dump
nate
oax
pott
rer
ramb
tolk
vh
wage
yuki
##iary
##hun
##wered
##buh
##jam
##amthitta
staged
##otrop
comun
enrico
dieter
clad
##ikal
coloss
lau
1678
groove
1485
rely
saunders
northampton
britten
geisei
elle
transm
discus
blackpool
sumer
soloth
##owska
castillo
richie
##302
##305
handbook
murcia
##313
equity
##268
ceiling
holders
mountaineer
cartridge
venetian
lovely
contested
expressions
kazan
contribute
huntington
counterpart
##jarvi
supervill
marianne
madhya
sinking
mahmud
bianca
adjective
pathanamthitta
synagogue
andromeda
equilibrium
internazionale
solothurn
033
apt
dok
hicks
ie
kup
kuk
lilly
uch
vita
##sberg
##witz
rebo
reza
##usz
chis
##agra
##esses
##angi
sheila
carpet
adler
bricks
1641
1631
1635
1623
goeth
genn
guj
quoted
bests
composite
volga
grands
antilles
40th
argues
##281
ethical
sorts
fairfield
1753
nasal
jordanian
vertebra
zoology
sulaw
migrated
rebellions
coden
sponsorship
terminus
schmadel
meadows
defenceman
ezra
kendall
scandinavia
##combe
enrolled
thunderstorms
thallium
muppet
abigail
038
098
cds
gund
jain
leroy
mla
nantes
pension
ries
##iene
##vig
##tas
##held
##jong
##на
##enk
forens
asi
##acus
##eya
##eyron
lazy
twisted
1646
1537
gotha
baseman
recru
regen
estuary
crude
weaving
geograph
distress
medley
belmont
opium
skins
##letic
##alypse
titular
urinary
##ombe
##271
##314
##291
karel
mcco
madness
##284
##351
freezing
photon
garbage
ivy
##222
curious
banjo
miriam
foreigners
064
celine
exciting
grasses
warmest
ventura
installment
wonderland
cocoa
cosmonaut
bloggers
woj
cortez
cobb
reyes
##garden
thyroid
commodore
brewster
buckinghamshire
tromsø
tbilisi
sichuan
umbrella
sulawesi
066
caffe
kip
kosh
mbe
oth
rie
sammy
tnt
yur
##rays
##fol
##fires
##inium
##atov
##oug
degen
whist
seized
shelf
ung
##akin
##007
dispos
butch
blown
1639
1679
minaj
##weiler
gregg
##grad
profits
##coon
anyway
operatic
intr
##istano
taisha
##279
##294
montre
snack
##355
damaging
multinational
bernhard
chairs
vener
ceramics
bronch
cheet
bordering
celtics
dhabi
ronaldo
shirts
carpent
ampl
gifu
brahm
essentially
isotope
##stedt
kofu
euthanasia
quincy
humboldt
045
bair
dn
ffe
ged
jared
ksh
lumber
nhs
zan
zor
##mati
##wala
##ор
##ße
##emin
##unton
shab
unve
##acaf
env
excer
commuter
1744
thereafter
blonde
##uctions
myr
nowhere
presenting
colorful
##usha
mascul
humanist
conde
##255
##278
##276
##295
luiz
reflex
##garh
viewing
067
abbot
concacaf
documentaries
spreads
complexity
memorials
vascular
rudd
emerging
fukui
kicked
wizards
unfinished
discoverer
dionys
proportion
sassari
encounter
diaspora
descriptions
044
bucks
coss
hary
mupp
pesh
sart
##rush
##hm
##cery
##arra
##itat
##lea
##amatsu
##omeration
unite
byrd
##abs
##gean
playboy
##lander
apert
scare
##ibout
##005
colombo
1732
bla
1645
monsoon
1450
preacher
surprising
maintains
meridian
berries
batting
##490
##265
ceased
browne
convince
bulb
##como
symbolic
088
085
052
practition
068
ramsey
eliza
categor
hayden
bottles
algiers
hartley
excited
mp3
carnivorous
rhythmic
vectors
rigid
metallic
pfaff
kronos
nilsson
volkswagen
devotion
skateboard
taekw
incomplete
aneurysm
excerpt
cey
jem
neder
oll
sake
tard
uber
wim
##vard
ascle
shun
envelop
marquez
clot
##ifs
##003
roast
bluff
periph
upaz
northumberland
guan
beloved
##awks
imposed
busan
valerie
looney
raids
corr
vargas
malaga
mercer
##405
jacket
successes
##317
##456
alexei
garry
coasts
mosaic
violations
persians
055
057
mastering
tanya
1708
1701
finned
mandatory
sevilla
pushes
containers
environmentalists
alcoholism
adaptive
ellipt
advocacy
ascension
styled
biochemistry
fetus
nudity
synchron
artifacts
herakles
095
034
bary
bint
fia
kicks
lh
nails
tern
uae
##vier
##cam
##enia
##arb
##chl
##opoulos
nebul
##athe
##ograd
boomer
nationalists
##ancourt
creole
subgen
anno
statute
biographies
illusion
menstr
advances
realistic
civilizations
condens
screw
tracking
panor
texture
colonization
foxes
platy
056
cables
ashton
065
stepped
nikita
chromium
behaviors
ritter
byzant
essayists
interpreted
miyamoto
rashid
ponds
mittelland
proportional
dharma
neighbours
ammonia
scandinavian
huston
derivative
mourning
079
bison
cuck
kans
kwan
ritch
rios
##ер
##sty
##idas
comuni
plankton
##illin
##ubo
##orted
##endent
borneo
admission
blanco
1539
universite
##obu
impair
milo
arminia
ska
archived
corrid
suce
##406
##304
lineup
socially
explaining
koreans
fireworks
##288
##352
olsen
duff
introduces
reactive
odi
acceptance
surroundings
hui
##untu
confluence
lifes
ryu
cooperative
sellers
##uilder
lacrosse
dynamics
brahms
vilnius
crowded
pistols
redskins
emphasis
epidem
checks
warwickshire
aurel
selenium
andalusia
tejano
inflammation
ariege
agglomeration
muppets
arose
eel
gue
kite
lour
vida
vaster
zer
##yas
##vall
##erick
##esville
##aten
##icion
##rots
##ovas
##owed
##occhio
seah
spill
conclud
marijuana
##ritis
##ibles
lauder
marche
upside
poppy
traced
smol
##urga
franconian
##458
bulk
watkins
089
dominion
063
neglect
rhinoc
sinatra
diplomacy
1603
mitochond
shelters
hypert
geometric
sopranos
##american
complained
##iability
##bridg
nsw
sgt
caliphate
neurons
uncert
metaphor
kilograms
seleuc
crustaceans
mahabhar
oaxaca
aik
daph
gom
jae
rack
ump
wn
##lach
##lene
##litz
##nau
##uw
##vill
##hock
##oura
##stage
reilly
##ayas
neoc
exotic
bresc
1527
coats
edison
alban
##plays
invaders
magnes
goldsmith
##hev
##404
royce
cambridg
##417
##298
##382
##386
squash
browning
##islava
travelers
reviewed
cellul
086
058
wrist
automotive
commissioners
tsuk
##canal
097
unlik
bacterium
tatyana
linguists
##rophic
parasitic
mysteries
supernova
gladys
gazette
##keeping
admira
kusnir
clergyman
impressionist
prestigious
yahoo
chittagong
persecution
##film
ryukyu
alligator
tohoku
hispaniola
aguilera
cambridgeshire
kusnirak
096
aichi
corm
dare
mab
ooh
uy
woll
##lat
##bred
##oride
ander
alta
stabil
deform
shand
##estra
peab
liner
trams
cara
blond
janata
1460
##ismith
sket
everton
epile
finch
romano
midi
farrell
cambrian
501
verona
##451
##399
damon
shoulders
timb
combinations
carla
printer
059
dominica
yellowstone
icons
1651
094
reigns
cosmetics
exhibits
pupil
virtue
vitamins
scriptures
lavigne
coco
interpol
fleetwood
tango
comparative
withdrawn
gastro
absolut
fragment
multiplication
##oplasm
warnings
fierce
guadalcanal
lydia
zoltowski
photosynthesis
siena
taekwondo
bakh
dian
ia
js
jog
rite
tigr
ure
##rada
##sim
##tc
##willer
##fon
##anya
##ask
stub
##iris
##adas
##uran
forsy
##iste
chavez
##odian
##avar
spat
leah
trenton
##izen
##004
##008
##006
1720
1712
##aterina
1636
offshore
1470
evaluation
northam
##ysz
prequel
albat
prodig
brains
suits
imphal
##371
##489
##453
southernmost
ceph
lesson
wilbur
wilkinson
referees
closure
insulin
naismith
##married
participant
promotions
commanding
pandora
suffix
picc
pinocchio
squadron
reflection
smartphones
struggles
cortes
instructor
cameroonian
evacuation
enhanced
aleksey
lumpur
wonders
transparent
recruited
cheetah
peabody
bov
bains
bocc
jok
kahn
mere
pingu
ratch
turing
##range
##builder
##alent
##omir
stade
##opolis
peers
prud
1626
1643
evolve
1350
broom
swamps
albrecht
mainz
consc
transact
constable
sala
virgil
extrat
arriving
rhet
visions
##374
##379
##419
tomato
##357
##366
technically
robson
hamid
oxides
##oyama
fielding
inscription
potomac
veneto
recognizes
welch
blockade
1657
ringo
splits
controllers
graphical
dispers
1687
archbish
baroness
gospels
clermont
maintaining
unpop
aviators
sacked
embryo
sectors
baltistan
fresno
prasad
ballerina
welcomed
suceava
extratropical
074
mls
taz
##oja
##heart
##cus
thun
thang
##atos
##iceless
wasp
##utch
shink
##ellier
boer
##clan
laut
acclaim
1250
perennial
##isson
regensburg
desmond
landform
farpoint
##loads
merrill
##foret
##354
##359
readings
issf
##banks
travelcard
privat
leonese
053
nazism
flagship
koji
mccain
1703
mandy
splash
dealt
haydn
catchment
frauen
pitched
gibbs
journeys
cadet
breasts
laguna
gwyn
pleist
hoffmann
federico
inferior
nhc
reverend
posthumous
prosperity
ningthou
caterpillar
gewog
harpsichord
biodiversity
archbishops
bucc
dros
fiona
gs
jays
nurn
tiles
##hito
##onal
##atter
toto
##ilin
##iaceae
byte
diarr
##endon
musket
##ahoga
albu
remade
##ophile
addison
couldn
##meister
balanced
##375
##377
suns
##353
##363
##369
samson
pressed
##otho
prevents
carolyn
memes
bangla
coupe
##rosis
1653
##ranes
encount
pigeon
konrad
svet
buddhists
precise
sedan
anatom
jaime
##lemagne
tapes
kidneys
disappearance
koln
theologians
evangelist
spaceship
strategies
dixie
thanksgiving
schumacher
proceedings
antioch
inequ
template
##uhrer
consecr
maureen
cuyahoga
carinthia
vercelli
unlikely
buss
bau
cgi
hua
rory
tash
wig
##ии
##ик
toby
stair
chet
##ocytes
shed
shay
##rack
##estro
##odz
##ugi
mani
##ifiers
serbs
meade
hermes
##asser
induction
1729
amid
esta
##etsu
eastwood
##inox
legitimate
corre
magellan
magenta
fargo
patents
paternal
##2012
realism
freem
arguing
##356
##395
##361
##381
freeze
circa
macon
reporters
faul
luca
luciano
caspian
accessories
oxfordshire
sidd
dolj
conditioning
rumors
coordination
portrayal
rhea
kemp
binding
kannada
bolivian
encounters
eind
gry
gina
keller
mito
pinn
rishi
senn
sasha
vive
zoro
##gars
##bad
##orp
##olus
isis
reims
##urian
##owell
seych
##aked
##udad
carole
##009
brest
1180
grin
securities
trait
strath
strata
elabor
##attini
armored
stead
myc
humming
epist
solst
vars
esch
esophageal
debbie
##403
martins
##365
##385
bluegrass
islamabad
galv
sawyer
exceptional
abdicated
winged
kalam
litter
liberalism
acidic
duration
rudy
matthias
employers
delegate
explanations
aegean
ankara
miscar
armoured
disagreed
tekken
reelection
robbins
genealogy
reopened
eucalypt
pleistocene
ayr
rolf
tint
vans
yol
##mass
##hus
##ان
thurg
##inette
##oros
##alk
##ilov
altered
##ithe
##itha
atp
##acional
linking
trich
boch
boise
parrot
1698
##ahua
1328
augusto
moreover
guaya
sura
undergo
childbirth
wouldn
banda
voicing
blacksmith
openings
camping
donovan
famously
khark
##373
verst
explode
##418
##412
##493
karim
##459
##368
##388
furukawa
libre
considering
okayama
perseus
facial
darm
bowler
investor
destroyer
waist
manufacture
molina
ivanov
spectroscop
virtually
switching
geneticist
bogota
comparing
mateo
anthropologists
marginal
javelin
varying
harmonica
##thrown
carcin
tolerance
ransom
bangalore
uncertainty
bites
celle
gud
gutenberg
jang
lg
oed
ropes
##vale
##400
##ев
##ᅡᆫ
##atile
##alin
##alven
##asaurus
##stani
##imid
##andar
##osia
##ulmonary
##antz
worry
##uban
frustr
excluded
caring
caret
1742
brant
1699
ministr
1498
grip
guido
elk
terre
valer
everest
villiers
romanized
mesh
##376
##457
##358
hardly
##364
##362
##389
caes
screenplays
paints
choi
lowered
approve
burnett
crying
1705
paddy
brighter
djs
striped
umberto
zoos
databases
scenic
igne
eisen
miyagi
apostle
antibodies
gottfried
fascism
melodies
kagoshima
exploitation
seizures
##pcion
inequality
bly
gail
kato
mow
sided
tichy
wb
##mot
##bos
reut
##ivision
##raz
##rax
ors
sph
leaven
flamm
1016
blunt
preschool
permit
bask
1490
1499
grays
greco
chargers
teamed
outfielder
travers
sledge
skirt
valenc
intercept
transylvania
invading
correl
solvent
curriculum
##509
##407
khmer
labs
##472
##415
sunrise
##392
##397
athel
dani
olig
libretto
lowland
32nd
messiah
charlton
1752
##abbat
mccall
napoli
nikki
initiated
brightness
djibout
cassidy
yaman
##walker
palestinians
illegally
reflects
woomera
simplest
rehears
peasant
choral
caucasian
unreleased
accomplishments
schumann
impressive
mhz
bowser
quarterfinals
bingham
cale
hing
lamps
nelly
xu
##non
##nick
##eded
##icio
##olta
ishi
##otine
delet
##osity
ench
enact
##ogene
triv
tragic
boiled
##ibb
##ibus
parv
1697
1216
1495
##intra
spaceflight
interl
killings
runaway
radcliffe
##inker
attacker
superint
##ushan
seafood
##378
##473
handic
##414
##411
##482
##452
equinox
##394
##461
luz
35th
matte
postp
curie
rosie
commitment
taxation
escal
wikid
hemp
mercen
commented
##slow
subscription
numerals
viceroy
herbivores
hydrocar
kathy
msn
respiration
coding
demonstrated
valentina
hutton
rebuild
accurately
rasp
coordinator
differs
concepcion
squirrel
friesland
huntsville
wartime
rectangular
vezina
eindhoven
cess
kame
kauf
nach
vais
xona
##sium
##wu
##fell
##fors
##anj
##ayo
chuk
deuter
uni
unmarried
bypass
##arten
##ogram
socio
firms
colder
knives
butcher
1632
repos
popp
reconna
##alsa
gek
##ologic
governance
airliner
johor
##awan
##letta
builders
keane
##507
northernmost
##494
veins
##483
mcgu
##391
##393
museo
cardiop
nonstop
pointing
meme
##bez
violation
plantations
fortuna
straits
galap
brandy
saxons
barbadian
motorcycl
mccorm
quarry
1706
hershey
salvia
occurrence
reservation
mariners
gypsy
##asmine
dwarfs
barnard
ernesto
aubin
gaston
quartz
sikkim
timberlake
cigarettes
penalties
firefighters
decisive
yucatan
hydraulic
styria
disciplines
phelps
reconnaissance
cinn
dx
dolor
dung
hov
kli
ting
tires
##eze
##whe
##fest
##erk
ino
##amu
heel
##owl
chicks
##isham
encom
##anty
##oreg
##phen
herring
roan
flank
1011
relate
##obyl
overij
overwh
johansson
providers
quiz
##cessors
busch
##cki
pao
textil
farthest
millionaire
rhymes
##408
##402
##474
##413
##496
##484
##384
citations
hospice
costello
viewer
galician
branded
doctoral
rossi
fernand
recipes
pulls
kristen
rhodesia
1700s
atheist
aphrodite
fugitive
hesper
syllable
farewell
compatible
jaguar
marsupials
unnamed
clarkson
ministries
cardiopulmonary
overwhel
banco
ee
fid
gf
jaff
kale
lm
nid
nae
tae
ucla
##law
##path
##busters
##arak
##isp
##olese
##usions
##otus
##ocy
aligned
lez
##oges
exodus
maynard
1525
songwriting
1455
marched
relocated
popeye
surve
underwent
valpara
glover
historia
lightweight
##398
##396
##465
##367
##387
osman
believers
macqu
##udeau
mosques
panth
cannons
captive
prediction
barbie
deepest
suffers
attorneys
behavioral
##emiah
igles
tipton
barnum
advocates
1810s
wicked
batsman
sociologists
gladbach
barbera
antibiotic
patches
monitoring
corsica
apocalypse
polytechnic
simultaneously
merchandise
perugia
asclep
albatross
unpopular
guayaquil
valparaiso
aeg
eileen
fitted
keb
ngo
rn
rites
sine
vint
verne
##yama
##nica
##vere
##hops
##das
##zie
##zza
##ич
##ento
##illation
##ipak
artery
##iked
##eys
##tech
##undai
##ughty
weights
valence
##enco
##encers
transcription
##appen
##372
##477
##479
##416
##464
##468
gunter
insurg
##iyan
capturing
bonif
bhatt
lyud
printers
splitting
kamakura
friedman
employer
##ogenic
sensation
joanne
bilbao
portraying
marxism
kotkova
rehabil
submarines
prohibited
tavern
jellyfish
rousse
parsons
lepid
deceased
palmeiras
noodles
goethe
haryana
wikidata
fiat
ging
ith
kac
lop
lash
lula
nz
nanking
xuan
yvel
##cas
##ол
##inius
##algo
##leaf
##sticks
##ersen
##ags
sey
spit
spont
diagon
##ameen
##ptic
boattini
##ibel
##iburg
blame
prescription
1528
willard
calhoun
bandico
locals
irvine
holm
##508
honest
honore
##499
##486
authored
##383
personally
shipw
digging
selective
liberals
microorgan
mirza
magnets
investments
dominique
akita
therese
answered
krai
bernardino
lombard
reichstag
ardija
amphibian
antoinette
iodide
##gorod
reversed
schubert
yusuf
bulldogs
predominantly
vengeance
igneous
c1
etern
muz
rye
##gos
##bay
##erre
##inky
##atia
##emouth
asex
seap
ork
comprises
megh
##adeh
bruck
1642
1290
dray
charm
charlemagne
##azawa
internacional
obes
westward
divis
transcript
##urgy
farr
hyundai
extensions
##505
##506
handheld
trout
##492
equipped
starship
##467
mixes
papyrus
##gaard
jimenez
auditor
cellist
##ievre
stephens
sabah
victorious
gardening
cartoonists
##moor
tonnes
##tiary
ventforet
symphonies
kathryn
mallorca
marrying
triangular
regulate
stimulus
nottinghamshire
monterey
synthesizer
andrzej
spokesperson
confucianism
dauphin
tiberius
tribunal
overijssel
cue
cove
feng
hinter
puck
tess
wight
zed
##yk
##how
##croft
##anilla
##statt
##adze
ito
chiang
chihu
##illance
spine
conjun
arj
marjor
exits
boz
scan
amrit
greta
buena
geh
tertiary
ende
##ukov
angular
inverse
watertown
ema
##kyl
bij
passport
##minton
silly
##409
##487
##466
##463
##469
stationed
astros
paperback
ghetto
marketed
sudbury
1558
miocene
spectacular
columnists
vegetarian
dietrich
bosses
muddy
fifteenth
harmonic
bloomberg
stylized
holloway
salamanders
dessert
defects
guangzhou
vomiting
tucson
mausole
##journal
molluscs
pembro
extrater
brescia
solstice
dina
daly
litt
pune
sana
tf
xxx
zem
##rens
##lana
##nock
##uver
##uire
##gara
##hay
##hari
##ighton
ory
lined
1733
1612
presum
repet
1118
nationally
##amesh
guth
overthrown
valois
avril
biosphere
##lof
##504
##503
##475
##476
refr
astrid
testicles
coasters
poetic
institutional
scotts
babergh
##viewed
transliter
##bands
celebrates
forestry
##ridges
occupies
packages
mutation
reiner
poisoned
hyperb
chronology
entrants
sponsors
emirate
francoise
hilary
stallone
relegation
boulogne
unreviewed
lillian
alderman
peanuts
bratislava
tellurium
parachute
deliberately
extensively
cypriot
schwartz
surveillance
yvelines
dann
hairs
pals
sly
tis
tides
thee
##aney
##olm
alve
stero
forster
asch
##aggio
dio
##ellular
fees
abby
roz
brie
1696
novak
upgrade
poz
opus
recorder
glendale
revision
intensive
##ylene
marker
##eshoe
##603
##491
##497
luisa
africans
infamous
panthe
curtain
##khaz
routine
promoter
kirib
kalmar
zheng
conceptual
cavity
strengthen
hidalgo
bergisch
sensory
admirals
hirsch
supposedly
prophets
parasite
docklands
ciudad
##building
dalmatian
crayola
perpetr
graffiti
substantial
semiconductor
ritchie
darmstadt
fiance
houghton
jt
kagawa
laps
maver
nw
niet
nany
ocl
publ
ural
umar
vav
vuel
zac
zab
zulu
##von
theo
##inz
inmates
anus
##reich
##olod
##omys
##idium
shiv
proclamation
spouse
marley
trillion
ape
1734
disrupt
1692
1533
1170
##ahara
amen
traction
##azon
subcom
welles
emmer
hymen
##502
##471
##495
##488
##454
badminton
##462
jude
detach
macarthur
execute
figur
rogue
soloist
1553
mutations
##worthy
coolidge
trustees
alphabetical
hatred
dresses
ichinomiya
clockwise
pipeline
##asmus
regulated
mendes
yankee
chopra
##itarianism
cayman
sixteenth
browsers
prohibition
beauv
crucial
leaked
conqueror
bantu
##cephalus
nawab
barracks
enslaved
textiles
refriger
aaa
hates
pelle
pasha
rude
sia
tensions
wain
zwe
##moon
##kom
##gence
##bil
##jiro
##itious
##igu
toast
alas
stard
##unov
chie
##imited
##icht
canaan
abkhaz
shepard
twitch
##pert
##ultz
1199
##activity
grub
edna
##ffen
slate
departmental
demig
irc
italiana
saldiv
khat
cathy
##498
confron
##481
##455
melvin
tense
woodrow
photons
701
drav
baj
inscriptions
##adores
##agonists
coupl
heroic
pickup
crimson
mandel
##holders
vacant
optics
1605
licenses
##warts
salvatore
environmentalist
mariner
prelude
triangles
##gregor
bulletin
gustavo
pamph
trombone
altogether
alvaro
resemble
ingredient
##uccio
cultivation
puzzles
disciples
annexation
hiking
aguilar
bieber
saarland
yvonne
assessment
lviv
hussain
sclerosis
montpellier
subscribers
tochigi
galapagos
kiribati
saldivar
coke
gass
iff
pills
wey
xd
zub
##dl
##천
##edal
##isław
##olent
token
isid
stacy
##oton
##unks
##imura
##agana
shame
##icans
##abilities
pri
diz
fresco
playhouse
##ellin
abus
foley
##pei
indoch
knot
bres
evapor
reluct
1370
1316
barely
transc
redes
##flow
sule
aven
##anished
mesozoic
extras
catast
jackets
zeit
cirsium
astro
caul
sharia
baud
translate
paste
affir
moonlight
polygon
namur
fredrik
miser
##iatus
rhythms
colonialism
chernobyl
macedon
csi
yankovic
verbal
carrion
##querque
desserts
burrows
premiership
giacomo
archduke
tectonic
guarantee
compensation
guernsey
kangleipak
boomerang
transactions
aachen
ew
fonda
kast
kuh
vogue
wulf
zig
##arno
##ischen
##leod
##omers
stav
shal
##illi
pegas
afi
roo
1015
drill
##ucher
upright
1378
swear
##amax
starch
rowan
emissions
##ulli
villagers
bering
morse
refuse
robber
preview
hostile
collide
34th
ulm
brandt
housed
barbuda
blocking
##richt
freedoms
nikola
##zhen
lynne
hornets
1591
tripoli
vitoria
baptized
lanar
revolver
mozilla
requirement
##fsr
tombelli
exposition
heathrow
deposit
dysfun
cinematography
mummy
outdoors
ehime
strawberry
##felden
##accio
remnants
desperate
rosemary
camouflage
appalachian
buccane
lyudmila
bs
dard
ease
gory
m2
mest
mates
nade
render
vet
##olev
##city
##jm
##alov
##alayan
##omas
##elman
##adish
chased
chords
propr
spines
spores
pee
prc
##icha
frig
##ogg
alloy
parap
cradle
applying
overhead
mauna
starter
surah
longitude
spacex
arches
##ophus
suf
merely
bertha
donn
cyril
talents
##605
##485
##119
wilkes
infants
babe
requiring
requiem
darius
ashik
messaging
commandments
removes
responsibilities
hygiene
defining
vikram
ryo
cosmology
kickbox
glacial
assumption
sparks
innovative
exports
flamengo
moisture
peanut
uncommon
jovi
nexus
hepburn
##otechnology
magnesium
djibouti
superintendent
encompass
aura
dane
eil
ery
fence
gaku
jard
mard
natch
rall
sse
##nov
##names
##tl
##pw
##enport
itanium
##idia
##opo
##oped
##berries
compton
uninh
oristano
##avo
socks
mek
mezzo
ads
desired
teammate
##insk
calabria
moines
interst
##atsuki
gladi
romana
aveyron
capitalist
davenport
natal
##606
##607
##478
soundgarden
judo
promo
torino
38th
psycho
bowen
##emption
unlimited
apartments
ferns
faculties
calculation
gersh
c2e0
lanes
##clusive
forgiveness
matsumoto
miyazaki
blessing
humidity
aggression
zombies
protectorate
fahren
mcgill
tlc
incarnation
perceived
##igraphy
harassment
magistrate
smirnova
carbohydrates
nauru
reboot
mahabharata
mausoleum
c2e0ff
fina
fife
gide
jap
joss
kors
piers
tug
taca
uri
zhao
##ruck
##wulf
##cito
##pack
##xia
##ingh
##lein
##ilus
##iliation
heim
spoon
trudeau
1725
parano
blum
blink
1672
1215
1190
resin
octave
1480
doha
amour
moe
quote
bravery
##encio
philips
breach
merge
donnell
supermarket
natalia
haar
bodybuilder
karan
karma
criter
hohen
cartil
ambrose
mahal
cabbage
tamar
sweep
signifies
gangs
surveyor
1592
cooled
anatol
zoologist
##aphyl
awake
hobby
chatter
weddings
stefani
aubrey
mentally
nominees
mysterio
##childnames
anarchism
##iciency
lesbians
feudal
beaufort
phonetic
sachs
persuaded
enclosed
convenience
dengue
bickel
blossom
shrewsbury
genevieve
enjoys
scrooge
ceylon
albuquerque
verstappen
lanarkshire
bland
bung
db
gma
lur
lana
sash
yomi
##ythe
##eous
##vation
##tland
##gam
##bah
##fre
thres
##esque
##asar
alber
##aday
##adio
heidi
dehyd
##iese
##ulse
spare
spurs
##iek
pry
##ogues
playback
abdom
abyss
musee
1728
##quim
butte
1135
1475
televised
charities
##plan
harb
submission
wally
##ophiles
corv
midd
takeshi
addicted
biella
powerpuff
##alajara
academia
##802
trades
osbourne
woodstock
distract
ferm
ferre
bully
miracles
cookies
packaging
yeh
bedroom
illustration
1609
jumped
indicating
ravi
katharine
allegh
unusually
cockato
possessed
stretching
chestnut
exercises
reptile
taxonomic
consequence
guadalajara
heterosexual
##runner
vigil
reinforced
falkland
caledonia
unrelated
dit
gupta
jens
mould
ode
yin
##electric
##nec
##tok
##cut
##zky
alchem
##irl
hee
shag
##akan
spite
##acies
##ubers
##upa
abort
trier
truss
##acha
scala
##endar
adver
knut
centr
##enskan
1634
repairs
1230
novgorod
schro
1375
amman
swat
quill
##grin
subord
braille
internationale
##rij
glarus
georgy
walden
voor
staten
midwestern
vols
advancement
##written
##609
storyt
burgh
coptic
fallout
45th
##baugh
lesotho
microw
springer
korf
mahler
odor
shooters
originates
barbar
sprinters
kamal
##onnect
rajput
mi²
definite
catcher
margarita
approaching
##kovic
salesman
kisses
migrate
brasil
casualty
suspects
filippini
erupted
traumatic
schalke
prejudice
tolkien
roanoke
obesity
ether
keeper
nave
ragn
subl
vign
##mak
##note
##was
##ingual
sein
seated
pluck
##acs
levin
##ritt
manchu
aller
1721
drone
1479
marches
weis
maast
systematic
##ophila
villars
finite
salman
kea
donations
anticip
##807
##803
##608
quezon
judas
mathew
derives
boyer
nicki
##iyev
watford
odisha
fairbanks
tuna
##zyg
documentation
hanja
surrounds
contributing
venezia
definitely
toyama
acquitted
chancellors
paired
hobart
miniature
aspir
moldovan
##oglu
pharaohs
##svenskan
soyuz
syllables
verdict
encountered
nuevo
nomencl
amnesty
pompey
##obacteria
lauderdale
sketches
varsity
4x
ather
bf
eocene
fis
gems
hald
jihad
krem
nutt
pid
vt
##cin
thong
##stetten
algar
##overs
sei
##illand
fram
clover
##izi
flush
agra
1018
blows
1666
1220
##sport
schaff
##ancies
implies
##etty
slipper
interrupted
steg
##cke
corp
hyun
delg
seeks
##602
informed
discovering
##434
##432
##433
##iscip
cantonese
globally
conservatism
1652
1561
cosby
1556
nyon
ignacio
pavilion
niagara
mackay
flavors
gyor
margot
grenade
##graw
examined
anchorage
delegation
quintanilla
daytona
dormant
satisfied
tesla
whalers
micropro
rsssf
occidental
hottest
vertebrae
hypertension
seychelles
ashikaga
korfball
bays
cima
eject
fx
fatty
gaw
hn
naka
vard
vance
wiley
##wash
##oral
##orak
##onium
##aras
##otan
bele
##imm
shankar
orson
tee
##sef
abba
##ibes
##ibur
aging
1694
1240
schuster
wills
weil
highlights
himalayan
underwood
rockford
emu
##elsen
portfol
voiceless
summon
addams
membranes
mala
confront
jewels
##onauts
tener
prefectural
faisal
##cao
nicky
junk
fortified
##uhan
casablanca
1505
reasoning
unitary
packed
instrumentation
sherwood
youtubers
dispatch
dickens
repeating
challenging
pursued
abandon
gemini
pistons
nasser
admired
polynesia
mahmoud
##ierrez
avoiding
configuration
extermin
domenico
cheyenne
aix
fn
meng
nino
rour
vc
##hyla
##waffe
##parts
##bill
##farl
##orch
##aray
##edin
##edio
reinc
##ipes
worcestershire
trigg
webbed
##izia
phob
blas
blanche
acanth
1661
1241
monop
1440
1478
##azquez
elmer
palo
##ietta
oppose
taur
erm
##806
##604
monta
satire
garlic
tori
wallis
naughty
principe
theropod
lyons
picking
lori
reasonable
##herst
sadie
chaudh
nominal
1682
ipc
thicker
hazara
grossed
tendency
kazakhstani
dustin
enforce
werder
##proof
gcmg
plaque
denomination
bharatiya
staple
gentlemen
tastes
giselle
phyllis
##zynski
logarithm
abnormal
corridor
caretaker
macquarie
bandicoot
chihuahua
marjorie
fahrenheit
##farlane
cair
fide
grit
hays
kitz
##mc
##kell
##faces
##oland
##olles
##omori
rector
##irds
onion
##aper
conform
##abella
pritz
mara
manny
##ansa
colbert
flug
1673
cooke
1476
contamin
1336
maize
capita
moy
animations
##apple
crows
waldo
classroom
merida
debian
##809
trous
karach
##117
cantor
frankish
hostages
executions
sarc
managerial
laying
##akhand
hollyhock
precurs
knighted
revolutions
guerra
terminator
correspondence
kelley
sudanese
blowing
prostitutes
tacoma
ecosystems
seizure
disguise
avoided
eureka
assyrian
cullen
ceasefire
luftwaffe
peripheral
asclepias
tenerife
nis
soto
tull
wemb
##tus
##qing
##fan
##four
##esch
tog
##illet
##amt
##amis
heck
asym
secession
arezzo
spann
##ellum
##orean
musa
knees
phar
paran
1035
1077
##ensch
##econom
##weg
1320
soils
weed
##enny
capp
steals
discrete
salty
sonia
markings
##mei
##805
freak
condor
louisa
judd
sidekick
naturalised
##othe
astrolog
cantal
detention
##giant
walloon
automated
kimono
1564
suffrage
switches
dirk
rouen
migraine
minecraft
chandr
nemo
grenad
decorative
fibres
ardennes
pharmacy
tyrone
brasile
a320
unicode
ubuntu
senegalese
aztecs
bracket
fluorine
brewery
erected
strangers
incorrectly
huey
surgeons
iqbal
brennan
peacock
corros
forensic
oclc
bhe
gau
kits
m3
pesc
rok
vangu
##aar
##juk
##ᅵᆫ
##arre
##robe
##step
##oting
shabbat
spells
##iez
footh
1671
1531
1519
1198
schemes
regis
amherst
##tened
belts
impr
barrels
##enga
invitation
trey
louvre
expo
##804
##808
honig
restart
##111
alexey
robbed
nonpro
##tax
climax
sirius
odin
availability
heroine
embarr
hanson
concentr
zoological
ellie
mckenzie
struggled
blogger
##govern
meteorology
rancho
faye
gutierrez
phosphate
cinematographers
coefficient
##mandu
thelma
kylie
rhyme
aortic
upazila
oohira
maastricht
nomenclature
reincarn
pritzker
caz
fuchs
ghe
lola
lulu
lrt
nune
rani
rift
sond
wakes
zd
zeta
##rone
##ranger
##yre
##rova
toon
##elis
stab
whistle
leib
##ipation
arjun
##essy
##ogi
##ucer
collo
##ideae
decid
bliss
1633
1430
statehood
stripped
retreated
##inoff
archiv
villar
##lois
passive
realms
natalya
francais
mclean
zeph
hooks
##118
infancy
drains
curator
##autus
textbook
kyo
marshes
hanks
hayward
katz
bedfordshire
litoria
coolest
attracts
emergencies
bartlett
srin
oblasts
laval
luxembour
pelop
watershed
heavenly
honoured
vulcan
dusty
kiwi
sponge
vaudois
##stitutional
recreated
cheval
##ebook
orebro
checked
bharat
oyster
manifesto
dangers
invasive
transmitter
excluding
hawthorne
linebacker
galveston
gps
nf
nub
pess
wines
##vil
##try
##cem
##anid
##oras
##icates
##lehem
##omal
##cea
##opath
##ulator
unfor
spans
cones
ariana
boar
##aching
1691
1218
conti
##tsch
depressed
helper
assume
armand
slater
modena
submit
backl
jeann
glaz
##eee
corona
blackwell
saline
catarina
haem
karol
montes
mcgraw
replay
replied
##199
ferenc
separatist
garda
requests
cabr
practicing
tuning
routledge
1506
1509
selfish
bullfrog
saddle
kaj
levine
bounded
crowley
illegitimate
sulz
sulph
gibbons
thickness
storing
priority
rahul
skulls
cambodian
bethlehem
shivaji
multiply
confession
dormouse
intervals
rochelle
skelet
astrophysics
hathaway
paddington
##gotland
##mantle
conjug
daphne
absolutely
dolores
microorganisms
uninhabited
bp
faint
oven
zyg
##hir
thalia
thebes
##itos
##itra
anac
##rou
##eln
stained
##etano
fores
chico
shipped
unse
##isho
atch
##ebb
mango
##ryl
foil
brum
1677
monoxide
coffin
octavian
##ucho
geisha
howell
##ometry
comedies
incub
london2012
sanford
malmo
handles
trol
luzon
israelites
collects
ruf
middleton
penelope
panj
##olfo
aquino
ahir
slowed
pediat
1559
cassini
hangs
pavl
kathmandu
suspicious
echid
cosmos
sakura
weighing
thorne
uttarakhand
chefs
marlboro
gimn
disagreement
screaming
andrade
gekko
70s
bals
diac
hk
hana
kali
lough
lute
nodes
oates
sakh
##oya
##yz
##name
##zko
##jad
##ар
##alone
##isans
##ovis
chh
spess
congl
ender
pran
prisc
##ebol
frs
apr
api
##ibor
meur
alloys
1727
roque
thereby
afterward
twe
##lesford
peron
contests
##uche
doi
outfit
elves
##inta
skate
##both
magna
defences
godfrey
malware
masked
entre
entom
##afogo
pressing
fisheries
##working
damn
crossroads
georgi
homicide
timing
insight
separating
##iffs
berne
doming
##markets
drey
mccle
1704
culturally
safari
clearing
analys
lynx
bagmati
1594
##walt
sahib
baths
calculator
narrowly
escaping
ferrer
roofs
razor
alsace
alessand
ortiz
wavelengths
residences
seamount
dignity
punctuation
innocence
panthoibi
eintra
fielder
kiel
siss
uf
uday
##yat
##kol
##tori
##gle
##zu
##ır
##ин
##ᅩᆼ
##orth
##arp
##igon
ston
##opathy
deacon
##imos
##aglia
whl
seag
shaman
orr
conject
##ichael
actin
cans
exoplan
noting
compost
comprising
##endicular
1030
disob
1538
1280
1130
1380
saito
televisa
overland
capcom
2500
##shahi
stew
annot
epith
afrika
takashi
currencies
mening
##hammer
billed
url
snails
prometh
36th
##atoire
facil
pacif
stocks
cutter
##zyk
finnmark
1790s
carboniferous
polyg
polyph
mortar
ivanovich
##brough
imaging
baptism
kinetic
kelvin
conversations
##ilingual
supervision
announcing
seventeenth
1600s
herrera
pueblo
unconstitutional
dromae
thessalon
caffeine
iffhs
##isciplinary
vanguard
eintracht
g8
gins
jasmine
mx
nairo
pn
pw
pors
psy
pests
sill
samm
yats
##uja
##gill
##gles
##jd
##enka
toed
##elos
##stat
stairs
##ovia
chasing
seaw
shack
##arton
##illard
spelt
spanning
leuc
afterlife
1266
1296
1265
1330
1318
sails
broye
crumb
guzman
outlets
starvation
harrow
skies
valery
brace
##boa
##elsdorf
##flin
superc
fremont
economies
economically
trois
karam
restless
devonian
motown
horus
postage
##159
collectively
ballon
caud
climber
33rd
treehouse
hawke
eaters
liberated
##azzi
##office
rolled
shiny
litre
frederik
lockdown
botafogo
detection
horseshoe
achieving
podium
ricci
hamburger
stefano
prominence
ostro
loaned
rebuilding
adolfo
hil3
paraguayan
prosecution
##horse
australasia
nueva
unwanted
reprinted
enabled
plastics
gaius
reruns
elliptical
dull
jat
jian
jai
nanny
pats
##riv
##nom
##ᅧᆼ
##arana
##itim
plo
##aina
##athlete
manch
manners
##ikova
meuse
joze
##tega
1031
1099
moncheng
1420
1435
grange
1327
regained
electors
assim
barcl
metcal
rowling
valued
landau
millimet
##coin
kei
holvor
faroe
publicity
moran
morley
cypress
##ushka
workshops
argus
pakhang
hoax
sexy
petra
rufus
##444
##ladbach
breakup
bangor
rainer
tuned
##paa
selma
42nd
christophe
horned
ansbach
1593
herschel
spectators
metroid
favorable
oggy
gustave
mckinn
liszt
subtract
decreases
vivian
mukher
aristocrat
oshima
simeis
karakoram
supervisor
micronesia
laptop
rattlesnake
asiatic
unveiled
cuckoo
kharkiv
spectroscopy
portfolio
triggered
embarrass
monchengladbach
holvorcem
2em
90s
cact
eber
gauss
jad
jima
lili
mapping
qi
sween
taw
##mach
##gage
thi
thak
##onite
##isely
##itel
##lez
hebe
##owicz
behead
chl
bytes
##avid
spagh
congr
mariano
##verde
##astrian
mania
usc
tramp
firth
herds
indigo
livorno
1726
1060
disse
16v
1447
relates
##ysema
guil
wherever
##wayne
accents
invades
##ontas
delight
merging
campos
markus
specialty
sounding
##115
freeway
ruhr
climbers
gunshot
candles
softball
gardiner
reactors
hindenburg
chechen
mirage
piercing
mattel
gregor
oakley
conquist
##anteed
vertebrate
ventric
carnivores
ogden
integrity
gyps
sigmund
restrict
carpath
verbano
bromine
instrumentalist
ninety
guaranteed
displac
ossola
stampede
solely
instantly
hymns
knoxville
gogh
leverkus
perpendicular
narciss
billiards
sewage
parenth
mccoy
peshawar
rhinoceros
diarrhea
aard
bw
cfa
ekar
hagen
hiatus
kia
mers
nuns
upt
wages
wigan
zanz
##yev
##nab
##buster
##inis
##arist
##roth
##irth
onions
##opal
##opithec
##agle
##raw
##ested
neel
##acca
##udy
##ritical
##ifolia
sheen
commut
##acken
##endi
parc
flair
1010
hadith
blend
1221
1260
1249
1449
1486
##ireann
1337
1326
ames
##oble
eliot
palisa
thrower
##rones
glove
sanctions
signatures
patel
davy
erika
khuman
continuation
##position
montedio
copd
horatio
accordance
observers
islamist
eaton
captains
predictions
syntax
1503
dunes
1204
franchises
hartman
axi
vasili
elders
grayish
sardar
toxins
##amanian
expeditions
gymnas
rejects
andersson
emphysema
turbines
esteem
gunnar
fujiwara
inserted
eukaryotes
privileges
accusations
surpassed
complaints
conglomer
nairobi
80s
cil
cate
eton
ieee
jia
tula
tammy
zell
##rama
##kot
##hound
##zeb
##fen
##fels
##fox
thesp
##edi
inert
##omat
beams
chas
##aller
righteous
##api
proxy
pept
lease
marrow
##orte
newcom
##iffer
##izable
pha
1095
1096
##perms
1238
1219
1431
1340
1346
1385
edd
sauces
##ughts
maas
asset
stargate
underwear
interd
##boats
irons
suited
keio
##queen
rhod
freiburg
verm
burd
mcgr
mcpherson
denotes
refin
similarity
woodpe
testimony
rounding
##woods
medicinal
fortun
facade
kenji
fairfax
dominance
vaj
mccull
praet
alternatively
acceptable
##iotto
1557
axes
hearst
remixed
trusted
virtues
gravey
hurts
hydroelectric
determines
punishments
hiragana
smartphone
comparable
vulgar
cockpit
quadrup
sikhs
permian
grosso
apocalypt
zachary
herzog
obstacles
inclination
pocah
agripp
diagrams
dissipated
hammersmith
masculine
raspberry
asexual
chieft
luxembourgian
leverkusen
cured
hench
ipa
lle
nieu
sama
tata
uma
ying
zhe
##ride
##mies
##yuan
##kvist
##uine
##with
##ᅥᆼ
##itre
andaman
##oub
##ilians
wass
##ayi
##idze
trivia
truj
webber
bohr
apulia
##acek
1722
##undra
1111
##ecrow
resolved
monophy
gras
1325
sauber
##tsky
depths
preference
chariot
craters
buys
weir
medusa
larsen
##urov
##oodoo
attitudes
moj
moors
##annis
endoc
interrog
##riere
annette
##ophon
comedienne
incomp
louder
berth
youngstown
mcbride
hardin
copeland
nonvi
lowlands
##zoa
antonia
domes
cabaret
##prints
kidd
spokane
corporal
bushes
otomo
sherlock
vasil
nyct
fixing
tripura
umayy
scarecrow
hydrochlor
##enoord
rushed
attachment
terminals
potentially
kaye
wakefield
swansea
seaside
hermione
repaired
precedent
meadow
gondwana
aaliyah
xinjiang
potsdam
cagli
exchanges
pencil
disturbed
bounce
rehabilitation
gideon
spessart
gymnasium
pocahontas
bk
boles
caine
fum
gyn
hens
huck
pico
pahl
rast
sanger
tid
tama
yester
##kah
##kner
##sg
##tun
##hab
##pas
inuit
##ascript
##chief
##iran
plc
pea
##acoph
enn
##ellation
##0000
##iob
1024
whoever
1210
monoc
co2
1321
amit
airstr
attic
pala
quang
barred
sloan
hari
internationals
humorous
intro
masc
verified
##198
borg
##173
cartridges
bridgeport
recognise
05°
aqua
scranton
affection
investigators
sadness
##sexual
optional
appliances
liquor
kerou
hangul
ridley
theorists
buckley
coronary
barrymore
sensor
porcel
maze
limitations
hannibal
javascript
guatemalan
zimbabwean
tramway
obviously
ljubl
orphanage
ilya
cusio
pronouns
yogi
ethanol
goalscorers
ureth
buccaneers
abdominal
aeth
nant
oder
pd
silt
voodoo
##e6
##lau
##gett
thinner
##isburg
##icides
##oupe
chish
chub
sewing
##arty
withers
##ptonshire
abrams
adhes
flock
##enshire
decker
1529
1572
1227
1246
1137
1165
1429
1445
1428
1496
charley
swind
geophys
##ollen
palms
barg
meta
rowland
jeong
remakes
waterford
raoul
raises
keaton
##anao
solv
defenses
downloads
supermarkets
coloring
morality
silesian
khrush
trough
hardest
promising
robust
melted
astra
informally
accordion
middleweight
trainor
panzer
gunman
jerzy
bananas
akadem
achilles
dining
loretta
drying
electorates
labeled
mortimer
##uffle
violinists
sorcer
wagr
discusses
dystop
sicilian
enforced
calcutta
duchesses
proposals
terrace
polynomial
satisfaction
kendrick
sympath
affordable
spokesman
squirrels
positively
fiorentina
remembrance
compulsory
transfers
enlarged
endeav
wembley
banc
cud
drome
hj
lore
nause
rpm
yous
##mut
##num
##eret
##atical
anwar
##elton
##elids
reis
##etism
chuv
##opsy
deemed
##imental
##aguan
sper
enlisted
excommun
polka
compressed
##orsky
scors
##enden
herault
knob
knicks
##tee
decent
1617
1540
1524
1179
##ahed
basins
1466
##week
1348
sai
doh
soo
suppress
crews
yorker
islander
legions
salah
courthouse
thiruv
richer
advised
donat
markers
posse
martian
trader
##116
##113
sexes
samoan
melville
mato
deton
cleans
multilingual
gallo
closes
##comput
assembled
raman
##oises
wikis
##knot
generating
alfa
ibar
44th
##ships
fashioned
elek
bradshaw
fulham
1453
transitional
brunn
cleaner
encyclopa
rabbis
zoolog
fabio
compilations
bilingual
havilland
wendell
slovakian
brutal
abolitionist
##ophyllum
kilogram
myeloma
coppola
sausage
landforms
zanzibar
bival
cev
fies
fij
fidd
fencers
jena
pann
padu
suez
##mount
##aq
##good
##fle
##arf
##edience
##itating
##reter
##ionage
##elan
##elow
##elih
##ersion
ons
asper
##aines
spree
marlon
1025
briggs
blaine
1667
perch
1115
1425
grat
##neur
1329
1338
1389
madeira
swelling
##ierz
overnight
##azy
superson
opel
philologist
remy
emission
soluble
volvo
natur
tally
jacks
marta
##forth
montal
azure
##182
##442
sargent
junta
observing
textbooks
pasta
fortifications
mahat
identifies
escort
##ropolis
mobil
vaish
accepting
expressway
douglass
miya
ayers
precisely
tatiana
remembering
contacts
##oppers
hammerhead
choirs
riviera
ocasio
##isoft
##missions
tightly
pixel
evanston
tropics
grigori
dislike
disliked
maneuver
gesch
quotation
accommodation
hewitt
slipknot
crystalline
rpg
remembers
puppets
mimicry
hibern
geographically
northamptonshire
postponed
guthrie
khrushchev
bale
bitch
joshi
kund
lakh
mith
rund
tars
##yuki
##wati
##wijk
##fact
##finger
##erz
##oru
##enham
##isers
##icos
##olit
##ilio
##iron
##emus
chab
chiy
unanim
##allah
conm
linkin
##aston
abuses
sciss
serena
##quate
flan
##toons
1622
1613
1225
1285
1120
1488
1319
bukit
geologic
poisons
maury
assert
impulse
moff
intact
bien
popularized
masah
settling
florent
termed
##112
arachn
astor
posters
##183
wallach
almond
##334
##333
jeremiah
objectives
stanisl
37th
rodent
1654
steppe
mandal
huber
tagore
fatima
misunder
1405
youtuber
bengals
maximus
trieste
huron
continuity
sensors
ovarian
##organic
mazda
aborigines
photojournal
riviere
pillar
vampires
nursery
confessions
polymers
krasn
poitiers
acknowledged
elaborate
thurgau
leavenworth
scorsese
##elihood
b0
boud
dwell
e3
eid
fits
icar
kau
mies
mika
morrow
vain
xian
yew
yuz
##yards
##nin
##wid
##entes
recess
##oten
seating
arne
##anges
##iken
fools
##tea
1195
1379
1355
depress
airfield
##uros
endow
endless
undercover
demi
##ontroll
irr
faro
superfamily
erz
prevail
##154
azores
mustaine
##162
##332
46th
##134
bernad
mayoral
savanna
##burne
stepan
51°
coward
grassland
1483
dressing
pioneering
reflecting
delivering
reunification
fibrosis
pillars
surfing
crusaders
summerslam
montene
displaced
melodic
britannia
sokol
niels
trenches
indirectly
wolverhampton
intestine
swabia
highlighted
euclid
telenovela
awakening
jewellery
emanc
circumcision
pepsi
extraterrestrial
beleza
nonprofit
priscilla
mukherjee
trujillo
hydrochloric
kerouac
ljubljana
auch
fancy
grom
kano
mub
monde
pga
r1
wai
yacht
##atomic
##leon
##ovy
shoko
##rave
proxim
##ainen
##illan
ari
##esson
committing
caric
phou
parental
1027
##ensk
1534
1295
1160
1437
evgen
scholl
regier
ame
estelle
guidel
guantan
25px
schooling
slo
brawl
sumner
courty
##nais
grandma
ordering
wentworth
##bergen
matching
verac
burden
vein
zeeland
oskar
##155
##197
ruin
##165
peterborough
prima
procession
penic
ivorian
ghar
planting
##132
qualifications
##uhle
maharaja
##laughter
hoping
piero
eyre
bullock
1563
fundra
altman
pedestrian
bonding
embolism
functioning
investigative
johanna
1606
jenner
preparations
oberliga
concentrate
ignor
ravenna
##friends
##rophe
hubbard
cruze
ugandan
botanists
fisherman
kreuz
gifted
cleric
entrepreneurs
fujita
gottingen
nicaraguan
gadd
eugenio
##hopper
vinegar
bikini
australopithec
motivated
zionist
centimetres
shorth
catalyst
agustin
##oglyph
propriet
abortions
a5
auss
df
kach
muzz
npr
oun
ots
oden
pae
tuck
tutor
wished
zy
##rc
##eiro
##lins
##wiki
##fica
##orhyn
inac
##isaurus
##icius
reass
##ayn
deeds
shig
shuk
##aval
marius
fric
canopy
hertz
allsvenskan
##quest
1665
1248
1211
1347
##eport
##ettle
barley
##resh
interrupt
##riya
##shut
landown
annona
annoy
##erta
anybody
avent
holby
severn
solic
biom
malaya
troubl
bored
boyz
curves
rosso
##iyya
librarian
rods
stephan
offerings
slavs
1305
surveys
ladakh
pokal
bryn
symptom
espionage
scripture
manslaughter
chromat
rearrang
blooms
lenny
circumference
cryptoc
patti
##rangers
##occus
bulldog
##fluoride
jaguars
fulfill
receptors
deutschland
touchdowns
heisenberg
tetrapods
drosophila
iglesias
conjunction
indochina
grenadines
bheem
sweeney
bourn
kog
kuch
kott
komb
ketch
qb
tumb
tirol
vsev
zad
##rician
##tan
##tag
##hag
##bam
##fic
##orov
##onics
##arum
toss
toei
##elier
##cey
##unaga
cheb
ortega
spikes
clippers
trif
##orde
sermon
2025
##assen
1037
1239
1166
1471
schultz
1386
gret
chartered
pointe
creativity
##ashvili
listened
watergate
cori
comedic
merlin
mca
takeover
benfica
etrus
##152
##166
waller
okay
sarg
curios
bello
landsberg
##hoek
embra
sundays
searches
weakening
puppy
hurting
pavlov
##ogenesis
wolff
sophistic
ozone
narrated
tetra
hacker
gymnasts
cheney
patented
tactical
stereo
snoop
tanner
chitral
cheek
ostergotland
archduch
vipers
oranges
thoroughbred
nebulae
vintage
deciduous
apocalyptic
guidelines
bong
dov
dames
iata
mire
pell
vfl
wic
x86
##yamba
##zb
##enwald
##reb
##thi
stakes
##osato
##ulative
plumb
##geons
clav
clitor
scall
lively
roach
##ensh
branco
##toon
grocery
1226
1126
grimes
##neg
schn
charging
swam
famer
quark
slade
##sheet
invinc
irma
suites
defens
##ipps
townsend
tottori
etudes
fewest
##168
##161
##163
panamanian
distribute
warship
uluru
##agno
arthropods
kongyamba
1702
guarded
investigating
sundance
lifts
1554
laden
oppen
siegel
pretend
bourne
interpreter
battleship
contempor
hendrick
tortoise
stretches
chatea
euph
cavaliers
toulon
expectations
brackets
bashkir
whitesmoke
adrienne
vittorio
congolese
gossip
feyenoord
hodgkin
welding
kardash
##opteryx
spaghetti
encyclopaedia
cotes
e4
eels
hilly
kib
kaur
kgb
o2
uj
xeon
##kash
##uly
##guns
##hya
##bun
thapa
inex
##iska
ansel
##ream
alo
healy
chimp
##ummer
##ignano
unint
atkins
##odi
##avir
ary
arama
2027
knots
##balls
souza
1674
1125
1131
1175
mined
1494
depicts
charitable
appet
himachal
loading
landings
##ophytes
headache
solitary
campania
debated
loser
martina
rails
mcne
snail
secretariat
squads
osage
maturity
hamas
garment
damian
##185
premio
##167
##169
purcell
connector
bankers
distributor
##171
rosenberg
shrink
antonov
backgrounds
wrath
cdc
1501
##trak
1206
##hofer
packs
picasso
sedg
mongols
bucket
syndicate
demanding
##ascal
compiler
blindness
heaviest
spirituality
cska
bicameral
hannover
eisenstein
isabelle
smokey
motorsports
nuoro
bjork
vaginal
##oglob
ossetia
vedic
determining
counselor
babylonian
multiplied
jpg
silvio
remnant
pygmy
cursed
energetic
tuvalu
deployed
seahawks
prodigy
hyperbolic
vuelta
foothills
atchison
cagliari
guantanamo
a4
batch
dt
fand
fenn
gills
giza
jans
nen
niv
penda
rf
tana
waver
zork
##rically
##sdorf
##wah
##catch
thayer
##rost
alman
staling
beb
shing
shale
##iaz
##oung
atal
proc
enable
arenas
marlow
lining
afonso
trist
trunks
birken
serene
cared
##anshi
agenda
1028
1585
1229
1138
##news
1310
overtime
grouping
strick
elgar
underlying
milestone
armando
harley
bandit
##rios
christi
##ylus
billions
debts
cym
murad
railroads
##114
collectors
##194
##196
macintosh
##181
convoy
administratively
pianos
##ohn
rollins
lyub
occupying
suggestion
haired
illustrators
quarterly
##breaker
strengthening
1684
burgenland
bathing
banning
discussing
orbitals
connell
cereal
sakai
fibre
protestantism
dwelling
heirs
choreography
anarchy
cedric
navigator
morphology
quarterbacks
reprise
tupolev
piazza
preceded
squidward
disguised
adulthood
arteries
triton
kimberly
impaired
ratchet
vaisala
threshold
trousers
meurthe
jozef
porcelain
nausea
1x
ait
dared
dread
fission
jib
kool
nike
nievre
pavia
xiz
##like
##cini
##bag
thrace
##asca
##elina
rees
##chach
onward
hebr
chag
cheryl
shet
##odle
tez
acton
clones
norbert
parrots
1580
1235
1299
1128
resumed
willough
##ussen
quir
barriers
##asek
redisc
reddy
operetta
majors
##linger
##retion
dax
meso
debussy
directorate
judged
##yrd
lottery
##158
##156
##189
##olester
##genstein
curling
pasteur
microphone
identities
identifying
destroyers
logs
synonyms
gianni
jonah
kimura
sabrina
contributor
siddi
arnhem
fulk
ridges
handsome
havel
sigma
##pieces
experiencing
palaeont
marquess
cruelty
ankle
threads
ammonium
stapleton
dartmouth
warehouse
##estrians
nautical
##ovascular
conscience
nurnberg
consecrated
graveyard
chuvash
padua
etruscan
stalingrad
baek
cumb
eireann
liang
m4
oo
pies
pfe
purg
tory
vett
wadi
zal
##maine
##nets
##tu
##hine
##cans
##into
##oran
##asato
##igley
##stall
alar
beatty
asb
##terozoic
##estation
##fee
oron
##iegel
lei
trance
1020
1090
decca
gru
relics
1341
amc
airborne
##intest
##veen
modification
empower
humour
archery
summar
salazar
##enegger
filmmakers
rada
##ylon
castor
exponent
specialised
receivers
putnam
deviation
matric
##192
garth
##188
##164
baut
adventurer
carlson
dario
orchard
logos
##agnac
tsub
dinamo
dunkirk
searched
lifelong
guinean
spectral
crowds
perfection
yoko
hendrik
tempore
regulatory
dwarves
cocker
sapiens
analyt
sindhi
anarchists
komodo
pieter
poured
calderon
grimm
rostov
##straße
tentacles
licensing
brutus
carcass
##alpindi
cremated
reelected
blazers
clapton
overlap
peyton
linnaeus
eccentricity
##lifters
suleiman
alessandria
dary
dose
laryn
nal
ua
ume
xiang
##kon
##hogs
##color
##06
##inac
##atists
##itives
##icest
##lek
##lema
##elines
rebrand
ales
##otov
shem
ata
plasm
##odactyl
spence
dik
centennial
1547
1231
1127
1421
1436
uploaded
doe
appo
##ancon
##awk
speculation
##arev
##llan
steering
lander
##atorium
corpse
mids
addict
##anez
mcint
rommel
benign
balloons
##184
##186
violins
candice
##cheid
modeled
cartographer
chaired
facel
hopper
##iasis
masterpiece
acha
1508
##imento
teller
phoebe
rugrats
1552
##egna
1607
impacts
rawalpindi
ventures
eliminate
bourge
cadmium
isaiah
toxin
brigades
mckay
jagger
struggling
mendels
psv
wedge
ubisoft
checking
recovering
mushrooms
cigarette
encrypt
caterpillars
cardiovascular
gastrointest
flammable
motorcycles
colloqu
ibaraki
mahatma
hebrides
gastrointestinal
dk
denton
durga
fj
fender
fitting
gough
gomes
heller
kota
mabel
papp
rigg
tesi
vind
##mis
##kka
##xit
##он
##eren
inactive
##alid
##rott
##ouf
##ilan
##amir
reapp
aldo
pli
##acp
leicest
dioc
truce
##acho
foo
musik
pheas
phyla
parlement
1039
blitz
1693
reply
1236
1176
1178
drif
warns
1448
1465
regener
ami
noor
quay
champs
harlan
glorious
peaking
romanesque
##inkel
##zees
berk
grandpa
cyst
silvia
catfish
fremantle
haber
halves
denial
##153
##efin
wilma
wilkins
39th
citing
citadel
##iscard
##174
strains
##oula
shootout
essence
1308
weightlifters
conception
##istaberg
specifications
1681
paramil
parameters
calculating
##points
necklace
breaststroke
bogdan
lilo
nestor
ferrara
apparatus
javanese
interpretations
piquet
brahman
geraldine
mehta
mouths
dyslex
collapses
sulfuric
fateh
magnetism
caldera
intentions
conceived
kvistaberg
vibration
accelerator
lagerkvist
goblin
waterfalls
remarks
lucha
vortis
weasel
yakovlev
resonance
masturbation
colossus
pegasus
allegheny
monopoly
elektra
willoughby
mendelssohn
leicestershire
aida
cress
fue
jenna
lyle
nol
ostr
sith
t20
vila
vidal
wired
yut
zebra
##mos
##kur
##tit
##hua
##02
##erte
##onit
##enet
##arks
##itte
anz
##lei
##igham
chum
asimov
##utin
##utra
##avas
##ainville
spins
##eby
arles
##iches
##ichthys
canis
newt
##ifix
norwood
indicted
rohan
jojo
flumin
1662
1139
janis
1439
1493
##olding
##wee
upload
geologists
numeral
##ollern
establishes
barrie
##ukas
##iente
2600
jehov
gamespot
myrt
colleague
illum
sonatas
vij
queer
haas
needles
##ledore
successors
badger
nightsh
danes
petals
factions
caen
failures
stronghold
baal
platoon
programmers
logistics
arrests
contrary
photographed
swept
snowy
saba
##utti
kilometre
imperialism
bagh
weaken
bartolome
whitman
pleased
##blue
scarborough
jailed
absorbs
ornamental
nadia
listeners
trigon
kulm
vallad
harvested
lokomot
shakur
crucifix
sustainability
stranded
guangdong
nicolae
pacheco
compassion
adultery
sacrifices
cascade
phylogeny
elegant
##thorpe
epilepsy
svetlana
mccormick
foreskin
##bothnia
displacement
a6
bile
hii
kita
naga
pk
ritz
tch
tipp
wett
##rino
##nal
inorganic
##throp
##ayam
##aguchi
sears
shrev
orne
neub
aba
notion
shea
parole
parodies
decom
bloch
##tois
##icka
novos
warlord
minot
1339
1311
lierna
outlook
smiley
cali
numbuh
larson
noailles
showcase
endos
##pless
intercommun
rockwell
glue
##ammar
brewers
treats
##ushin
activated
streak
madden
eventual
##pectives
cirrh
postc
##157
##195
limb
601
convey
sharpe
##apeake
nicktoons
##999
pasc
darrell
programmed
gaud
accession
policemen
marcia
sabot
mechanic
shapiro
fillmore
mortality
viacom
sediments
mitter
lacks
jarvis
kaplan
##panzees
considerably
lobe
gonzalo
mimi
digestion
concordia
rented
alkaline
vibrations
ffcc
kaisers
chimpanzees
tattoos
##ungsbez
chesapeake
stamford
bartholome
fraternity
mucus
arvid
magdalena
sapphire
guggen
forsyth
rhetoric
pantheon
transcend
delgado
ostrobothnia
jehovah
shreveport
bors
cuth
dwayne
jiri
koc
tinker
wac
##rip
##rans
##rium
##lac
##uks
##pac
##bron
##ᅮᆫ
##alur
##aski
##style
##ivir
dek
unde
plots
orwell
neop
spun
prent
prag
wors
##ublish
exagger
haskell
##ikos
scra
##ibayashi
roths
lair
laund
decatur
1237
1228
1298
coo
recapt
regiments
broker
deserv
wehr
overlord
##azov
medellin
artic
capabilities
jeans
rematch
emo
easton
maki
##cox
legged
void
maguire
versa
dona
rhys
cathode
mcqueen
raps
##193
ballarat
duisburg
bait
columbian
sommer
hereford
completes
bowman
bowls
synaps
theropods
wikitable
gaia
scholastic
protesting
mammalian
43rd
polyhed
kilometer
##hru
bureauc
petersen
nitro
disappears
misty
scholarly
consumed
soundtracks
ricc
pleaded
calcio
ponce
accompaniment
quartets
hieroglyph
kochi
exported
deported
inferno
microscopic
navarro
lukas
grigory
wittgenstein
squeeze
aeronautics
memorable
supremacy
hohenz
telenovelas
thierry
eucalyptus
prometheus
regierungsbez
dich
dass
fff
feral
gaps
hv
hila
kral
kana
nv
nons
nemat
piv
rish
łodz
##rists
##ioca
[...]
