[PAD]
[UNK]
[CLS]
[SEP]
[MASK]
<S>
<T>
!
"
#
$
%
&
'
(
)
*
+
,
-
.
/
0
1
2
3
4
5
6
7
8
9
:
;
<
=
>
?
@
[
\
]
^
_
`
a
b
c
d
e
f
g
h
i
j
k
l
m
n
o
p
q
r
s
t
u
v
w
x
y
z
{
|
}
~
¡
¢
£
¥
§
©
«
®
°
±
²
³
´
µ
·
¹
º
»
¼
½
¿
×
ß
æ
ð
÷
ø
þ
đ
ħ
ı
ł
ŋ
œ
ǁ
ǃ
ǝ
ɐ
ɑ
ɒ
ɔ
ɕ
ə
ɛ
ɡ
ɣ
ɪ
ɹ
ɾ
ʁ
ʃ
ʊ
ʒ
ʔ
ʰ
ʲ
ʷ
ʹ
ʻ
ʼ
ʾ
ʿ
ˈ
ˌ
ː
α
β
γ
δ
ε
ζ
η
θ
ι
κ
λ
μ
ν
ξ
ο
π
ρ
ς
σ
τ
υ
φ
χ
ψ
ω
а
б
в
г
д
е
ж
з
и
к
л
м
н
о
п
р
с
т
у
ф
х
ц
ч
ш
щ
ъ
ы
ь
э
ю
я
є
і
ј
ћ
ү
ә
ա
գ
ե
ի
լ
կ
հ
մ
յ
ն
ո
ս
տ
ր
ւ
א
ב
ג
ד
ה
ו
ז
ח
ט
י
כ
ל
ם
מ
ן
נ
ס
ע
פ
צ
ק
ר
ש
ת
ء
ا
ب
ة
ت
ث
ج
ح
خ
د
ذ
ر
ز
س
ش
ص
ض
ط
ظ
ع
غ
ـ
ف
ق
ك
ل
م
ن
ه
و
ى
ي
١
٤
ٱ
پ
چ
ڈ
ک
گ
ں
ھ
ہ
ی
ے
ە
ܐ
ܝ
ނ
ރ
އ
މ
ދ
अ
आ
इ
ई
उ
ए
क
ख
ग
घ
च
ज
झ
ट
ठ
ड
ण
त
थ
द
ध
न
प
फ
ब
भ
म
य
र
ल
ळ
व
श
ष
स
ह
ा
ि
ी
ो
ौ
।
॥
ং
অ
আ
ই
ও
ক
খ
গ
ঙ
চ
জ
ঞ
ট
ড
ত
দ
ধ
ন
প
ফ
ব
ভ
ম
য
র
ল
শ
স
হ
া
ি
ী
ে
ਾ
ର
ା
க
ச
ட
த
ந
ன
ப
ம
ய
ர
ற
ல
வ
ா
ி
ு
ே
ை
ക
ല
ാ
ി
ක
ර
ල
ා
ෙ
ก
ข
ค
ง
จ
ช
ญ
ณ
ด
ต
ถ
ท
ธ
น
บ
ป
ผ
พ
ภ
ม
ย
ร
ล
ว
ศ
ษ
ส
ห
อ
ะ
า
ำ
เ
แ
โ
ไ
་
ာ
ა
ე
ი
ლ
მ
ნ
რ
ᄀ
ᄁ
ᄂ
ᄃ
ᄅ
ᄆ
ᄇ
ᄉ
ᄊ
ᄋ
ᄌ
ᄍ
ᄎ
ᄏ
ᄐ
ᄑ
ᄒ
ᅡ
ᅢ
ᅣ
ᅥ
ᅦ
ᅧ
ᅨ
ᅩ
ᅪ
ᅬ
ᅭ
ᅮ
ᅯ
ᅱ
ᅲ
ᅳ
ᅴ
ᅵ
ᆨ
ᆫ
ᆯ
ᆷ
ᆸ
ᆼ
រ
ា
‐
‑
–
—
―
‘
’
“
”
„
†
‡
•
…
′
″
›
⁄
₂
₤
€
₹
℃
№
ℝ
™
⅓
←
↑
→
∈
−
∞
∴
≈
≡
≤
≥
⋅
─
│
└
├
█
●
☆
♥
♦
♭
♯
⟨
⟩
ⴰ
ⵉ
ⵏ
ⵜ
、
。
〈
〉
《
》
「
」
『
』
〜
あ
い
う
え
お
か
き
く
け
こ
さ
し
す
せ
た
ち
っ
つ
て
と
な
に
の
は
ひ
ふ
ほ
ま
み
め
も
ゃ
や
よ
ら
り
る
れ
わ
を
ん
ア
ィ
イ
ウ
ェ
エ
オ
カ
キ
ク
ケ
コ
サ
シ
ス
セ
ソ
タ
チ
ッ
ツ
テ
ト
ナ
ニ
ノ
ハ
ヒ
フ
ヘ
ホ
マ
ミ
ム
メ
モ
ャ
ュ
ユ
ョ
ラ
リ
ル
レ
ロ
ワ
ン
・
ー
ㅅ
ㅇ
一
三
上
下
不
世
东
中
主
之
也
了
事
二
五
井
交
京
人
仁
代
伊
会
佐
佛
你
保
信
備
傳
元
光
全
八
公
六
内
出
刀
別
利
前
劇
力
加
動
化
北
区
十
千
協
南
原
县
口
古
台
史
号
司
合
吉
同
名
君
命
和
問
喜
四
回
国
國
土
在
地
坂
城
基
堂
報
士
夏
外
多
夜
大
天
太
夫
奇
奈
女
好
姫
子
字
存
学
學
宇
安
完
宗
官
定
宝
宮
家
察
寿
小
少
局
山
岡
岩
島
川
州
工
市
帝
平
年
幸
康
廣
建
式
張
彦
後
徐
得
徳
德
心
志
思
恋
悲
情
愛
成
我
戦
所
手
打
政
教
文
新
方
族
日
昌
明
星
春
時
智
書
最
會
月
有
朝
木
本
朱
李
村
東
松
林
校
株
森
楽
歌
正
武
死
氏
民
水
永
江
沈
沙
河
治
法
津
洪
活
流
浦
海
清
港
湖
溪
漢
火
為
無
版
物
玉
王
球
理
琴
生
田
由
男
町
画
界
白
百
的
皇
直
相
県
真
知
石
研
碁
社
神
祭
福
禮
科
秦
究
空
立
章
第
節
系
紀
紅
經
線
縣
羅
美
義
老
者
聖
自
良
色
花
若
英
華
藤
行
西
要
見
観
言
記
話
語
譜
谷
赤
越
跡
路
車
通
速
道
選
那
郎
部
都
酒
里
野
金
錄
長
門
関
阳
阿
院
陽
隆
雄
集
雲
青
韓
音
須
頭
風
飛
食
館
香
馬
駅
高
鮮
鳥
黃
黄
齋
龍
ꯀ
ꯂ
ꯃ
ꯄ
ꯅ
ꯆ
ꯇ
ꯈ
ꯊ
ꯍ
ꯎ
ꯔ
ꯕ
ꯖ
ꯛ
ꯜ
ꯝ
ꯟ
ꯡ
ꯢ
ꯣ
ꯤ
ꯦ
ꯧ
ꯩ
！
（
）
，
：
～
￼
##o
##r
##d
##a
##w
##s
##k
##i
##1
##7
##3
##e
##n
##q
##u
##h
##v
##t
##8
##9
##g
##l
##m
##y
##c
##b
##j
##6
##5
##4
##2
##p
##f
##0
##−
##م
##ه
##ی
##x
##z
##א
##ז
##י
##ר
##а
##к
##о
##н
##е
##°
##ा
##ग
##ि
##र
##ш
##т
##у
##м
##и
##ß
##ا
##ط
##و
##ر
##⋅
##μ
##γ
##ι
##ε
##ν
##η
##р
##ц
##я
##ᅮ
##ᄆ
##ᅩ
##ᄒ
##ᅡ
##ᄋ
##ᅧ
##っ
##ほ
##ん
##ট
##ি
##য
##া
##न
##द
##ᅢ
##ᆨ
##ᅳ
##ᆷ
##ø
##÷
##ː
##ħ
##ح
##ł
##г
##ф
##ч
##с
##า
##น
##ม
##ห
##ก
##ร
##ง
##ช
##ต
##і
##ı
##п
##в
##щ
##ᆫ
##ᄎ
##ᅥ
##ᆼ
##ᅯ
##ᅴ
##²
##→
##ℝ
##গ
##ে
##র
##হ
##æ
##س
##ة
##ラ
##イ
##ア
##ン
##ク
##ル
##ス
##タ
##ッ
##フ
##ʒ
##ب
##τ
##ς
##さ
##く
##ら
##ы
##ю
##ʿ
##れ
##る
##ま
##ち
##≤
##υ
##ω
##д
##л
##ʼ
##ᄀ
##ᆯ
##ᅣ
##ह
##ी
##स
##ब
##ل
##ي
##ɛ
##ʊ
##ᄅ
##ᅦ
##ᅵ
##ᄇ
##ᄉ
##ফ
##ল
##व
##ו
##מ
##ה
##の
##ও
##ত
##خ
##ض
##ء
##ز
##د
##ن
##ت
##ᅨ
##ᅱ
##ٱ
##ذ
##ʾ
##ା
##ন
##ড
##ᅬ
##ɒ
##ʔ
##ɪ
##ŋ
##ʃ
##ɔ
##อ
##ผ
##ด
##נ
##ב
##ס
##ט
##پ
##え
##マ
##シ
##ト
##σ
##ρ
##ο
##ð
##ঙ
##º
##ᆸ
##ك
##お
##い
##α
##λ
##×
##ג
##ת
##κ
##δ
##テ
##ן
##ა
##ლ
##ج
##ξ
##モ
##セ
##を
##つ
##よ
##ʁ
##ص
##ə
##ज
##प
##त
##ɐ
##ɡ
##ˌ
##カ
##य
##ो
##ध
##π
##ե
##ր
##մ
##ա
##կ
##з
##®
##ェ
##ー
##ण
##म
##ख
##क
##ի
##յ
##œ
##ᄃ
##ハ
##と
##う
##ى
##ق
##こ
##ロ
##х
##ィ
##ニ
##ड
##ल
##च
##ъ
##ᄌ
##ˈ
##ᅲ
##เ
##บ
##ำ
##ท
##ย
##ש
##ь
##½
##し
##ম
##দ
##ᄂ
##ᅭ
##ʷ
##ʻ
##φ
##ע
##ד
##ם
##θ
##ع
##ர
##ா
##ம
##ே
##வ
##ワ
##ל
##チ
##ญ
##ะ
##ล
##ק
##⁄
##♭
##ᅪ
##ј
##は
##り
##か
##き
##ف
##б
##ष
##ے
##ɕ
##ʰ
##ャ
##ж
##ว
##ไ
##ส
##श
##ケ
##ム
##ʹ
##ュ
##レ
##ホ
##ն
##ப
##ி
##ய
##گ
##כ
##ค
##จ
##ョ
##ウ
##ہ
##স
##ী
##ன
##ミ
##ش
##ᄐ
##す
##þ
##ꯅ
##ꯝ
##ල
##た
##リ
##ෙ
##ා
##ⴰ
##ⵉ
##←
##ە
##や
##も
##ʲ
##ɑ
##მ
##わ
##แ
##☆
##झ
##エ
##キ
##サ
##メ
##צ
##ひ
##β
##ک
##ौ
##´
##ү
##ⵏ
##ธ
##э
##ᄏ
##け
##פ
##ข
##オ
##み
##ふ
##ந
##த
##ꯣ
##ꯢ
##⅓
##ソ
##ᄍ
##գ
##տ
##～
##ヒ
##て
##ာ
##ո
##ւ
##լ
##প
##₂
##ח
##ட
##க
##ு
##せ
##ി
##ث
##χ
##ษ
##พ
##ற
##ᄑ
##な
##め
##ර
##đ
##আ
##ھ
##ظ
##ல
##ई
##ɾ
##ป
##ꯟ
##ս
##ভ
##ꯤ
##ꯡ
##ꯊ
##ꯧ
##ރ
##ณ
##އ
##މ
##ދ
##چ
##ں
##ट
##─
##ћ
##ை
##ব
##ধ
##ꯕ
##ꯔ
##ꯦ
##ナ
##ক
##コ
##ψ
##に
##ゃ
##ノ
##ɣ
##ठ
##¹
##¥
##±
##ภ
##ɹ
##ζ
##≡
##∞
##ळ
##ꯎ
##ꯇ
##ꯆ
##ꯛ
##£
##١
##ᄁ
##ର
##ㅇ
##ই
##ꯃ
##भ
##є
##რ
##ე
##ი
##ং
##ㅅ
##³
##ᄊ
##ศ
##ә
##ڈ
##￼
##ঞ
##জ
##ක
##ნ
##ਾ
##โ
##℃
##¼
##ツ
##अ
##█
##រ
##ꯜ
##ꯂ
##ാ
##চ
##●
##শ
##ꯄ
##¢
##ǝ
##ല
##ǁ
##ـ
##↑
##ꯩ
##│
##ക
##غ
##थ
##ꯖ
##ヘ
##™
##ถ
##♯
##ꯍ
##ܝ
##फ
##ނ
##ꯀ
##ܐ
##ⵜ
##└
##٤
##あ
##հ
##घ
##ச
##ꯈ
##├
##µ
##ា
##ǃ
##©
##€
##∴
##খ
##♥
##∈
##इ
##≥
##ユ
##er
th
the
##an
##es
##or
##in
##on
##en
##ar
##at
##ed
in
##al
of
##is
##it
an
##ic
##as
##ro
and
##ing
19
##le
##ou
##re
##ion
##ol
##ig
to
20
is
##th
##il
##am
##om
##el
##ent
##st
re
al
##ch
##ct
st
was
##ir
##ad
##ers
##ur
##iv
##ay
##em
##et
on
it
for
##id
##ist
##us
##ov
##ce
he
##ot
##igh
200
##ow
##un
be
ch
##op
de
as
##im
##ber
##ian
##ly
##ation
##ag
##rom
##ight
##and
wh
##ies
##ut
##oc
from
se
##os
##ter
##ia
sh
##ign
com
##ul
##ces
##ra
##um
un
##oun
##ear
by
##mer
##all
##ish
##est
##ith
##fe
201
at
##fer
pl
right
id
##art
##ther
##ak
##olor
##ere
or
km
align
##av
with
##od
##gc
are
bgc
bgcolor
199
##ican
ne
##ap
##ain
##ill
##ie
##ity
pro
sp
con
pe
that
##ac
amer
##feren
en
##ember
le
##ary
##ab
referen
##ip
references
pr
##eb
american
##ard
##ople
ar
##ess
mov
##ust
##ath
##ate
##ant
people
##ug
##ud
te
##ld
18
mar
##ich
his
di
##ong
##ment
wor
##ame
##e9
##ort
##ub
##se
lin
##orn
##ver
other
##ge
##rit
fr
soc
act
##our
##og
play
##ast
##ount
##up
##ated
##ell
198
can
##so
they
##ial
fe
man
##ue
##ive
##ore
us
##pt
##ost
ex
##orro
cl
##6d
also
this
linear
new
socorro
af
##man
ab
##ates
197
##land
##ited
tr
not
##ok
##if
has
##ang
##uc
##ine
she
pol
web
count
ap
##sit
##ical
##ome
##ph
comp
bo
##ors
##ave
part
were
##ach
fir
##ik
comm
##lish
sc
websit
bir
##ack
united
##end
born
##uary
bec
##ord
##age
##ib
##ry
##own
first
ser
##iz
##ure
me
car
##ey
one
##out
##mp
196
##00
her
nor
##ace
##ions
##ans
##ths
which
##ict
##ond
202
fo
ad
states
col
##ass
##ime
mus
##ational
death
##pe
eng
##ern
##ide
ind
kn
##ory
##fefe
fefefe
##wn
17
##ound
may
##amp
all
births
websites
liv
have
ro
##ous
##cl
##ice
##qu
la
##ball
movies
##ance
e9
##e9e9
e9e9e9
there
city
ph
##ician
fl
##ade
par
year
after
ag
jo
tw
cent
##te
##ater
##io
2000
dis
##ree
##ens
195
their
##tern
had
194
but
sou
##der
who
##ision
16
##ics
##one
br
10
bl
sept
dec
polit
ac
##to
september
##ks
##aus
##lect
rep
foot
pres
world
gro
15
12
193
sing
2001
off
deaths
##per
its
##ild
##und
##ual
##les
football
call
##une
nov
##ock
about
jan
##ult
per
##lev
dr
11
##ward
known
go
##ah
##ec
war
some
bas
song
mon
most
res
when
min
co
14
##sp
many
oct
ger
##ick
##ivers
county
movie
##ings
##6d6
d6d
d6d6d6
##gh
##ober
##ents
##ire
cont
##act
october
##ustr
##ations
##iss
march
##we
##ake
two
##old
##ied
##ite
##erson
13
gr
ev
##uch
##ince
##ne
192
writ
##ould
rel
up
sch
used
aug
##ence
called
ed
south
##istr
national
pop
##ton
sy
sa
##ities
##ists
gen
do
august
north
##ery
time
##ts
rec
january
made
reg
win
##ames
german
##ugh
##ile
##ress
##ff
state
bro
##ina
##rect
##ments
telev
sec
##ose
living
am
##ys
television
austr
politician
dep
gre
found
##als
actors
brit
##clud
pre
so
char
fin
##ten
univers
##ons
ear
will
sw
##ail
des
hist
est
##uct
includ
cr
november
elect
direct
more
december
##ob
##uring
##ril
died
li
##ese
##ition
alb
##0s
bu
##ough
##ident
1999
english
##apan
team
##ork
gu
##ebr
king
##ages
##orm
we
japan
##ike
2002
april
##olog
##atch
ju
##gan
##itt
app
out
been
gov
tra
ge
bet
fam
##iver
work
febr
february
##span
##ale
into
##ix
govern
##ause
sm
distr
over
po
cal
##ier
##son
group
##ays
##az
str
air
sup
##vel
##ica
med
##ft
##ague
prod
##raph
##ury
series
##ubl
during
ma
joh
hel
num
commun
town
bel
british
art
lar
##ablish
album
award
##ep
stud
##anc
cre
##uro
years
##hip
them
##leas
##enn
##aw
offic
league
popul
high
##ood
july
cap
became
france
how
el
##uss
only
president
name
##oll
form
ter
pal
##ash
##ank
ass
prov
university
##ograph
att
because
2020
##ama
##eral
##urn
imp
##alian
no
john
district
music
191
releas
##ool
##ily
establish
river
mun
24
##icip
##iet
played
mo
qu
##ins
player
than
like
him
these
##ann
show
start
star
june
##ett
##ism
21
##imes
##cess
25
##iel
euro
##att
spec
##ween
end
serv
sur
intern
##ley
##port
york
##int
##ench
between
person
bar
book
lang
main
canad
met
##ai
##oman
##able
##ouse
##ffer
op
second
history
##ely
##res
again
##ional
depart
2003
##uk
##ures
##urr
where
number
1998
mil
##ve
under
2005
##ient
2004
##round
later
french
##air
row
school
long
30
champ
arm
##ss
municip
##way
municipal
three
best
langu
record
such
very
life
##ative
##ower
##are
##ds
##ublic
then
##til
official
players
chr
fil
century
##iam
##ason
law
23
former
care
##ement
##ll
child
sl
party
thro
22
mod
2010
space
ob
lead
europe
##ase
##pl
##fect
##ister
##form
since
ty
old
won
west
2006
would
##ital
##cer
##gr
##ather
##emb
##ect
##ually
sk
##fore
har
29
differ
released
related
sub
bus
back
list
28
2017
inst
##ren
2019
26
bra
##ious
different
cons
band
val
##rop
##amed
until
sport
actor
four
department
establishments
russ
game
##ium
##ets
day
games
rowspan
lo
je
island
inter
prof
age
sim
2007
club
##ri
loc
area
##ats
27
##ind
##aint
emp
2014
div
ii
##eng
##enc
international
member
ang
if
##let
2018
##ung
ret
ste
##ron
house
trans
before
acc
##inal
through
inv
##oss
government
songs
land
##au
##bert
##ott
##sh
compan
2008
##stem
190
family
phil
kill
region
small
singer
career
gl
##ants
##ise
rem
use
system
##ating
well
##ner
anim
hum
##amm
##ology
dem
##ms
my
make
based
##omen
ever
christ
##ull
2016
general
##thern
2015
red
champions
##ning
water
em
##ution
same
mill
000
##ography
##its
rock
ann
produc
2009
geor
##ont
2011
east
peak
##ino
##gest
2021
##ck
##ert
you
organ
being
did
##bo
cities
##app
mak
##ange
orig
often
##co
##ines
##dom
cro
oly
##ural
wal
olymp
season
31
afr
##ark
##ae
leg
##els
##ator
ep
##ee
miss
calif
pages
californ
##ral
##ounc
bre
port
##urg
build
indian
##ject
##ble
##ever
arch
##ove
california
named
actress
##cc
vo
near
language
country
##ollow
2013
vill
##oph
own
both
##ered
sports
early
japanese
ra
mount
##erv
women
##omar
##ific
started
##alia
place
run
##iew
comed
tre
against
charact
##gy
##ky
roman
##ives
ir
2012
const
germany
pa
##fl
each
##omet
palomar
##aly
##ata
profess
any
disc
said
##rest
black
follow
1997
kingdom
rev
website
##yn
mag
##ene
italian
stat
cor
ec
communes
tex
great
##ians
kitt
su
mich
england
sum
population
inc
oper
while
cup
##ony
vide
commune
189
mid
sal
tak
now
live
film
av
##ourn
lond
##red
##watch
##eter
around
1996
sen
london
##velop
##ger
last
however
ke
neat
help
##uth
##urch
add
##ize
##ature
politicians
##ana
spacewatch
minister
##ric
##ara
class
common
hol
##elf
develop
examp
2022
maj
head
##br
##ane
children
im
including
province
bi
##ful
def
directed
home
int
rad
##ling
usually
sever
sol
appear
##gin
set
##iation
repres
##ains
##ison
##ink
championship
##iness
way
cov
far
design
1995
san
##ody
##atic
big
hy
var
##ode
##ille
progr
musician
municipality
cour
##other
just
uk
power
thir
##ries
vers
curr
##ield
drama
cast
could
mes
video
##ined
canadian
god
lou
import
##ows
##estern
##ret
major
##ago
gold
mal
several
america
sign
##yl
##rog
compos
##istan
1994
australia
top
es
good
youn
anderson
memb
##anish
del
##ones
##ular
caus
park
pat
william
##ried
##onom
lived
da
open
##ction
##by
##lo
though
##ze
##ized
business
vir
##ney
vol
eas
##na
church
down
colle
company
##ally
##ala
tit
represent
what
##ald
1993
ill
colspan
##ilt
##50
##ible
ext
times
vi
tur
188
members
##ved
1992
attack
every
mer
##adem
india
##ler
##he
son
##itz
##uction
created
##ipp
public
100
##omin
##ute
large
##cr
mass
short
assoc
capital
swed
##ham
single
rich
##day
ber
##lex
writer
camp
white
##ience
popular
##burg
adv
chang
##inc
another
phys
present
##20
pub
##ues
pass
##ka
began
suc
men
##ke
milit
dav
left
original
grand
##ington
order
186
batt
##ico
current
##min
##ps
##que
don
bill
australian
cancer
saint
important
get
1991
spe
ta
russian
million
contro
academ
##tain
cens
color
mesa
manag
super
publish
##writ
mark
1990
mor
went
##ief
light
##cept
ant
exp
##ams
histor
tem
deb
union
nat
example
cult
giv
census
##ty
compet
##uck
civ
director
187
##ven
even
braz
species
##esh
comedy
center
lone
##ford
prime
scient
##ived
political
##40
##80
gra
central
countries
mex
##bs
##ract
towns
educ
brazil
books
democ
sil
famous
writers
somet
angel
##ush
er
loneos
roy
arr
cat
##30
##ma
cy
military
##side
##aster
##me
written
third
groups
rh
##ring
1989
six
##10
human
sov
hon
los
much
##ior
##people
##berg
##ices
western
still
canada
father
wrest
spanish
sometimes
support
paul
flo
means
kh
vis
##ockey
fre
republic
civil
##thers
enter
include
army
##60
summer
activ
see
##ya
match
tot
##ena
line
sea
dut
ur
1988
pos
cath
flor
econom
james
##ided
mean
special
##thing
sett
vict
journ
occ
five
gree
##21
professional
lab
hockey
##omb
##ida
sold
##ired
##ien
gir
##xt
auth
happ
tal
##itar
epis
earth
jack
50
ha
result
fem
1981
##umb
##ves
albums
cam
heart
college
##idge
married
##ius
contin
##yle
##lin
largest
##ides
##ots
built
##aces
##tt
##ency
mart
que
real
works
##chn
cond
story
social
1987
##rote
40
##led
hal
body
##ael
stand
northern
need
##istics
engine
louis
frog
young
election
comput
democr
footballer
european
##37
rece
stage
franc
##47
net
bal
1986
##27
##25
governor
dise
awards
want
george
soviet
does
##uel
ver
##41
ent
hand
italy
stre
##pos
##90
wrote
division
green
##anch
chic
##ania
arg
##ple
aut
##epend
##alth
mur
##ij
took
independ
fri
fif
##31
term
1980
came
success
expl
bur
##48
lat
##iod
##ek
tro
voice
##ville
tour
##45
##por
hen
kore
given
moved
held
1984
rul
china
proble
ve
##itch
jew
conf
chem
kar
##26
##ised
mont
##28
along
##ansas
##ster
texas
1985
medal
become
##for
1983
hall
fed
##ness
1979
total
love
author
pak
chicago
##aced
nys
wash
friend
##29
##ids
modern
##49
got
things
##amb
##ife
##gress
##ars
##35
mad
food
character
sn
##iter
battle
stars
##46
equ
##ano
mc
robert
word
##gether
version
##pes
rom
period
following
tom
chin
radio
1982
dou
##par
rail
hard
ze
##ured
association
sun
bad
fire
lu
1973
together
##ners
##ival
guitar
jose
hot
using
##36
look
return
techn
trad
royal
##ories
rest
cop
dev
1976
1977
##illa
events
##ady
ice
station
##aur
##11
dutch
founded
david
journal
##rod
type
##raft
level
role
sym
##38
event
##lands
secret
##ona
fight
##39
killed
african
ho
##olution
turn
put
##ges
worked
##ators
science
crit
relig
185
tv
court
prote
counc
##ander
mot
footballers
##70
municipalities
take
##ev
mother
##aving
##ula
scott
jud
##iety
1972
broad
fun
##pect
squ
leader
##iro
atl
road
southern
sound
##af
plays
1978
published
den
ben
stop
##itions
side
##uted
free
et
asia
ide
parts
wind
personal
natural
88
35
litt
descr
##ught
os
feat
##avy
thom
statistics
africa
next
plan
artist
night
1974
sex
ath
hor
muse
##ota
##ases
##ilar
1975
##arch
served
few
chinese
obs
scre
musical
pict
washington
pakistan
alex
little
sent
village
ref
ce
##antic
days
conne
empire
ara
council
girl
christian
disease
card
fall
aged
prom
final
mel
hill
making
##writer
##lements
##ility
fict
##cy
rob
##ells
belie
##15
1971
##eth
michael
angeles
##dle
##ote
##rael
##ically
press
mat
1960
##olic
perform
sam
rap
organiz
site
virgin
##oth
democratic
##19
##yr
local
ham
dan
##ki
becom
emper
##itzer
pet
data
cir
israel
##ha
charles
museum
##nes
sat
non
math
fish
ten
musicians
ast
1970
inform
similar
caused
turk
##cle
##osp
seat
##ified
constit
ball
surv
##ounced
post
36
cant
##aland
prev
repl
led
##go
richard
less
frank
mary
office
lake
carol
reach
point
spain
wood
host
lot
det
say
##work
rights
##odes
collect
##iers
1968
##earch
coach
those
##ways
eastern
admin
style
paint
research
studio
sportspeople
records
##75
##ump
gar
places
phot
islands
##18
georg
test
##ta
lim
lost
olympics
##16
academy
##mon
speak
sant
70
novel
1969
struct
fact
producer
territ
accord
az
##ument
mas
tor
seven
mix
##76
control
38
without
discov
##ero
grow
##99
due
45
sour
nob
##78
building
characters
thought
paris
##ying
dam
cle
dest
nomin
##ches
mac
prize
20th
##emat
service
money
today
pun
mem
cla
##ket
ca
poet
ox
coast
read
##line
##23
teach
bord
##ani
beh
##cial
prem
must
##ged
exper
elected
##ude
middle
##ced
singers
##24
sit
##be
80
shar
mult
1967
florida
60
oh
dist
ol
pur
round
wil
teams
parl
peter
1964
languages
produced
##ba
##ened
computer
fail
anc
ru
located
emperor
prim
brown
blue
greek
received
##rew
conv
others
##ued
connect
##gar
cross
title
##den
ef
report
##west
##ention
##eration
##ropical
##cast
away
austrian
screen
parliam
republ
bor
strong
fur
force
consid
##inois
administr
late
seen
exec
buildings
clim
allow
##atives
instit
trib
low
90
according
##wa
##ted
mos
##ura
##95
illinois
fer
switzer
key
##uce
bay
##uts
inf
##oles
##iga
switzerland
##aves
##43
makes
parliament
mr
##gian
lib
health
news
russia
community
##ini
##ror
zealand
prefect
##ended
hit
mexico
##ef
##ari
wife
track
sweden
##ours
scientists
##ughter
##96
##ergy
prot
wall
##ead
should
chart
pap
storm
##ffic
##ored
playing
75
oce
##sy
ancient
olympic
kansas
chief
information
1966
education
sho
##ita
fa
let
formed
##98
##hi
##wood
alm
##ished
##nd
problems
catholic
##ape
change
alth
##ado
pen
catal
basket
know
##ols
police
##ground
##22
##iana
areas
effect
process
race
##my
thomas
pan
##ped
find
resp
shows
cert
##ew
although
cit
infl
du
##77
##gypt
gall
virginia
der
##itional
##ained
describ
ok
treat
##ctor
van
##atory
##uke
##33
##44
henry
poss
train
woman
norm
announced
bab
##field
##ga
lives
95
##olf
dra
refer
female
180
86
egypt
chann
1945
queen
hung
##ament
1965
iv
##ris
##adu
##ope
animals
##cent
brazilian
##lic
action
composer
republican
85
##ipt
hold
##oma
basketball
gun
##ops
##eball
##oon
pain
half
tenn
65
joined
congress
##icle
iran
##onia
mathemat
society
##oms
argent
##board
defe
##za
boy
among
voc
1963
96
mountain
bud
##lam
les
##bc
##ender
hun
baseball
##oy
##ima
full
##lad
changed
##med
eth
penn
birth
francis
prince
ey
##72
##era
##ii
arab
48
brother
never
lear
sand
##ca
blood
hurr
98
bank
uses
##wards
1956
##oria
episode
##che
energy
cur
includes
ship
##of
cand
##ances
ire
words
##leg
hurrican
46
bul
##asons
mostly
sar
##ements
##osoph
viol
##42
clos
swedish
33
project
ireland
1961
nick
earl
##hl
whe
prefecture
hosp
1962
culture
##ja
##gen
network
##17
come
1950
##idents
##eland
field
notes
tropical
too
daughter
##aut
scot
##olk
board
##thod
##ny
model
development
rac
philosoph
winners
instr
##12
##ste
dead
##ength
hom
jun
entertain
dog
product
nether
76
airport
austria
##de
mic
winning
carolina
##icles
within
break
78
dig
##craft
lawy
1947
dyn
##ersey
##ims
engineer
forces
1948
program
iss
production
55
##akes
32
##ned
gave
gh
##uit
prison
included
jer
##ada
##east
types
anth
coll
##ked
##aries
netherlands
ba
plant
##ban
distrib
federal
having
value
appeared
geography
comes
liter
tim
portug
think
fest
##etic
ins
street
##uz
##ogn
movement
##lement
##ission
##ais
bc
better
instead
##ux
companies
66
spring
##row
media
##isc
##bon
thr
##bor
wrestling
00
##ato
##97
1946
cho
cost
##ming
##ador
lower
jersey
1957
view
wanted
sug
comb
1958
once
martin
##iy
perfor
almost
taken
##ware
begin
##13
kor
1959
##view
ohio
68
crime
##ox
columb
##wor
jul
die
select
1951
front
influ
separ
independent
sus
mach
##ological
##ique
songwriter
##iger
##wer
flight
##cul
##ker
##arian
##iff
##ems
1942
working
##awa
1949
lee
##iding
animated
invol
##jan
sem
##ests
smith
max
map
meaning
hale
2023
ocean
introd
metal
##itect
1940
developed
1954
pers
1930
ros
inh
jewish
names
1955
pie
1941
1952
centre
bang
1939
##lete
box
polish
##ellow
established
architect
object
##bers
56
##eder
##ube
settlements
luc
psy
pot
representatives
week
islam
observ
##igan
##isl
eight
plants
broadcast
bern
aver
counties
ukra
##gb
soft
1936
cann
##ross
irish
keep
says
1944
##com
scottish
tar
1934
appro
##ither
done
transl
pictures
colon
qual
37
##ting
nar
past
##abit
##iest
theat
##ola
georgia
transport
kent
##32
considered
premier
corn
##agon
becomes
##gg
above
##14
##ova
cra
hurricane
##ference
channel
##ints
iii
##zo
dark
manager
mayor
##ym
fort
##ared
##get
bass
able
psych
proper
##aker
eos
ground
study
bat
##da
minist
na
1938
position
##itan
tree
##ification
##lor
1933
highest
secretary
##vin
kr
wild
studied
covid
travel
##anger
medic
friends
##acy
various
##ondiss
release
##ylv
##akala
##iple
magaz
1929
gard
##ental
arrondiss
##elling
fox
pian
text
murder
chemical
##ih
hospital
##91
##92
##roy
jim
##93
haleakala
incre
chair
178
priv
bridge
glob
give
##ua
##aria
advent
cart
decl
1990s
parish
##vir
winter
##umn
currently
1953
##itor
pay
canton
1943
34
mater
##car
##ylvania
joseph
latin
silla
leon
rain
##etts
rank
temper
##la
##ider
symb
wars
##achus
goal
som
##read
##self
##vers
1935
##ashi
pas
##eds
##uh
1937
golden
here
##over
review
##ella
##ston
fly
fifa
heavy
##ination
##uced
1931
performan
##utes
vot
citiz
##unch
requ
##ko
stan
himself
dar
bob
aud
jr
burn
biography
territory
revolution
##ately
lie
champion
relations
il
1928
massachus
retired
##sel
##ologist
scotland
stra
massachusetts
ven
##34
disney
penns
##94
fourth
move
edward
doc
##men
electric
least
month
libr
might
##ought
results
ko
##osaur
writing
1932
sir
your
lik
fiction
500
artists
jean
##oint
##ards
fac
##ouri
meas
crick
pac
##ils
reb
lord
pennsylvania
silver
wales
korean
cause
##ishop
liber
professor
##used
87
male
haw
ul
##aff
originally
ended
##any
##stein
native
successful
drug
senate
fig
##ucle
eat
conserv
opened
##aka
jackson
sort
average
carl
prin
material
complet
mexican
fore
climate
ren
ident
cycl
railway
journalist
wat
cou
nations
case
1926
catalina
amb
micro
recorded
fc
across
sav
##oo
cell
19th
medical
react
missouri
certain
protect
1980s
korea
##li
exist
mah
drum
anton
57
##ette
cer
##ira
##zech
bow
ww
recogn
arts
##reg
close
students
deg
##ees
##mar
css
ray
conduct
nucle
##bour
nominated
##ently
rivers
1927
##king
08
meet
aff
assemb
czech
entertainment
##cially
58
##tar
##ulf
mainly
##aign
cele
always
opera
asian
castle
##urs
takes
adult
##dy
valley
##ales
##owa
districts
##utive
presidential
services
leaders
##azz
05
##ios
previous
##band
beat
commit
either
brand
od
##less
failure
mountains
performed
dom
shr
stad
##erb
envir
inside
##iev
plat
months
dynast
dre
roles
gas
##osh
##apt
##ques
circ
festival
##itive
##ending
numbers
cub
schools
ban
mir
environ
minor
##hol
1925
candid
fle
dance
crash
capt
programm
##face
##eld
cab
oppos
06
hop
hind
##mark
princ
fut
theory
maria
##abeth
gradu
villages
##ression
ran
bron
##ense
cas
tax
##ias
##ively
##kh
kind
page
##elle
##ji
background
espe
sequ
changes
campaign
gal
amount
something
##ably
doctor
hus
astron
sister
debut
pract
systems
peace
magn
nav
outside
wr
97
##oke
##ole
ut
seats
ken
goes
##oul
77
##uf
origin
fame
tourn
##ores
invest
institute
helped
honor
especially
bon
fair
viet
##gl
foreign
range
wid
inj
structures
nobel
kin
pu
##ends
shown
che
aircraft
windows
danc
##reme
method
atlantic
magazine
branch
##off
idea
##iles
destroy
##ites
##play
going
painter
ash
##bur
##stand
##ivid
programs
##igr
birds
religious
iowa
##kyo
domin
##orf
market
episodes
log
further
1970s
michigan
vice
border
signed
roll
##yd
stone
pope
reached
cd
square
rout
replaced
rod
1924
##owers
newsp
newspap
electron
constr
##oh
bomb
##agn
##rey
legisl
din
pil
serie
sax
independence
tun
1922
britain
competed
technology
##shire
singles
historical
rome
speed
interest
abb
##win
##ume
1923
assembly
##ati
seasons
enough
2000s
concer
environment
##heim
columbia
orch
##aki
size
stay
imm
bh
tokyo
##urt
musl
poland
added
##anda
dynasty
##66
individ
##uments
laws
pred
arrest
esc
bav
lem
jac
naz
prob
officer
##va
internet
duke
moon
spir
organization
decided
##ensive
##outh
##idence
founder
##cel
goals
kil
gramm
hous
hyd
nord
agre
armen
returned
celebr
##gn
vietn
##use
mess
regular
##ization
##ipl
##oto
ron
features
##col
##aged
##ropol
invent
inse
shoot
lay
##edia
parents
animal
championships
commer
soon
##aska
##str
date
1960s
individual
wwe
our
1920
ach
library
2010s
killing
##pr
philipp
stories
ts
1900
launch
committe
67
##inian
stadium
master
bell
barb
possible
minnes
##lah
points
critic
##ads
allowed
##ateg
##iated
tam
executive
minnesota
alexander
##the
upper
miles
##empt
genus
##bach
oil
conc
##airs
cannot
##yan
##chester
ak
eun
##hire
##ora
flag
cut
northwest
louisiana
autom
cover
activist
saw
theatre
charl
##icular
code
wa
##iller
ram
syn
##ex
interview
yellow
##adel
performance
contr
bands
165
matches
##wan
egg
##ria
##ito
stations
##rd
shot
ic
bost
francisco
avail
humans
##ali
pacific
oldest
assist
##ois
##rick
##idae
##ips
fast
wel
##ila
soldiers
forms
winner
quick
longer
gian
commission
cook
##akh
steph
rule
gallery
except
175
princess
1921
pls
feel
htt
deput
##mont
##sen
jeff
divided
stock
47
150
beg
romantic
beginning
oklah
##can
##iences
standard
particip
eliz
##ights
jazz
oklahoma
cases
trade
##jo
##mann
smaller
##ply
ark
industr
##ros
##orial
studies
boston
neigh
lady
##hood
##aine
traditional
finished
berlin
kid
##ami
arth
religion
emer
chile
39
##ken
neg
source
step
true
##ades
famil
forest
metropol
##ased
lov
hero
cold
committee
lgb
joe
##ocks
lgbt
cry
##teen
rang
jon
##inson
##aya
##illy
##inn
awarded
fel
bund
literature
ris
aqu
length
bol
designed
discovered
private
swiss
economic
##well
##pa
available
nas
foc
johnson
##wh
bbc
1918
continued
online
albert
deep
anti
lawyer
command
dun
##agan
skin
ther
rog
ah
believed
##enced
citizens
vocals
fant
##ucky
appoint
##isions
##ential
collection
brain
software
beach
##lers
causes
starring
##inger
scr
sel
chemist
py
va
promot
iron
##umi
alab
tall
sources
introduced
rules
daniel
atlant
kings
table
##establish
someone
##writers
mob
orchest
higher
wik
##ounds
frogs
victoria
sud
ly
weap
92
pier
running
regions
jones
##endo
kong
##riage
kob
access
##rid
##urity
infect
job
##ift
ga
owned
##uten
alabama
##don
americans
91
justice
athlet
176
senator
future
disestablish
businesspeople
mario
ring
belgian
watch
swim
formula
nation
chap
abd
##selves
42
1st
##iting
captain
examples
##chan
labor
beaut
legal
jes
elst
surface
told
gets
uef
ess
self
##enna
accident
edition
businessman
nine
kim
##ustry
organizations
##lications
ministers
tournament
industry
contains
##war
myth
navy
bavaria
harry
bishop
1919
competition
commonly
pand
pit
##rich
sexual
believe
polic
elizabeth
##mas
mississ
##ela
particular
gett
described
usa
claim
##ladesh
bangladesh
quest
occup
medicine
uefa
lands
santa
##zy
##tim
attempt
happened
mcc
niger
##ippi
##aining
article
quar
racing
inhabit
##itted
lett
relationship
kir
active
arrondissement
##ving
##inary
sab
ways
fictional
affect
##lines
cells
themselves
motor
metropolitan
##inet
nuclear
spok
elections
##ran
##kn
##mond
140
directors
husband
tel
leading
selected
williams
distributed
ott
ontar
kentucky
ontario
fal
face
07
constitution
64
pra
spread
politics
hug
pick
indones
##och
von
larger
throughout
corpor
ord
##iced
belong
##tra
starting
tenness
planet
israeli
##asy
##onto
##enty
##ipe
desert
guard
cricket
bull
##ram
##ule
alph
##mir
subject
document
ky
nhl
freed
diffic
99
raised
tennessee
impro
letter
digital
anne
300
##inces
rat
gener
89
93
below
harv
tan
mississippi
41
base
difficult
##aven
acting
##phia
create
vote
suic
reading
nature
jane
girls
##eda
soccer
imper
nap
tried
grew
photograph
alf
turkey
##burgh
##ouch
security
azerb
##elled
belg
##ns
##elly
dor
##iction
cultural
norway
remov
swe
azerbai
feet
schol
brought
mosc
##iment
arthur
itself
fifth
lines
##lav
##aps
wide
marc
##inct
1917
156
##har
argentine
temperature
plann
##ingu
83
older
temple
kenn
philadel
las
sle
crim
spl
51
presidents
##upt
ot
www
##icks
ira
biggest
behav
astronom
slow
philadelphia
##anth
rose
##ters
altern
provinces
org
reported
wear
paraly
##85
orb
clubs
billboard
administrative
contest
##iving
print
##edy
bush
followed
bod
120
84
rot
block
cree
andrew
loire
tell
##bi
##oid
elev
spr
chris
behind
reason
addition
communic
producers
##kin
##eas
pho
bah
accept
baby
nik
multiple
enc
rub
##isa
hours
brook
veh
moscow
nic
officially
entire
kan
families
defeated
##gu
toronto
marriage
mand
##utions
1901
primary
indiana
machine
era
nint
conference
deputy
physic
81
disestablishments
ideas
lor
physics
##emic
staff
degree
##ho
chairman
sac
##cher
singap
mission
problem
marsh
passeng
##itage
soul
protest
tele
trump
eventually
##kins
evolution
films
scul
fund
##hib
stro
heat
inhabitants
wolf
##86
##uries
pul
poor
youth
singapore
##osph
unit
##ability
nintendo
ale
tay
turkish
ethn
thous
notable
adventure
82
snow
##ourg
categ
generally
thousand
##una
farm
vietnam
##rol
abs
hills
eag
andre
fav
##icted
palace
sky
paralymp
79
pad
basic
appointed
brothers
dipl
init
##amin
##ava
greece
budd
carbon
bronze
bird
contract
profile
##han
foundation
2nd
slov
needed
##itude
weather
deal
leave
greatest
rug
##wide
comedian
rio
airlines
terms
join
medalists
constitu
editor
economy
calais
express
##phy
##posed
##western
physical
##bury
saf
mamm
mechan
nep
belgium
taking
folk
whole
damage
composers
path
##loy
##liga
constant
suggest
##aga
##onsin
##rian
billion
foss
blues
holy
tony
sculpt
hem
han
quickly
##istic
mole
##nel
ago
cin
guitarist
heritage
khan
enem
##ghan
wisc
##ika
lew
##uese
element
##uses
portuguese
##uv
gab
ib
alt
wisconsin
gives
arkansas
400
regional
destroyed
49
##rison
runs
respons
##bridge
##osed
electr
gil
universe
43
rand
clear
surround
why
bott
1914
queens
jesus
supreme
##ikh
write
parties
norwe
complex
syd
44
##ients
philippines
##orpor
donald
normal
controll
argentina
newspaper
talk
lung
##ax
urban
driver
becoming
bundes
wing
cham
dream
##iac
rhin
portugal
northeast
kept
##ilities
fu
hong
hund
charts
cos
draw
hungarian
mathematician
##ologists
ukraine
hay
ped
##ening
probably
##back
islamic
scored
##acter
kal
##uation
resign
southwest
74
hair
norwegian
##uan
mike
philip
paper
borough
southeast
tai
rather
ye
##iot
##rem
jews
letters
##cks
asked
tag
sev
tas
anal
units
complete
monarch
cher
##her
tennis
engineering
judge
##mit
trees
dif
sin
teen
tells
grant
typ
##erve
km²
crown
nam
fantasy
finn
structure
grammy
fought
tower
alg
fighting
emb
unl
fat
##onne
try
thm
afghan
respect
dak
explor
boys
1912
horror
spoken
cust
legend
symbol
drop
serb
##ancy
godd
##onic
teacher
##iate
distance
thriller
orchestra
recording
ruled
liver
colomb
signif
##sa
shin
attacks
spirit
si
diam
upon
hundred
reign
administration
sydney
##ship
##ori
visit
##ready
orange
reviews
bos
wilson
pin
155
marie
1950s
croat
trial
wrestler
manchester
student
##real
section
bond
59
hu
suffer
simple
##88
involved
room
##head
72
finland
observatory
franch
route
danger
##icated
kam
##rie
covered
cars
calend
leaves
adop
offer
meters
hart
##reat
##iang
wee
stanley
bit
equal
matt
zh
critics
double
elements
jur
##encies
additional
begins
94
##ires
christmas
gang
##ayashi
110
diplom
##ences
lists
creek
##zh
moving
##unt
fred
training
iranian
71
rab
universities
und
confl
picture
twin
kat
already
poly
##ties
##enez
commercial
73
shap
52
ali
slav
steve
powerful
investig
stephen
pack
terror
getting
search
##vert
alpes
##uki
memorial
##ello
towards
turned
lit
princip
gay
dry
##ping
ka
kaz
frequ
chess
piano
gala
twenty
understand
appearance
positive
##utt
##sey
##sex
raj
earthqu
goddess
hip
##eman
##emon
loss
1916
survey
mixed
placed
earlier
inn
bed
##ogne
minutes
managers
##iption
##rence
johann
denmark
##oud
diss
mom
whose
spent
function
http
130
solo
representative
charge
cred
historian
freder
suicide
christoph
victor
oxford
carry
##last
elector
##een
##ctions
##ension
##ields
forced
eyes
figure
##uri
##izes
employ
taylor
troops
freedom
greater
stopped
lif
cel
listed
mis
walter
##neum
1913
illustr
69
lyr
##icut
generation
wheel
sund
programming
graph
morn
##hold
##rogen
54
sad
##known
##roit
reform
lemmon
bach
confir
dougl
sher
sciences
flu
1915
##aded
disord
##eck
greg
platform
nag
maryland
spin
##station
limited
##cest
lyn
featured
##orporated
liberal
iraq
1911
##uay
1910
##ls
##fall
volley
starts
instrument
subst
desp
gor
designated
hyg
fash
om
spee
weight
passed
workers
scientific
majority
flat
communist
pressure
connecticut
launched
pig
effects
separate
estim
ethnic
detroit
##ilton
piece
unknown
construction
tail
dakota
##attle
##alo
opt
##ceed
supported
vac
sites
lieuten
##omp
seg
galax
moh
ax
##cts
##ema
industrial
holly
significan
##ardo
conservative
quarter
kilomet
##iday
jam
##ez
vienna
classical
contrib
1908
falls
candidate
global
eggs
##ados
hungary
apart
kl
##oka
nearly
chall
ow
affairs
calendar
##ising
plot
manuf
note
sleep
ern
mobile
worldwide
##55
04
ariz
historic
manufact
kur
kinds
concert
houses
pneum
starred
kobayashi
ukrainian
exc
draft
meant
screenwriter
assistant
agric
egyptian
##chen
sail
colorado
financ
lawrence
bag
dj
cathed
imperial
sid
bundesliga
status
concept
##water
commander
bring
romania
lux
treaty
ambass
nepal
vas
weeks
dies
flood
arizona
products
fashion
fell
mp
communities
activists
cartoon
##ws
##vi
account
merged
horn
##ellig
junior
eld
##ili
highway
##worth
##more
lincol
azerbaijan
shape
represented
manip
160
finally
headqu
weapons
pandemic
##onian
dail
lincoln
touch
lyrics
deter
playstation
comics
mut
##dam
bacter
resist
lawyers
##igen
volleyball
progress
thing
chemistry
chamber
lieutenant
##arm
douglas
comic
##ables
bright
brian
##weight
conqu
tran
hotel
18th
agricult
ford
##bourne
##79
##ammad
closed
##aled
depression
mi
##aro
ancest
plane
subur
versions
rugby
hans
##atures
acid
##oper
bulgar
taiwan
##sk
feature
store
formerly
antonio
oak
conflict
bib
bear
merc
aer
nickn
operation
##isation
intellig
cav
##ebec
philosopher
##ras
clin
##anna
hear
##uy
models
younger
##iance
kon
170
muslim
jord
kash
aust
j1
simply
composed
##ify
##aux
showed
pron
rapid
mythology
coun
##71
recent
liga
##inals
##wr
thin
##ista
##usion
63
3rd
tradition
##tic
weak
federation
##rad
##izumi
location
eye
01
##ci
##65
stroke
alumn
morning
solar
trains
##arters
appl
insp
doll
score
cool
opp
##ione
##ugg
fill
##oe
##ially
personality
##anz
danish
powers
##astic
gods
dv
ans
lad
ships
##box
pneumonia
ross
quebec
sang
steel
dur
##mo
drink
listing
dim
clar
etc
corporation
dub
168
pieces
mind
02
##iva
label
vocal
garden
ele
mort
##esc
compounds
##enge
measure
management
pic
##key
ry
##74
##iba
mol
##change
articles
electronic
physicist
brad
ful
lewis
##ni
image
scientist
##iden
sv
##hs
##itation
doing
adam
125
oizumi
lith
##athan
##iform
inte
##stone
venez
ay
hour
sha
exhib
capit
dal
##house
##upp
apple
##73
##ises
marine
arms
maine
completed
ends
suff
extra
montreal
horse
buddh
disp
previously
alumni
gi
##down
wins
mathematics
mu
##pson
architecture
##regon
53
yout
actually
labour
universal
likely
pok
madrid
treatment
yam
neighbor
gord
associated
##elli
split
##asters
dc
complications
03
##sky
academic
clark
fern
##osis
crew
daily
issues
vs
senior
zone
##chi
oregon
patrick
##esis
##soft
detail
evidence
animation
comment
gray
salt
creation
ny
##wick
prec
scor
##itting
specific
hou
##din
21st
appears
conditions
widely
removed
rud
maur
nearby
##ager
1909
happen
jenn
glass
objects
cass
mps
##olas
##osen
archae
##asion
1907
arn
victory
hawai
##iful
##ele
##xim
welsh
pierre
62
produce
clev
drugs
hindu
nfl
mars
ton
remains
defense
beng
##ills
##cycl
sri
##ysis
liqu
afghanistan
##works
##eastern
muh
divor
discovery
influence
speech
##orter
reve
ais
via
winds
governors
samp
cm
anthony
wave
##wal
##zen
##under
twice
eagle
warner
copies
##len
jump
kw
##bre
##edd
finish
strength
philosophy
taught
threat
referred
alan
##oca
solid
journalists
kennedy
serving
property
##inated
belief
##bed
christopher
sequel
kelly
prevent
simon
##oli
cow
remix
##iques
pir
fried
sixth
bros
defin
learn
1905
microsoft
##ui
shah
bot
confeder
pink
emerg
whether
despite
##fort
buried
nich
flows
##zburg
ones
anna
barcel
milan
alphab
##68
##pose
vel
fruit
attract
##ray
raw
alco
##gers
operating
lic
resour
painting
ivan
pilot
polo
category
rate
##erto
alexand
regard
policy
malays
bruce
confirmed
missing
ranked
hang
guide
##lets
discography
cleveland
file
1906
titles
entered
fix
##ingen
drive
145
jordan
lam
flow
numer
##rane
therefore
controvers
hamp
atom
needs
tamil
vlad
##rig
walt
vik
##jab
comune
practice
dragon
volume
##ares
scale
opening
cathedral
palest
finnish
##pected
bak
giving
activities
##iny
matth
oxy
alfred
guy
09
##iat
cambridge
nom
automob
##eding
significant
au
jay
##zz
lock
olympians
graduated
bought
##pp
##met
grass
dia
semi
bodies
##onse
coal
shrine
mm
##cha
reference
emmy
dall
hell
assass
armenian
juan
subs
wy
laur
##nie
cha
aired
matter
push
illness
barcelona
evil
voiced
diagn
mammals
bible
catch
dat
mention
##ante
doct
sides
punk
chosen
trying
##onde
##arus
colour
venezuel
##book
##porary
agency
prepar
ded
##val
##olis
poetry
sain
colleges
indonesia
femin
persian
nazi
gene
attacked
##light
##ration
##tha
priest
karl
##lyn
##je
##ety
howard
bene
tol
coming
voices
athlete
surg
paintings
owner
allows
brun
really
##orney
studios
financial
dro
##hr
##onder
consist
speaking
##ledge
contain
happens
physician
keyboard
transit
clo
silent
ker
levels
billy
##fc
buff
guine
alaska
bound
##mers
1903
##do
##feld
135
rapper
globe
dol
gon
##enh
beautiful
wit
helps
paralympics
easily
davis
arrested
fear
lev
##iko
knight
finals
restaur
fra
##oslav
prix
allen
conductor
ip
rid
##iology
transfer
pitts
earthquake
jess
approxim
declared
bey
saying
pitch
reasons
##tery
overall
##wart
veget
61
siding
rober
ward
hers
##otte
##ception
penins
##oster
trav
oxygen
covers
##ando
##ensity
tracks
##ographical
attorney
##ivity
roger
instruments
utah
##udi
songwriters
refers
plate
eric
height
theme
unc
##no
salv
drums
orle
sao
libert
maxim
sons
##ucks
wants
##iop
headquarters
motion
dinosaur
##abad
##kshire
ronald
sed
##ulation
##state
cloth
authority
giant
tu
sugar
wings
criminal
bun
4th
toy
adams
recip
earned
##inth
electoral
##iya
trust
maps
lank
thus
##imir
course
##put
column
##olved
crow
ages
economics
recognized
alternative
orleans
vert
##yth
academics
defeat
##pton
direction
consists
easy
legs
agent
diet
myst
arrang
franklin
centuries
sched
brid
bio
strip
##isms
##fish
longest
yet
acts
officers
impact
else
images
growing
magic
spect
1904
votes
bure
connected
esp
shop
materials
puerto
hits
guest
theor
margar
remained
happy
##ayer
soldier
##cules
youtube
sr
captured
sell
##aver
##phone
vinc
##lan
orient
exact
edge
alphabet
baltim
leaving
detect
##iti
races
illeg
##rel
alone
variety
hands
memory
##town
dh
##rupt
controlled
explos
kevin
158
dna
##oration
bart
walk
punjab
jimmy
bry
supporting
rein
convention
##sc
sweet
##anced
hamilton
baltimore
tat
virt
##idel
aisne
gulf
computers
sympt
##where
trip
poets
##onent
serious
habit
fresh
um
symbols
##pool
oblast
##di
churches
colors
squad
melbourne
houston
##leman
quant
domest
##die
##imb
cape
protection
socialist
iceland
whit
percent
##anny
600
metro
dick
##tv
address
responsible
##cyclop
unlike
hampshire
sie
issue
##cano
##bro
condition
growth
normally
burg
experience
dogs
rural
##gas
##eless
mouth
pav
rick
nebr
singing
##uff
facult
##ao
miller
romanian
nebraska
##nia
metres
fields
sor
sod
ski
raf
anat
ober
##onstr
users
exchange
planned
send
serge
poems
looks
herb
indic
perman
bou
##ti
##usal
1930s
##lov
directly
paid
##eline
harris
diseases
flying
atlanta
##oshi
1902
violin
dancer
duch
buy
lakes
##oa
##time
encyclop
ecu
sah
##ido
param
bottom
kit
quite
##ester
800
forward
borders
passengers
poll
128
southwestern
1800
clean
##hatt
eleven
##road
reagan
##oro
##eing
succeed
hosted
eff
torn
concent
designer
nev
purpose
adopted
gordon
script
ss
bath
personnel
##ocol
yug
##enne
males
mong
17th
##arily
shir
correct
classification
holds
frederick
vit
broke
arrondissements
agreement
cord
pow
##dorf
colony
couple
bann
household
nel
calcul
dallas
pittsburgh
16th
armed
shooting
everyone
cuba
selling
##mouth
provide
renamed
naval
johnny
enemy
switch
lion
##rap
tries
content
calv
cum
departement
completely
ku
hex
display
##ucted
environmental
device
safety
ign
rise
underground
satell
share
meeting
managed
occurr
females
amaz
sense
tribut
banks
engines
resc
discuss
ens
circle
territories
novels
extended
phoen
hiro
##enburg
behavior
grey
attended
ministry
rare
alger
##adesh
##agen
annual
hugh
parks
##thodox
intelligence
looking
peninsula
##rh
whom
arabic
worth
prisoners
claimed
##ault
##ifer
##otes
arc
jerry
rangers
hollywood
##roll
treas
wrong
##wich
price
ability
sounds
muslims
vent
activity
featuring
##gal
decision
##omm
uncle
guinea
miam
appearances
faith
diego
##wald
##enz
debuts
floor
documentary
##iano
##eva
negative
dangerous
ecuador
focus
playwr
gers
runner
wrestlers
carn
##asc
148
fab
miami
pull
warm
worship
carried
cris
cardinal
bacteria
5th
aviation
pattern
everything
jacob
desc
response
properties
orthodox
distribution
escape
save
neut
cooper
question
increased
immigr
dvd
alliance
historians
forests
grav
invasion
##ibility
##ographic
hyp
partner
description
stated
clay
##aceous
sick
ghost
insee
pleas
wag
comedians
approach
install
expand
repe
##aph
kills
zo
##uces
plans
operations
crimes
learning
circuit
kra
pays
##asing
##olo
vladimir
theater
flower
somme
nak
organized
knowledge
vic
carib
reprod
violence
bes
muhammad
symptoms
kids
speaker
lav
shel
##sequ
birthday
carlos
remember
138
cabinet
diamond
pear
trin
brief
interact
invented
mit
hid
mans
biology
reality
peters
##osphere
nba
carter
warri
##cia
1940s
ambassador
datab
##ogy
fans
##ogen
luxemb
##iber
##uits
increase
concern
samuel
pianist
favor
principal
126
autonom
##hattan
1899
defend
constituency
galaxy
dave
twel
serve
matthew
##kov
fan
##iph
hat
wonder
thousands
bureau
700
aar
##rier
pel
scene
munich
russell
entry
buck
1895
novelist
alcohol
fuel
ll
sales
colombia
##cht
##uma
stream
reaction
##igg
##isters
chain
elim
##tered
combined
c2
hors
user
##mund
chrom
leaf
bigger
roads
straight
singh
rocks
##bean
##usalem
sul
acqu
rene
##ilia
compared
bour
core
gib
##uguay
##achi
##ailand
extrem
jerusalem
mick
lack
recently
milk
imag
failed
ted
nash
##enue
##emen
116
##iley
moore
breath
wikip
##kar
norman
classic
debuted
faculty
##illes
peru
titled
waters
wien
diale
monte
christians
custom
manhattan
uns
##uda
##sec
pakistani
margaret
lasted
electricity
uruguay
analysis
tib
##mission
##abe
146
describe
yugoslav
##bl
##emia
retire
sty
##izing
moroc
calvados
cryst
jama
hawaii
##esar
dir
hur
##angel
contact
ballet
yor
##ighth
##aho
ottoman
rif
gran
archb
opposition
twelve
##omy
moves
synd
##ctic
##atherine
liquid
hp
tob
##utional
volcano
pp
heb
107
##atsu
translated
##po
hunt
phill
1896
ordered
rice
follows
videos
##eries
teaching
##sters
costa
zoo
##rat
thailand
holland
flowers
##holm
gy
fuk
officials
gam
earliest
huge
lots
wol
slavery
gained
perfect
alice
##eme
pret
250
equip
resources
bapt
genetic
purple
##anthrop
effort
##rell
percy
agreed
nigeria
##aware
divisions
tribes
choice
chanc
##asa
seventh
honours
##hel
emergency
rhyth
eug
##rene
dates
sure
dress
anything
aster
fro
michel
throne
atm
cret
literary
achiev
mental
##eg
commonwe
coc
scar
door
provided
##ontin
harvard
rav
jar
nothing
counter
##unk
chlor
boeing
griff
commonwealth
##oku
baron
ft
##ders
##div
##racy
romance
cycle
journey
neck
salzburg
ruler
attention
1893
learned
liked
caribbean
adapt
methods
##stad
indigen
sarah
##atively
creating
saxony
filip
virus
inspired
##iki
adventures
charlie
##ferences
influenced
jefferson
vehicles
belarus
nit
identity
molec
settlement
equipment
technical
gamb
advis
normand
injured
manipur
thick
thunder
extinct
##incorporated
robinson
synth
jobs
tribe
applied
immed
determ
kiss
continue
cu
cem
unincorporated
estimated
benj
nut
scen
reserv
gef
quality
kashmir
shad
leban
patri
indigenous
##enos
##cles
broken
trail
highly
presented
township
oliver
rush
rena
##dale
visual
##mingham
rough
barry
1898
difference
bin
lud
##eno
flash
doub
##xual
armenia
sess
##haw
kath
tab
butter
corps
continu
executed
birmingham
density
##wall
##sl
136
stayed
accepted
demand
dy
jason
1890
productions
fleet
acted
joint
genre
opposite
og
mitch
##tm
phoenix
##stan
ending
congressional
shaped
##aling
##alle
meat
clothing
domestic
ja
##fri
##zer
##cla
shortly
revolutionary
shim
secondary
walls
hydrogen
tools
##osa
meg
florence
##rees
medals
wayne
montana
screenwriters
cbs
##eh
proposed
illegal
sult
##born
emot
incumb
legislative
pont
plus
hydro
ryan
disapp
resistance
lies
##ogle
mentioned
##asia
strik
christianity
nomination
sunday
##usc
explorer
lanc
##assic
poison
coron
brooklyn
nbc
stev
edit
1897
hunter
meite
rou
##oni
contem
queensland
victims
harm
nelson
gender
hope
troub
scholars
soph
##opp
indo
##oba
income
malaysia
cad
kaw
anime
##char
gust
infant
chancell
mig
ni
##illo
boat
surn
1920s
benjamin
incumbent
6th
yok
##via
presid
syl
barbara
disorder
sens
##bing
items
audio
sas
interp
guns
required
cretaceous
##ffe
ethiop
##atar
fossil
surgery
mist
remain
symph
insects
scholar
benn
delaware
bernard
idaho
saudi
register
osaka
dominican
cous
link
battles
##ering
##ogue
##ographer
wikipedia
##56
conver
economist
satur
clinton
zero
nickel
##heimer
##uins
heaven
teeth
##riel
advert
syria
string
punish
heard
typically
boss
##ouver
mrs
broadcasting
affected
##stre
slaves
tunis
##ente
withd
##apolis
filmography
adults
promoted
shared
diplomat
panc
agriculture
gate
##ears
##ods
movements
tourism
personalities
meitei
900
presenter
mouse
##adi
actions
witch
##father
electrical
codes
##jar
##osaurus
##oir
consum
philanthrop
1892
berg
camer
colonial
franchise
pale
##mitted
orbit
resigned
unique
didn
wur
google
defined
particularly
migr
##ourt
revol
trophy
cantons
ig
positions
database
pione
##hard
moment
vanc
##rim
##akia
denn
##ging
##iven
lan
risk
##wig
##rome
ell
##58
sword
##aza
suffolk
ble
murr
##cott
massac
wright
cot
fine
peng
1000
ian
##bul
##ovich
spider
##eller
partners
pip
amend
visn
napole
bibli
doctors
##oda
continental
grace
neighborhood
luxembourg
lingu
##yt
conn
walker
rum
susp
candidates
166
luther
critical
kum
charlotte
bald
heavyweight
benef
tong
##igo
alive
formation
represents
pregn
provinc
archive
mediter
paulo
functions
vancouver
gary
##thal
ov
##urer
essex
visnjan
##ffff
standing
surviv
frances
separated
##ranean
##opes
##clus
residents
##obi
vermont
photos
transportation
xbox
##iations
admir
slave
accomp
oz
##wers
##lem
flav
vehicle
lap
defence
cere
7th
integr
dedicated
ri
##mun
pruss
abc
1894
1889
archbishop
arena
heads
1861
nikol
##izu
nasa
ist
occurs
performing
yeung
austin
##esco
morgan
planets
replac
13th
fit
mall
stor
chilean
approximately
noted
##owski
beauty
cosm
##long
seattle
classes
publishing
sard
##nik
doubs
marshall
gabriel
kos
provides
alongside
eating
appe
prel
roberts
aw
fellow
mack
sets
safe
##inia
advanced
rhythm
##anne
##itis
reserve
revealed
monster
attach
transform
luis
hurt
phr
104
##ausen
departments
compil
composition
onto
joy
slight
ech
##etime
senators
oscar
##ieval
ich
hein
aires
abra
dram
medium
hyper
experim
intel
##bir
preserv
##omot
##agues
require
crashes
mediterranean
stewart
360
##ivals
grown
wet
##enberg
##ivia
showing
gym
##uka
ain
##mat
tod
##amo
chance
operated
1888
drummer
chick
permanent
communication
divorced
spy
traffic
target
pair
spot
1891
cricketer
buffalo
alz
##emony
##ielder
sulf
##ichi
phone
devices
rear
painted
jacques
hir
infection
hend
##imed
croatia
marvel
painters
##caster
##isch
sultan
##kir
calls
changing
athletics
cats
##pur
dean
soil
hebrew
presidency
kang
tir
stick
12th
convicted
15th
drivers
ultim
coup
suffered
dod
##arians
founding
buenos
gironde
stein
suz
baker
tox
leadership
overs
alle
brig
cemet
mystery
finds
steam
occur
bones
gone
marin
warren
##othy
reflect
automobiles
arrived
##aco
medieval
signs
diagnosed
hud
##mi
blind
breast
youngest
factory
cemetery
gur
mck
sung
##olia
worst
causing
visited
kick
tang
##eto
prior
blo
owners
feed
serial
poem
treated
##iji
vincent
##orus
##uto
##erne
venezuela
hab
##iders
pradesh
turns
retirement
sak
##anic
anch
isa
buch
ceremony
kap
elder
moz
##load
rhone
translation
individuals
heav
seem
nevada
##ensis
temp
competitions
maintain
fully
neuro
liverpool
herself
bog
##lication
newspapers
lanka
radiation
springs
occas
orders
numerous
##con
theod
robin
crisis
particles
##etti
remaining
autonomous
##inate
##uster
159
larry
haz
martial
participated
photographer
liz
##page
pokemon
satellite
##rov
campus
haute
homes
divers
lis
pent
chand
##eston
knights
10th
educational
rebell
prop
chron
##room
##roph
jag
##alty
behavi
crop
protected
serbian
##aj
##bell
##ache
zur
##joy
stores
plain
##bit
educators
gol
seb
##rain
##8072
damaged
sisters
abol
batman
dancing
stockholm
provincial
##rus
pole
jung
##aug
##hu
adap
diction
##rev
guilt
##ifying
##aceae
inventor
sculptor
por
alp
views
degrees
tibet
##oming
##uman
##athers
compar
subdiv
pyren
8th
scand
mayors
1887
hond
sacr
mul
mate
##life
##berto
democracy
sloven
faster
waves
pyrenees
102
coastal
murray
josh
stu
##amese
##berry
necess
fa8072
croatian
c2ffff
ade
amph
baden
copper
1885
hitler
audience
contemporary
j2
##ibly
seconds
gather
##mes
firm
filipino
##ea
fishing
narr
figures
dish
##mel
engineers
mine
mik
##hen
issued
felt
serbia
clothes
ral
##wise
##umes
depending
holiday
beyond
shall
peop
graham
saturn
statist
colonies
narrow
drag
educator
##onym
extreme
collab
opin
useful
achie
coord
##low
11th
abraham
##nij
##ju
##rah
knew
disab
goth
##cript
1865
styles
chancellor
cod
sic
tap
##sch
##enson
gain
##kes
##erc
##ovic
nauch
supply
mail
##issance
guer
respir
challeng
subt
bobby
fossils
none
nose
purch
##eta
canal
prey
situation
carp
occurred
##ocard
tourist
mond
chose
afc
minute
outer
smart
killer
peoples
bil
##bar
childhood
epic
bulgaria
encyclopedia
lil
##iere
##inum
##iable
##phal
governments
protests
voted
##otic
103
strugg
rgb
##ternal
steven
constitutional
combat
indonesian
nauchnij
##orph
internal
occupied
committed
choose
therm
saints
yorkshire
looked
cuban
hav
rach
wish
##omon
descent
settled
##igi
boris
chern
shark
atoms
14th
duck
rah
1880
holding
tornado
gross
ms
newton
provence
replace
machines
closely
anthem
anthrop
pere
##rum
marry
format
hole
naturalized
##standing
selena
maz
vin
thompson
jonathan
kab
lose
##organ
meets
##friend
##fa
1863
superh
talking
htm
entr
pied
##iago
##cop
till
perry
avoid
rhine
madison
limit
swimming
rib
weigh
selection
hub
##kan
##agh
veter
marit
1883
consider
arabia
coffe
arnold
114
wine
capac
easier
hunting
bibliography
bone
hann
##gio
##yo
shell
playwright
unus
triple
##etta
reception
##aku
goods
reports
##gom
knock
vision
##net
tok
##isha
cloud
democrat
horiz
##ei
##ibr
anyone
##aca
infar
julian
passenger
bug
lamb
finance
guitarists
layer
succeeded
##e0
##uls
kilometers
lig
mud
portray
mathematical
infarction
multi
pronounced
lag
sag
courts
bowl
nicholas
maced
##rep
##levic
deliver
##encer
##orrow
estate
##zi
supposed
involving
murdered
severe
leo
locomot
delhi
speakers
alzheimer
branches
message
##vo
##ously
nest
reject
rit
##lie
##aging
1864
weekly
passes
honour
distinct
##oxide
magnetic
forb
emir
claims
tend
##akers
tea
bom
manga
expected
truth
soap
myocard
parishes
ric
resident
breed
korlevic
potential
1881
1882
pupp
stef
cote
##ivan
pc
tort
##ivore
angl
1886
projects
vul
##vision
links
joan
cru
angry
photo
sharp
thor
##aba
tehs
railroad
##helm
gent
kle
serves
values
rocket
foods
soundtra
experiment
elementary
mercury
mikh
##vis
##gie
101
boh
demonstr
1860
nigerian
aur
iw
##yer
##iant
amster
termin
##oker
apoll
regul
cable
len
lomb
tiss
##asaki
blog
receive
cards
rolling
##donald
inner
heidel
gymn
##maker
##bal
disaster
endings
describes
investigation
1870
ferr
hundreds
lenn
heidelberg
##iri
##oven
lind
upd
##bria
signal
daught
1868
beatles
surrounded
offered
diab
##asm
roots
1873
broadway
kun
valent
escap
amsterdam
myocardial
wii
louise
advance
bridges
amendment
lisa
tank
##etes
compound
persons
1862
astronomer
wo
##burn
tiger
##etics
chat
spons
##oki
1879
mixt
https
spiritual
lt
tig
stal
breaking
planning
##ru
##antine
trap
##eeper
stands
capture
##orig
obtain
gardens
confederate
danny
##uchi
talent
agree
115
cort
##idi
camps
psychology
differences
physiology
compete
slowly
ud
wound
wedd
##onents
playoff
agn
##anes
biographical
slightly
cs
##anian
inch
chel
##ulu
palm
interested
##omi
fired
recordings
representing
adapted
##furt
paralle
##resp
##iens
nee
eddie
suit
popularity
mickey
bert
##ario
obama
##gau
##amoto
index
exped
refused
athletes
eleph
1884
bengal
daughters
conservation
tip
##lon
aborig
fighter
promin
nominations
finding
columbus
basis
organic
performances
##oty
ask
parker
hamburg
kidney
pod
byz
partly
decide
containing
guilty
catherine
tast
##omes
##istol
harrison
accused
montgom
napoleon
suppl
survived
eaten
dennis
nur
##rix
enjoy
outstanding
cn
sib
##omer
wealth
announ
organisms
grande
celebrated
nem
leop
throw
annivers
portra
hirosh
rapp
networks
extremely
##ublin
1871
##imp
arsen
##aws
distingu
housing
lect
edin
##lington
honey
cyclone
circum
eighth
jin
ingr
haut
##gra
1848
southeastern
survive
industries
cousin
tick
grad
organisation
paramount
saturday
rar
tri
trained
superhero
dict
sig
##iately
losing
essay
##thy
##elor
allies
harold
existed
dust
tet
prague
smallest
1875
montgomery
gill
autobi
sudden
suggested
strike
mete
wilhelm
introduction
##iformes
immediately
3d
##oly
morocco
aid
nan
marks
formal
thinking
inher
franz
##oga
105
judges
connection
channels
plastic
thirty
citizen
kyoto
dropped
details
##seud
nova
depend
mode
monkey
santiago
surrounding
rico
1867
stuart
xing
##fielder
shakes
##ipped
anniversary
jup
boxer
trouble
jav
##akov
charged
concerts
kazakh
##boy
turin
athens
abbey
##prise
enemies
yonne
turt
injury
weapon
ds
eis
hob
canc
restr
evening
teachers
definition
ready
sentenced
ceo
caught
rodrig
molecules
rating
yu
triang
allied
amy
1857
dwar
proph
##ierra
keith
golf
109
117
creator
thirteen
filled
mend
rival
wire
ki
luke
andy
leagues
##ebra
clock
appar
sequence
maurice
beliefs
surname
sovere
pedro
dinosaurs
##izz
eurovision
files
corresp
murders
encour
##ocaust
sovereign
vend
enfor
applications
burns
printed
cinema
##igny
cardiac
terrorist
ernest
##ader
decre
##erty
exactly
correspond
pseud
britt
helen
curt
descend
mitchell
kay
##pre
##arn
landsc
otto
atomic
9th
##rin
##gov
bears
ard
holocaust
declar
initially
friedrich
massacre
sony
seeds
belt
1869
exhibition
bourg
rider
uss
##fully
basin
destr
voting
edinburgh
##lee
184
scap
profit
solution
mikhail
737
cock
##esa
##agne
shang
pros
hamm
ug
##chem
111
shinto
coffee
cinc
##uil
##cal
geomet
##poses
dictionary
850
bub
herbert
1878
1872
electrons
progressive
pancre
overview
leads
aleks
challenge
concentration
ralph
##sburg
basil
rescue
bish
ost
gren
refug
symphony
sap
##set
interior
spong
lane
mant
expensive
bened
opponent
stones
tommy
wallace
##pear
neil
schedul
statistical
lob
sop
assault
simpl
constell
ferdin
capitol
virtual
mini
nickname
petersburg
##vent
##sea
##text
airpl
rocky
hugo
jupiter
1877
tales
romans
tests
convers
suburb
comte
minim
##asha
backing
situ
##stream
##bow
perc
advant
possess
##roid
commons
127
aquit
gosp
112
cream
raymond
laboratory
atmosphere
geneva
terry
shrines
honorary
tube
##gi
##geon
altitude
gn
jet
pure
actual
decor
interstate
hammer
porn
importance
cultures
urs
swimmer
##hawks
piedmont
nerv
##81
marked
francois
streets
##fficient
abuse
volcan
grandm
garcia
questions
shakespear
bic
stages
##opter
2020s
adj
religions
tin
walking
1876
fisher
leonard
##bus
chal
linux
darwin
lun
ple
##rot
shore
##uez
##ieties
##portun
fib
asp
##agi
maximum
##idad
arist
##ption
coat
calc
museums
##borough
capitals
apollo
eb
##fare
##oned
182
lah
opportun
aquitaine
pi
resort
offices
loy
doesn
documents
cec
ein
lac
linked
operas
publisher
cyclist
jail
##urance
shock
##ithm
manuel
colonel
cincinn
klet
yang
##ateur
avenue
noble
interpret
mull
##enko
##ardy
sheep
##away
soundtrack
##fs
snake
motors
identified
##87
ala
perh
airline
jennifer
hed
kel
smok
patients
campbell
continues
kidn
bachelor
##break
respiratory
shakespeare
cincinnati
aub
kush
##64
##onna
answer
chocol
##raction
crist
##minster
claud
renaissance
##usa
##unes
##000
evans
retrie
hof
conducted
programme
wagner
sebast
perhaps
ridge
##ishi
##anni
loan
camera
rulers
rogers
dublin
nin
barn
cathol
novelists
stom
protestant
bosnia
disorders
fixed
friday
attend
skills
glas
sentence
respectively
focused
kurd
aude
reun
congo
parallel
xinglong
##82
##icia
anglo
biological
graduate
llo
##atra
##elia
##elles
121
voy
salvador
nashville
hut
vern
##89
isab
forg
##estyle
landing
parliamentary
abbrev
pup
##ality
indians
incident
devil
nazis
tub
vow
##imar
unesco
corner
belongs
kate
ps
root
papers
legislature
buddhist
zurich
lope
##fia
##oux
##olph
marath
primarily
nicknamed
yugoslavia
tamp
syrian
lloyd
##rec
##rac
potter
giants
chapter
iz
##84
##iring
sean
latter
jor
##83
charges
increasing
venice
northeastern
strange
krist
obit
temperatures
vietnamese
foster
sale
##gate
ing
##eton
merch
##come
##oons
thorn
abu
##velt
artific
talks
collins
tasman
meteor
##esse
relative
cypr
turner
kas
##apy
larg
bulgarian
regarded
nomine
##gow
181
cler
mining
commissioner
scenes
mold
##fast
cauc
ibn
catholics
cash
vess
##54
chase
##oslov
phase
sharks
crypt
gonz
##67
##ortion
massive
1859
collected
hack
mats
ues
##van
##63
##69
paras
##hips
##ucker
##ohama
commerce
##tr
##cious
##ingham
##aman
yokohama
grade
developing
antar
warsaw
pancreatic
chan
##fta
assign
##ionally
authorities
philosophers
restaurant
##wi
##mith
check
roose
unusual
dad
pine
##umin
177
reduced
violent
choir
##aments
##emberg
##tons
advoc
absor
horses
shadow
gw
ruth
##fam
runners
visitors
350
morris
craig
ml
broadcasters
yank
inaug
pep
usd
neighbour
communications
typical
wes
179
sussex
nu
##61
stret
##ieu
marx
czechoslov
feeling
lopez
##nell
##enders
angels
combination
heroes
ment
rey
147
skull
sitcom
false
subjects
improve
cave
reich
stress
statement
eliminated
eup
##rup
##62
phen
##neth
tomb
johannes
vacc
rebellion
forever
137
ottawa
lip
bread
statue
businesses
sudan
behaviour
roosevelt
##53
##fly
##ige
causs
paralympic
kg
nancy
deer
premiered
ranking
sind
thai
measured
recognition
sierra
laure
adding
denver
susan
kilometres
amp
bever
tributary
expedition
utt
plains
##ansk
falling
##ridge
arde
delta
mechanical
disappear
riv
helping
publications
toxic
dating
##hai
##51
franco
claude
pd
##tor
##57
119
incorporated
predators
syndrome
aleksand
gand
ride
unable
recov
oxid
random
bac
chate
farming
possibly
crystal
1874
factors
capacity
ferdinand
dos
##ovsky
dee
helic
##odeon
caesar
pon
##night
marg
rebu
existence
##greg
##illon
relatively
expans
camb
jurassic
gregory
nickelodeon
truck
ethiopia
cotton
angle
gilbert
bold
##aire
tool
vaud
botan
wyoming
stomach
dw
ion
mile
miy
##52
murphy
wurtt
hatch
##ete
chi
linda
superv
legacy
castile
entrep
amounts
fount
kol
##rik
##iling
##sole
wurttemberg
horm
##ahl
simpson
telesc
janeiro
giov
duchess
##ede
shut
residence
cruz
smo
mcm
copy
hudson
##gart
1850
roof
113
caussols
##oz
hisp
germans
##ifications
1866
banned
vamp
##bek
analy
aspect
studying
grandfather
hauts
liberation
##km
##place
returns
##amental
instrumental
nice
rus
tul
##fr
##erd
equation
uesac
dum
pray
moder
periods
instruct
baptist
##asi
corrupt
stronger
hidden
necessary
wiz
decade
holt
##stadt
todd
##bb
apost
##airo
athletic
bam
##anto
geoff
sacred
fluid
fung
pm
##uj
##oping
##enda
produces
passing
aboriginal
hide
wed
##uin
##atus
plac
hosts
pioneer
##ski
genes
northwestern
democrats
injuries
chapel
##fo
##manuel
resulted
##world
attached
##bn
##agre
villa
sanders
lebanon
releases
auto
derived
criminals
ladies
patt
seal
chemicals
entreprene
##inus
##ogo
##landers
blackhawks
classified
dynam
abdul
frequency
gast
##stit
bee
##abi
producing
defensive
rhode
minority
##gne
inches
##ilo
disasters
monument
characteristics
cricketers
font
masters
##isph
parag
129
##ahn
vegas
gif
nico
butler
eve
##ieres
surr
grows
expanded
withdra
lions
adolf
offers
brah
granted
admiral
chocolate
##erse
chest
asc
expos
picard
kre
kot
##ovo
empress
remove
portland
punishment
finger
##contin
exerc
##acher
duty
haiti
ballads
factor
sull
console
archer
texts
lightning
testament
##ining
parent
subsequ
ceremon
tallest
understanding
crowd
survivor
fi
pyr
beth
##estone
exclus
spacecraft
midfielder
bafta
hindi
brom
vor
##encia
1858
qualified
wwf
quantum
algeria
##iled
##uctive
summ
kirk
constituencies
sodium
##59
particle
parad
139
westminster
origins
parkinson
standards
burned
essential
hearing
palestinian
##woman
##hn
##issa
guild
consult
reduce
festivals
##ht
##roe
beij
cole
edu
##ologies
hurricanes
brooks
frequently
amazon
cattle
pill
driving
relationships
nort
uz
##amps
accur
patient
dame
eg
mast
##pm
funeral
budget
liberty
heir
application
infin
dialect
prominent
nadu
##arta
worn
myster
setting
successor
stops
##uzz
mg
##arin
##oust
167
amateur
purs
fairy
harvey
phrase
fitz
##uns
schm
##ails
purposes
franche
molecular
##xx
elli
cooking
alberta
rachel
techniques
institution
institutions
wedding
ardeche
##mad
beet
monaster
kenneth
habitat
isaac
aux
drew
fever
typh
valle
mixing
##rising
storage
nok
##itals
##rete
artificial
##icas
exam
prefer
henri
protein
chop
##ocese
tyrol
telephone
byzantine
jak
##keeper
##oko
gerald
writes
ports
ras
ya
##ding
##yll
proof
conson
presence
##osexual
bourgogne
biden
##cs
reactions
cheese
initial
illustrated
##jani
##unc
chore
mask
aber
yosh
##ictions
##atoes
##ymph
fernando
chad
##aking
pool
hog
sz
##pie
##ingo
isol
aband
##psons
oxide
ghana
jamaica
alpine
##enses
fourteen
##ipping
scheduled
rica
##uta
polar
evolved
infr
lifetime
##rine
##atem
##iolet
149
eugene
kurt
123
##insky
boxing
odd
rifle
declaration
beijing
sees
presenters
##keley
collections
burning
ahmed
agricultural
##ication
waste
compl
server
##rett
bullet
watson
occupation
algor
witness
##endorf
131
lowest
penalty
mechanics
largely
cp
lon
##du
##uve
##uras
volun
guardian
currency
effective
amphib
vast
carr
gameplay
richmond
friendly
mim
ninth
##enton
tyler
simpsons
controversial
coalition
hired
keral
vary
##gs
##folk
##elin
rept
spoke
organis
berkeley
closer
wearing
mann
##itarian
ordinary
rings
tale
theolog
allowing
steps
farmers
ninet
wick
##point
##andez
1815
imprison
locations
downtown
julia
fuj
colombian
suburbs
thinks
expansion
edwards
mainland
glen
glac
revenge
magazines
html
##uania
neph
influential
cheap
criticism
diameter
literal
buddhism
##itter
toward
external
newly
##grade
criticized
lithuania
aaron
unified
arctic
surf
##ienne
afterwards
143
santos
palestine
istan
vil
##inations
##itus
##irus
copa
woods
tiny
allier
tyr
istanbul
##inction
169
##aha
monsters
##ussion
headed
1851
cameron
##inter
##amer
##child
para
loud
equival
trading
measures
generals
##olds
1856
1854
sardinia
nurs
sut
##dles
##ographers
keeping
wildlife
chicken
reed
dioxide
sample
controversy
temples
##pec
##cription
fertil
approved
loved
cyprus
kerala
ace
ffc
##ykh
##star
knows
metals
##ye
##lying
marion
##uba
resulting
efforts
aj
jury
##emaker
writings
platinum
ranges
##zon
traded
expert
picked
pearl
eu
camero
ruling
breaks
151
estonia
antib
psychiat
roughly
picardie
450
##bie
##amas
chev
##agawa
download
erupt
visible
sebastian
##eed
chuck
##berger
##iah
adela
calling
airways
occitan
rip
chip
recomm
designs
authors
auver
restaurants
##edo
isle
ree
frag
carrying
drinking
##atics
edmund
expression
skiing
warriors
##lar
##pat
empt
lights
bangladeshi
frame
fires
122
justin
supports
substance
accompan
wool
pharm
evangel
watan
neutral
anchor
tehsil
viv
##uni
seed
spencer
laz
philanthropist
benedict
volcanic
aube
das
wang
technique
keys
hemisph
ernst
miguel
ced
zimb
##rib
1821
exists
##ressed
intended
duo
opposed
gav
worker
peaked
raid
maple
caval
griffith
infantry
disabilities
##ebo
cliff
guatem
skill
wheat
pirates
gravity
nou
##san
##ici
forum
manus
abst
miner
vii
atlas
cardinals
flanders
sara
##esp
##onso
##ayan
##oted
recre
roma
siege
gospel
##rill
statesman
161
moons
rising
absol
keyboards
gem
##lock
orn
strateg
insurance
goddesses
auvergne
riding
##etical
maker
sonic
oakland
nad
##ensions
michelle
colored
panama
##uer
##zig
carlo
discrim
crossing
grammar
rappers
hipp
mtv
chen
implement
fifteen
1855
promote
##eenth
gymnast
##recht
##emy
132
##auer
qualification
ng
sust
teh
laura
##ilda
monten
graduating
excell
gott
ply
1847
norfolk
summit
proteins
testing
astronaut
improv
diabetes
hiroshima
watanabe
cul
zel
seoul
pries
disk
decisions
assum
240
solomon
request
improved
vect
anarch
invited
portion
facilities
celebrity
earn
crus
elis
routes
legendary
163
diesel
scoring
##anie
disability
helin
succession
storms
attempts
license
kidnapp
seems
spend
1840
173
124
logic
retrieved
##oi
crops
tum
##rial
edited
successfully
dancers
ancestry
dolph
bats
wake
##hausen
verb
nominee
fountain
rated
wend
##ading
spaces
sarthe
saved
explosion
glasgow
nokia
java
seine
uniform
consp
1849
1846
134
opens
volt
publication
drawn
felix
precip
households
favorite
giovanni
##2e0
alien
deuts
##phis
154
##lett
prisoner
##ses
itv
##ocene
tested
atlantiques
gustav
ffc2e0
##most
estonian
pam
##active
consort
suggests
##body
##ucing
152
spots
supern
quart
dreams
bryan
bloom
gates
stable
elite
entirely
hughes
bishops
bast
##iab
shield
warning
depends
albania
guar
talked
robot
emperors
wooden
##coming
naples
fay
rican
wis
##rist
beck
blow
coins
144
armies
holes
window
reaching
astronomy
graphics
prussia
sight
##rano
craw
pov
coaches
execution
electronics
nascar
deleg
1845
clan
centen
bombing
opinion
ritual
##enzo
1844
171
depos
imposs
wells
emma
courage
credits
threatened
volunte
##nan
bea
asks
##aks
propos
fruits
centers
##enger
dawn
processes
chernykh
##iper
arrow
##ughton
controls
promotion
traditionally
sullivan
fasc
1841
meter
incidents
normandy
##yon
##isi
ana
adrian
decides
returning
alpha
suffering
##adors
230
convent
schedule
##eim
terminal
acquired
jum
xi
beer
magnitude
contrast
tigers
percussion
ek
piet
tad
##aran
kom
joel
162
calvin
croc
##brid
##agonist
navig
saxoph
warrior
destruction
herze
raise
width
repeated
portrait
##lings
otherwise
##ibi
bras
computing
cornwall
constructed
pitcher
constellation
ahead
bid
decades
settlers
explain
##monary
lesb
nix
rol
##gang
photography
observed
adelaide
tou
##alt
planes
homer
eri
##hin
powered
pete
multip
healthy
rarely
gul
##ozo
##imo
context
prayer
172
offensive
springfield
eco
##erm
##orous
chamb
quad
educated
kem
utc
policies
task
baldwin
advantage
shorter
164
genera
smack
transg
viii
grave
taxonom
transferred
sitting
anto
proced
strict
summers
malay
cdp
chromos
renew
herzegov
oc
reporter
crust
merced
petro
owen
wounded
174
strings
glenn
burial
railways
kenya
organs
##family
shiva
1812
1500
##crib
stanford
physicists
innoc
dup
usual
##ifically
charity
taxes
hil
iso
muscle
twins
boundary
intellect
##uaries
##agua
shaw
142
genoc
harmon
ultimate
lug
##erg
##erts
leeds
edgar
palat
210
malta
oceania
tunnel
recipients
qur
##eri
1819
##quin
administrator
joining
nac
toul
##avia
##odia
mineral
##anche
jungle
landscape
organisations
daw
mason
tied
##oor
##iso
brab
loves
galaxies
session
uttar
##inder
alv
alto
spelled
leap
boats
##ennes
populations
memphis
sculpture
celtic
experiments
entrepreneur
jas
##orian
##acle
##outs
rainfall
recipient
arranged
tributaries
unf
km2
civilization
##amba
azerbaijani
achievement
converted
hak
##tz
alberto
stab
##udes
##ushima
tourists
impossible
##gro
##arl
heath
swan
lucas
philippe
tissue
ltd
herzegovina
charter
mills
hemisphere
shops
americas
strat
##ukee
sandy
prelate
brittany
##gary
##essa
cargo
bris
archives
pilgr
alexandria
##eria
winn
millions
turning
broadcaster
olive
anatomy
taste
sections
crush
legends
axis
gaz
mam
1843
germ
associate
believes
saxon
determined
faced
ville
##esia
schw
westph
latvia
snakes
krish
commentator
subtropical
gel
##fb
##chair
stored
creative
fewer
surviving
credited
employees
ludwig
ions
##alis
bruins
255
glad
seeing
experi
existing
precipitation
gut
jaw
nathan
##ben
##oric
1830
servant
vegetables
furn
##cement
##ctional
lex
martha
genres
viruses
azur
certified
julie
dement
attempted
pump
tusc
##urb
heights
manit
taj
historically
sixteen
handed
entrance
occitanie
wer
##vor
##oney
##atore
1837
buses
trek
digest
manufacturing
paraguay
##hem
stim
##istry
##iman
##izer
supporters
connects
asteroid
sicily
trom
##aru
calgary
##anco
emil
##ulate
trick
struck
locality
credit
cay
##icus
unp
colours
followers
##keep
crazy
fastest
feelings
dwarf
a3
duk
yas
##kt
highness
rhodes
traditions
##pass
dial
soci
exile
##ords
flour
bless
brows
junction
pulitzer
pist
##db
beings
##raine
220
##waukee
involves
##commun
lords
regularly
##rose
##ipts
honors
##licated
monarchy
conquered
smackdown
##umber
meh
victim
1852
assassination
feminist
sophie
heinrich
mou
##alus
##iser
chef
1818
agencies
joins
bristol
creatures
homepage
debate
continent
researchers
compilation
chelsea
westphalia
tut
orland
183
worse
##onds
formally
accel
delay
silk
tours
processing
bolivia
bennett
mixture
hood
mild
theories
##ulated
archaeological
registered
gum
##rical
##aa
##abwe
abortion
agents
milwaukee
erik
mph
rig
dix
filmed
argument
hardware
apartment
tampa
fold
##isy
anders
##yla
prepared
pregnant
lod
themes
breeds
budap
psychological
dorothy
substit
playoffs
equivalent
pom
wides
°c
##imet
landfall
julius
suzuki
distinguished
budapest
##kel
feud
##oks
1790
forming
temporary
photographs
siber
##unda
aviv
versus
titan
##ija
frankfurt
evolutionary
lennon
l4
sank
##hof
ald
spar
trig
betty
listen
loop
1853
hawks
obtained
transgender
lak
##oj
##olith
laid
creates
screenplay
hanging
genocide
##eo
106
affair
##colm
coordin
prescott
edmon
defender
discover
mosque
qualifying
domain
transition
struggle
faces
##uru
smoke
tournaments
construct
cumbria
phillips
monday
cairo
rhe
yale
##anga
phosph
##ahan
harbor
patent
uran
drafted
dying
##dre
##ondo
gm
jub
telling
zamb
##alu
##agar
malcolm
##going
reaches
bordered
batter
ambassadors
shopping
##iar
##utation
notably
humid
confed
stretch
rays
usage
blocks
invaded
keeps
eagles
tehran
edmonton
riot
##ifa
basse
appearing
extension
mlb
bj
mumb
ranch
tie
uno
span
1838
editions
derby
arrangement
kazakhstan
plymouth
747
978
meth
displ
monica
divine
demograph
flights
wheelchair
divorce
smooth
dated
##uoka
##iane
sector
##ysc
farms
heavily
rodriguez
zimbabwe
aus
aids
lub
ned
##inks
##esty
rooms
##encing
##ullah
ik
##zan
##idal
##inae
endang
casual
fing
hier
##rent
proved
farmer
leslie
graphic
immigrants
tunisia
overseas
##dal
shak
regiment
drawing
principles
appeal
mercedes
sized
alc
stur
##odon
prostate
##eback
diary
inters
fights
girlfriend
hospitals
cornell
confederation
demographics
##oan
chiba
quint
canadiens
philippine
constantin
phenomen
##zel
denis
venus
odas
principle
hypoth
leopold
ore
##kers
##urst
##etch
scores
doors
providing
skele
morph
fifty
hoff
fundamental
inaugur
poverty
kul
yo
##itary
blu
thanks
##flix
putting
strait
messages
algebra
reproduction
bourbon
intellectual
manitoba
orlando
cun
dale
gd
jura
##eness
item
idol
directory
specifically
confess
airports
rebel
marcus
normandie
kart
styl
monk
artistic
papua
investment
wait
patterns
shimizu
anglican
elephant
literally
dementia
endangered
hok
##isted
consequ
expect
acoust
##bruck
buddy
battery
ultra
1900s
sidney
##oids
monroe
devon
babies
costs
dollars
jesse
herbivore
880
##icon
1836
carson
negot
ratio
jsl
nass
##dot
##andro
unless
##apse
bruss
warfare
electro
metall
millenn
variable
nikolai
summary
conspir
jamm
##hill
##uter
1820
contained
badly
750
hod
##itors
##chw
resemb
luigi
travels
teenage
ster
unter
##ucl
relatives
sporting
radical
##ylum
khal
netflix
enters
##aurus
juda
referee
nicolas
ravens
nixon
lamp
##yu
##esi
##arr
marne
genetics
georges
profession
defeating
hinduism
triangle
##ampton
tril
complicated
signals
primera
priests
binary
rup
##asis
hercules
penis
scotia
traveled
covering
slovakia
powder
shanghai
nephew
ueda
spa
quiet
throat
320
##eli
##ebob
caps
emph
announc
facts
##ipei
geometry
lover
##itic
civilian
jackie
autumn
experiences
protocol
randy
diana
frit
##cing
##core
##bane
##arte
turb
confused
jeremy
mirror
slovenia
cancelled
pall
ranger
##miss
##otten
##apa
notice
terr
tribute
lynn
stevens
penguins
bise
rag
rash
thames
##isons
minne
chateau
brussels
oss
perth
geographic
destro
fellows
automobile
aim
##si
##pread
##olar
nept
manila
peruv
regime
reds
explan
dances
immune
platforms
sergei
pyram
bip
gear
hag
tape
yemen
##icial
280
taipei
somers
andrea
embass
luck
tone
##lif
##aser
##astr
colin
guards
strate
goalkeeper
cinemat
collabor
widespread
cc
mood
##gard
nationalist
smash
emily
shares
maritime
spongebob
hollow
vag
##ku
##agram
teleg
diff
##uccess
##erner
118
##ettes
##inda
companion
floyd
mcdonald
minerals
suk
hey
plum
blake
solve
crashed
contributions
unsuccess
lisbon
ingred
assigned
mumbai
util
##rt
##wing
##enstein
ish
beast
feathers
circul
lucy
fukuoka
scandal
980
##uo
##thro
1829
attraction
operates
venezuelan
theodore
tibetan
pepper
guatemala
vat
##here
##ischer
forty
broughton
outbreak
twinned
dialects
vall
twitter
subway
retail
explained
preserved
brabant
lets
ou
acids
hearts
medalist
limits
clement
deputies
matters
detective
##claimed
subdivisions
aleksandr
rut
##urai
aragon
marian
sco
owns
##boro
crowned
innov
theoretical
strategy
jos
pock
##rant
##rated
reh
##ogs
herm
swift
output
##ynth
mathematicians
mongol
lombardy
##fire
##ativity
relief
1801
resignation
drown
seas
##ogl
depth
hardy
shooter
infectious
replacing
locomotives
peruvian
330
cyl
nipp
##rate
oral
1835
1842
patric
lotus
riots
supplies
##hd
##mill
prohib
scope
norse
##anca
georgian
closest
architects
bhut
biochem
achieved
suddenly
dil
##noon
##xter
tooth
prosec
##icts
markets
secretaries
dys
##gon
chorus
unic
diocese
108
skier
submar
nights
interesting
harvest
trials
bringing
sainte
tact
##mish
accidents
argued
originated
layers
corruption
kok
##chang
stol
##ucc
harper
error
##ambig
judaism
##eer
##agas
1839
canter
cohen
metre
karen
requires
automatic
lyon
categories
airplane
elisabeth
lok
##igne
##acles
territorial
libya
princeton
shapes
advertising
opportunity
kushiro
orph
monuments
ellen
europa
homosexual
immun
##uttle
assassinated
emirates
nervous
fol
gig
sene
##atically
1826
trio
mines
grandson
debeh
survival
princes
therapy
ahmad
kaneda
descendants
debehogne
dome
##wyn
##pro
##isf
towers
wore
##ahi
archers
balance
experts
flags
iraqi
hij
##cot
phones
afternoon
feder
friendship
marketing
adaptation
noun
yes
##pus
##aken
##usters
##ensen
swing
surrey
collaps
libraries
lungs
960
winters
landed
benz
1789
ancestors
obituaries
kham
##mate
neither
strongly
quarterback
dag
wc
wess
##eus
##ych
##omo
cox
equations
likes
briefly
volcanoes
tight
##enza
1828
indianapolis
fm
haven
nig
stall
##cester
boom
waiting
initi
##nam
##cor
inducted
disambig
subpre
missions
cultiv
troy
oslo
crack
namib
preparation
discrimination
##rors
##mus
1831
salam
berry
duties
harder
influences
savoy
flew
widow
logo
uzbek
subprefect
ios
wu
##su
monaco
sox
milano
funk
celebration
infections
rabbit
remembered
reptiles
minneapolis
gius
qatar
sikh
1813
resolution
topics
bruns
plateau
czechoslovakia
pbs
wak
##rand
##kina
##icz
##alez
establishment
skater
breeding
receiving
accidental
generations
indicate
circumst
geoffrey
lp
##mare
reyn
##illery
tech
export
flies
outl
annie
midnight
conflicts
jessica
strikes
empty
tucker
##isie
isbn
##uli
barack
slovak
lithuan
abolished
telescope
monastery
disambiguation
giusep
ci
hi
moss
chester
leuk
marqu
##acht
blank
skysc
##ushi
arabian
concord
650
##fight
sole
tasmania
yuk
##rams
##itled
##ulus
canon
trent
carey
aggress
barr
greatly
shoemaker
replacement
bend
ecl
gap
##rag
##aters
electrom
graz
##cycle
candy
##oppen
sask
macedonia
iod
1825
everyday
flora
##iii
goalt
gonzalez
roc
##cat
##bu
##ilian
britann
communists
epid
zeus
##affe
vertical
vampire
telegraph
990
gp
muk
pound
inject
##strom
stamp
1810
carries
instance
organism
pastor
dollar
clarke
1824
fled
nato
defeats
bruno
##egro
horizont
##oves
##bery
1795
##ashire
easter
ferry
cartoonist
pushed
montenegro
950
hull
##eric
##olve
marcel
##quer
attacking
lancashire
gothic
##athy
perp
gram
performer
fortune
soprano
centenarians
rams
##dum
##fi
##isse
##idays
##imal
1832
edwin
palae
##ammed
operate
tenth
##castle
translations
celebrate
sulfur
kane
mum
yan
##rons
##olan
##igar
##oses
##aze
valu
sherman
lahore
tuscany
##hra
engaged
shortened
silva
concrete
finishing
fraud
##lemania
canterbury
shog
amar
##ucture
latest
focuses
mccart
tanz
pretty
vendee
jorge
theologian
340
570
ahl
aunt
ile
##uge
identify
jen
##bat
input
##acco
1833
flam
##flower
verse
1806
adopt
molecule
erect
ti
##jov
##clusion
##eshire
##while
chloride
abandoned
brisbane
##olithic
millennium
##anas
beating
como
clif
terra
merit
increases
uruguayan
380
dong
260
villain
monthly
besides
sessions
kawasaki
escaped
enforcement
grandmother
abstract
nc
ub
roth
repair
regent
specim
skating
berm
exposed
equator
wolfgang
treasure
lithuanian
420
cogn
nun
tune
##hall
##vet
societies
geology
hels
streams
rosen
kamen
travelled
dere
ura
##eon
android
marina
attrib
signature
passage
##osaurs
indicates
nina
tj
tic
vest
##rets
1814
grove
##redited
variations
campo
nicar
achievements
diver
gases
##iad
releg
reedy
##ctica
spelling
adm
wrestlemania
melod
respond
conquest
bengali
guerr
acoustic
dion
mb
moll
##nat
##fts
##agers
prostit
civilians
collapse
inspect
praised
boroughs
determine
bombs
kyr
saving
beau
##endra
legion
woody
rosa
##strong
motorcycle
sprint
trinidad
interactive
francesco
rejected
kitch
theology
##unct
##anton
barber
mainstream
##riers
sexually
bonus
vessels
gad
ji
rates
##sson
##fried
##ubs
##aches
participate
kobe
essays
alleged
gradually
giuseppe
pf
pairs
rust
xx
##ono
chains
plates
pride
repr
patron
bayern
viewers
watching
facebook
physicians
480
##hop
##asse
##uting
1827
internationally
greeks
fighters
abbott
##unciation
410
puzz
##alam
boot
##awi
advice
moral
guitars
dissolved
duchy
perez
delivered
curtis
experienced
inqu
shi
muscles
guad
helm
happening
restored
councils
rape
citizenship
earthquakes
vocalist
640
##case
##icate
chak
carroll
drinks
airbus
tomatoes
doug
aspects
absolute
aew
bent
hort
piz
wre
##onda
discip
filmmaker
avatar
entering
economists
bassist
lorenzo
pulmonary
weakened
powell
pdf
dug
l5
lup
welf
##var
##etto
consec
clou
##ernal
disco
evac
artillery
urdu
memoir
annex
bradley
viktor
advisor
benefits
stalin
wizard
crocod
pix
##rina
##kre
marco
republicans
manufacturer
dalmat
bicy
pab
europeans
ranks
windsor
freshwater
nitrogen
jets
##mm
reef
components
deport
roller
tsar
kitami
penguin
electromagn
fen
peas
feeding
tru
holmes
puts
rainbow
430
##rice
stem
neo
allan
phon
##restrial
honored
explains
restoration
nobody
weekend
bahamas
mohammad
loyal
rebuilt
wich
leip
trucks
##ahu
##arez
functional
practices
wiki
naked
breathing
portrayed
970
xia
##ean
##hart
anast
##enter
neb
parade
quit
underst
promised
racial
leonardo
hopkins
installed
revolt
brunswick
mv
toys
referendum
carrier
transmission
visiting
##onaut
duncan
andrews
juris
eldest
mongolia
##jara
shear
driven
caroline
strongest
shoes
veloc
dhaka
antarctica
moderate
cure
ming
##ailles
##ipper
harbour
climbing
tsun
beaches
bonds
flooding
trinity
situations
infrastr
bm
cesar
##mates
##ird
plural
admitted
##eca
christine
josef
tribal
legislators
rotter
icelandic
instructions
870
fbi
pag
sansk
##oire
leather
1816
laugh
drives
thrown
extensive
superior
specialized
catalonia
ussr
sindh
sanskrit
727
ns
zones
##uing
prizes
palmer
milton
270
biologist
pilots
paradise
boul
fate
##leton
##etz
mayenne
armstrong
designers
##quez
councill
pointed
leonid
belonged
rotten
expressed
constantine
victorian
tonight
attractions
pollution
experimental
vector
senegal
rent
brass
entertainers
perspect
translator
yamag
diamonds
eugen
kumar
##found
alleg
##acks
coop
##lingen
##loo
substances
samples
shirley
##dan
##iner
##aton
chronic
donkey
patriarch
mozart
forbes
nurse
##iture
##olt
##utor
1910s
copyr
balls
lyric
typhoon
##pecies
kdot
sue
violet
##rea
##avirus
##rys
deck
numbered
dayton
meanings
martine
jewel
participants
marshal
gibson
lebanese
stefan
cameroon
hain
##uber
##mal
##stown
##adh
herald
geographical
sensit
passion
technologies
cycling
sleeping
dispute
consisting
stripes
zar
##riet
##jun
##imate
##ugu
clara
sauce
##ebrates
overt
listings
##otted
revenue
castro
madagas
hotels
measuring
insect
watched
sevent
accounts
ancestor
pulled
exclusive
chambers
gest
ved
##rates
chec
tram
centres
labels
facing
printing
jamaican
partnership
jammu
dock
mitt
pour
##lette
gloria
remake
wald
esper
professionally
factories
brandon
pregnancy
dramatic
somerset
circumstances
nwa
rna
vand
vie
##nu
##lia
##card
##ilis
##avian
blade
kingdoms
architectural
diplomatic
lynch
mccartney
madagascar
575
zen
comfort
notting
eva
holder
affects
consecutive
##eur
##immer
conce
1822
cancel
populous
jeffrey
cherry
measurement
660
dors
gc
sizes
yun
##press
bases
coy
216
sno
santo
drake
rainfor
trilogy
holl
##wana
flames
beta
surgeon
conscious
emmanuel
tenor
panel
persia
astronomers
terrorism
alexandra
kurdish
exercise
lesbian
zinc
##mons
##ovan
##orne
reputation
firearm
bowell
practical
valuable
hul
oise
vibr
##anmar
##thum
prices
relation
voiv
urata
shawn
igor
brigade
neptune
welfare
rotterdam
840
830
bean
shuttle
1811
abh
permission
natal
cutting
kirby
counsel
consisted
##reen
als
proport
1817
rook
everybody
crossed
facility
rubber
rudolf
tobacco
arsenal
minimum
beverly
leipzig
yard
##wil
rex
##urus
##arts
##rite
1798
##kaido
violinist
einstein
bisexual
##bone
##px
marse
herman
133
timber
affil
illustrator
caucas
gandhi
infrastructure
910
mits
yev
##oque
roh
schles
augustus
willie
##ylan
volumes
extinction
homo
losses
occasionally
reorgan
monitor
provision
moses
##chez
cartoons
falcon
detailed
##enhagen
conspiracy
patricia
pett
##uen
##arium
tosh
forwards
##istere
##itta
belize
morrison
1803
lenin
##hist
##cos
ondre
1600
cruc
##inki
lesser
mahar
kenny
taiwanese
abbreviated
860
bits
lymph
##bank
##storm
##ucci
##cluded
cran
brack
griffin
##ytes
toulouse
1km
##acio
gerard
schwar
governing
myanmar
enterprise
oliv
marathon
vish
##bral
##amics
sings
apply
prove
nucleus
magnet
dictators
370
576
dess
fusion
ves
##alism
rect
atlet
sheph
##001
##assium
1792
scheme
310
portal
hybrid
racer
circus
rapidly
spectrum
innocent
710
hiv
hns
nih
stood
##anta
fallen
determin
930
ria
infer
##derland
finistere
wei
biologists
potassium
920
kus
kern
##gel
##iration
##aby
compact
##iza
maya
competing
wheels
fortress
ratings
naming
subspecies
kuwa
belarusian
dul
##py
##imi
newcastle
burton
dominant
stafford
responsibility
flowering
tongue
helicopter
och
rally
##hand
##avel
##apor
partial
doo
##cker
battal
graves
azte
venom
henderson
630
cine
hik
kara
miz
##onc
##itama
##idt
manual
1793
ears
belle
fluor
dirty
doubles
collaboration
ticket
embassy
740
mugh
yar
##mu
alk
##imer
##uga
madh
administer
##ipeg
sailor
comparison
knockout
hesse
wals
##bes
peer
blast
infected
voyage
unoffic
421
ered
hate
kad
wander
##hyd
claus
scales
mead
reconstr
calder
belgrade
sally
##istances
openly
managing
matrix
decline
turtles
999
raz
##bra
##ogan
##ango
blair
buzz
holidays
meanwhile
algae
equality
pronunciation
cuis
##bird
consonants
460
510
##nut
##osc
##ipel
707
psychologist
elevation
maurit
golfer
ninja
atletico
lich
sik
tables
##orship
winston
belly
highways
valid
angela
lessons
lucky
coverage
autobiography
nh
plague
##ieth
component
1776
rabb
jamie
customers
voltage
820
distances
##zzo
##erver
chir
##anti
1791
guin
instant
##fordshire
fault
algorithm
520
dans
kron
vib
yak
##jay
##ener
##etown
shift
##ahon
babyl
timothy
suspect
oceanic
recognised
nacional
bolog
eats
flex
mog
tons
vig
##lain
ank
stere
pla
desire
bark
hautes
claire
sheriff
benefit
eruption
copyright
550
##tes
##jing
shif
sheff
##ropri
interests
turbo
khy
bailey
voters
purchased
fingers
bout
dow
##cz
##stra
##allow
helena
215
sharing
fairly
saxe
buddha
vitamin
consumer
fritz
431
kub
ole
vid
##sten
##chio
##orno
clause
2024
copenhagen
discussion
butterfly
cerebral
taxonomy
nottingham
ondrejov
720
cly
gift
koppen
##elt
stern
abroad
laf
courses
representation
receives
teachings
traveling
cabin
rafael
tough
##eres
##ourse
clergy
relay
judy
hamlet
instruction
defenders
##borne
lunar
anj
##sev
245
modified
verdy
naturally
richardson
timeline
laurent
joshua
cnn
urawa
321
mice
patch
wise
##vic
anx
whale
outdo
256
barnes
glou
organised
publicly
graf
freestyle
##ymes
identical
##otype
prophet
leukemia
mia
##horn
reward
sta
1834
153
225
valencia
glory
seek
multipl
1809
1805
##rises
properly
flowing
suspended
achieve
pocket
cooperation
auck
eh
hd
##eong
##nar
##inas
dew
comba
newfound
variant
drain
tanks
1800s
merchant
cambodia
constantinople
wichita
411
dual
nile
sok
##ław
##reh
este
brew
sanct
sanchez
365
homeland
##werp
programmes
bhar
emeritus
orbital
prussian
auckland
331
bard
bism
fiv
ling
ants
spark
congest
1200
underwater
brave
diving
middles
hym
antwerp
arrival
deadly
spirits
refugees
aka
dylan
jake
lal
shu
bars
##flies
verde
symmet
pianists
##ihara
klein
subsequently
winnipeg
bail
fract
rw
sass
sink
yuri
##inho
leak
manner
newman
partially
##ennial
developer
handle
cyclists
sediment
nicole
730
pia
##run
1823
1797
twent
prep
christina
revival
coral
bills
handball
coaching
lima
prair
corporate
heter
rost
##enbach
##icing
##istle
beaver
defect
unity
hermann
indies
avi
1807
##bourg
reforms
clarence
laureate
antibiot
aes
dorm
hank
hbo
##atan
newark
grim
elvis
readers
grounds
mighty
legislation
astronomical
monarchs
scorer
regarding
roberto
frost
editors
puppet
cavalry
understood
dent
lying
pounds
wider
##hor
beeth
1700
##azar
animator
##apping
1804
bombings
guru
calcium
pilgrim
ae
gael
mcl
tack
##haus
aless
##ivisie
roch
remote
1808
contributed
maintained
eredivisie
341
590
kav
rope
tah
##cular
chor
parth
##ammy
classics
holstein
##ewan
belonging
conquer
jumping
malaysian
rouge
ceremonies
lut
rov
ses
##gia
##anor
##amic
comet
feels
decay
perm
publishers
denomin
somalia
fatal
immigration
residential
bess
qing
vista
##gus
fran
client
##angers
##quet
janet
##atti
chiefs
##what
narrator
dukes
325
dmit
ix
sous
##kos
shells
marl
founders
surprise
burrow
1788
##harmon
concepts
leafs
emotions
wesley
sach
tup
##vas
##eny
##atur
##alay
##urers
saitama
cruel
angola
discontin
ecw
garonne
concerto
customs
manipuri
coronavirus
veteran
horizontal
711
sends
werner
##des
##ellar
1796
genesis
##ront
penny
suspected
flemish
please
excellent
ecole
eur
oy
rats
tav
toll
yards
stutt
##ceeds
##bern
prest
1799
phara
grid
germanic
willis
anymore
thoughts
governorate
greenland
celest
honduras
norton
ff
##pin
##arth
abel
armor
emin
freeman
madonna
prefectures
pyth
difficulty
bahrain
emotional
withdrew
cater
gan
sg
zomb
##kow
ink
205
##using
polyn
indie
##atchewan
##gyz
athe
coached
curse
koh
attracted
amazing
sustain
helsinki
derek
bik
fas
fake
##lag
##ivores
##emi
pluto
hash
mayer
noise
endate
archipel
intent
processor
clearly
basilica
reynolds
saga
##aders
whites
scat
wein
##anning
##amma
demon
grain
humanity
saskatchewan
kyrgyz
clouds
voivodes
khyber
680
jp
mt
nie
trop
##nn
##orrh
204
plaza
somewhat
141
amber
compositions
celeb
uncredited
krishna
beethoven
540
911
dud
misc
##oibi
##kova
##opl
deity
##ulin
allah
kingston
noah
baroque
##riages
mali
radioactive
bavarian
konst
connor
sheffield
omar
vy
##hed
##vian
##log
##care
highland
armour
membership
congressman
probability
durham
wolves
mgm
bhutan
shogun
gior
##right
##eni
sega
spiders
manage
syll
maiden
populated
humor
cups
meetings
assistance
kyiv
fernandez
algerian
ownership
vernon
uzbekistan
bermuda
fog
rita
chu
##imedia
observer
hartford
fug
kv
inland
##aye
##odyn
1775
creature
topic
miranda
interviews
alternate
segreg
disappeared
dip
kai
##sis
##vious
brut
amo
guang
235
differently
interc
wellington
##afa
climb
entertainer
sailing
ticino
pablo
nd
tac
##zing
##icul
wasn
presents
1400
secure
##azi
##engers
##caa
##zhou
playwrights
continuous
fungi
511
dash
##uous
##lore
##osy
##unden
basel
evan
interv
topped
espn
##brook
namibia
martinez
fivb
641
##mail
dear
neu
brick
greens
##urring
superman
rounds
barbados
lorraine
palatinate
jh
tent
vine
##lio
206
stuff
spike
brings
290
interface
vera
postal
researcher
aquatics
andreas
libertarian
slovenian
vatican
pharaoh
lens
ora
sd
zam
##atel
##emann
##apo
worlds
prehist
speaks
segment
crawford
boc
ducks
traged
upgr
greene
smell
organist
arrives
judg
icon
mechanism
travelling
bie
kyle
##sv
##jin
##stead
##ayev
deals
asking
seth
spending
211
##eneuve
hook
olga
exploration
intelligent
390
375
pud
##edi
joey
gros
amanda
crater
atlantique
wears
subsidi
advertis
zambia
##kreis
cb
iber
yad
##gets
##muth
##onica
alps
commod
agu
upcoming
impression
##uku
eps
lighter
frozen
ellis
inherited
accompanied
bologna
voivodeship
515
dhar
porter
tus
conrad
solutions
tao
connecting
mrt
cannon
baku
shallow
wednes
890
bce
##illion
strand
patrol
funny
bankrupt
koch
motorway
nepalese
boundaries
theorem
mysterious
tadp
440
##isible
forth
##imov
##ako
##rities
abilities
scout
phant
invention
davies
declares
accessed
##oit
##enov
##rels
##amura
##ayama
##abl
##ende
##cessor
blacks
homeless
reformed
whitney
forbid
wcw
newfoundland
efficient
thy
##alan
sperm
##urem
meiji
button
crane
undert
entitled
mccl
osc
navar
lankan
habitats
sergeant
vowel
accurate
celebrities
670
cuts
thread
##abited
##sein
pref
torres
rises
accidentally
licens
arcade
oxidation
acceler
hello
yours
##yard
##thus
##idan
##idian
##avi
##acker
##ibu
sofia
burma
885
memories
rebec
resource
requirements
mcmahon
715
hast
ncaa
##jee
unre
feast
apoc
muss
disagre
brill
edo
governed
obvious
##eroy
learns
jerome
bronx
begun
rabbi
slavic
mansion
335
741
cake
cott
jong
sending
til
##master
##idd
counts
dischar
##ashtra
porto
magical
arrive
ethics
disputed
linguistics
##ozoic
ingredients
628
##ulia
##atha
##antes
apar
##ussia
angles
##boys
pakht
periodic
contestant
oriental
elliott
cors
##inity
##isk
##roc
isot
##sted
##ivery
##antin
gujar
##annon
berkshire
destination
juliet
swimmers
reinfor
reservoir
##onymous
wessex
velocity
395
810
della
##days
##nas
##otam
##unkh
##ikov
scots
geological
##gradu
operator
defending
berger
##borg
prede
suicides
floods
adjust
470
pets
sack
ties
vital
##oline
209
##chus
whales
marines
albany
johnston
##elyn
darkness
hawk
microsc
631
780
tues
##aise
##odor
neur
##order
drunk
bash
editing
soy
##obia
##engo
raising
anywhere
posthum
stopping
liege
cooked
neighb
cinem
austen
coronation
migration
recovered
560
kag
##lich
##atu
##atural
##raid
cluster
##okes
coin
interim
delivery
hardcore
macdonald
ult
ashley
stadiums
phillip
neighbouring
strategic
731
aure
xv
##vich
##gun
##lord
heated
encl
##ouses
bride
edges
turks
roses
qualify
circular
skeleton
stuttgart
##unkhwa
521
cork
sne
forec
sheet
##inski
reducing
ecology
aval
discoveries
nobility
treasury
inspector
dot
iphone
##pers
##alf
carmen
warn
visc
martyr
shoulder
logan
optim
percentage
pakhtunkhwa
940
espan
fk
##olin
sham
clown
##iffe
guess
subfamily
irving
886
aquatic
aerosp
siblings
unofficial
nes
##las
##oso
preston
clash
##omez
recover
socialism
##centen
wax
nicol
contribution
ligue
kidnapped
hence
##iler
157
247
jef
emigr
##101
888
##archy
oceans
theatrical
trumpet
hayes
abolition
crom
##cup
##bage
##leen
##omorph
shizu
##endered
sworn
##velle
debt
silence
latvian
viewed
recognize
purchase
updated
imprisoned
submarine
790
hague
##math
##ische
##ivo
yearly
ammon
##tenstein
moor
missile
signing
##porter
oswald
teaches
maxwell
spiral
columnist
philanthropists
turtle
kuwait
aja
##reats
plas
flute
1870s
loses
burke
judicial
mahm
dinner
##utenburg
578
bella
gos
vr
##xide
##adays
##ande
##ifest
##adeus
schiz
##tenham
##ierre
slide
legally
castles
premiere
mrx
exception
bradford
honda
gog
lago
nied
qa
beans
##andra
##ebody
knife
caliph
nowadays
variation
competitive
cyber
baltic
scream
costume
bernie
pulse
lifestyle
tunisian
enjoyed
stolen
aa
gomez
hin
luk
sells
##jor
##icit
##illing
peg
enh
afraid
hern
##icking
saul
liu
tract
divide
archie
1890s
reader
separation
analog
zhang
pavel
survivors
muller
tajik
ai
ez
##once
##enas
ate
uprising
weimar
portable
journalism
mccar
tasks
clarinet
##keepers
rebecca
fiji
gale
mys
ongoing
beef
commem
tautenburg
campe
sharon
pierce
embry
opponents
breathe
hedge
yankees
nicaragua
kend
md
pant
##eaux
##bin
noticed
knox
flint
##ensional
preced
directing
directions
##oby
releasing
212
anthems
falc
sendai
concerns
bleeding
dragons
596
##coms
##anov
##irt
ital
##see
dres
swamp
juice
juels
traff
filming
hyder
sami
theaters
getty
3000
moroccan
##ов
##atas
chrys
spart
arlington
meyer
1777
##atta
supercenten
##icester
confuc
promise
melody
knowing
cubs
dishes
surrender
schleswig
525
777
katherine
lill
ome
##vae
##gae
adri
basque
brock
222
landmark
philharmon
defenc
cafe
crab
boliv
vinyl
antoine
kann
pitt
##notes
##atz
##igs
sheikh
poles
borngen
guests
mao
214
bergen
satisf
turkic
hosting
broadcasts
ambul
campaigns
ruby
surgical
anthropology
tanzania
cuisine
prairie
821
aimed
caves
##nian
203
worm
brady
austral
##ilyn
runway
racism
straw
folklore
package
##rahim
pyramid
541
bamb
winger
rever
##iants
##agus
##iban
musk
moist
filed
275
##engths
villeneuve
varies
chemists
punch
brands
hindus
vacu
mohammed
lancaster
veterans
announcer
hc
nago
pwi
##alla
acute
saar
231
221
##otti
malt
sitcoms
connections
1802
flyers
sequels
drawings
ultimately
supernatural
petrole
browser
kais
##kaya
##lu
##fred
andor
##ardi
communism
lasting
##cripts
karachi
asteroids
integrated
smoking
hispanic
auxili
siberia
nebula
339
nong
##oco
shon
worms
notre
##ifice
weston
1880s
richest
tempor
structural
catalan
somebody
additionally
encouraged
cecil
valleys
545
dell
tae
##rock
italia
shan
notation
##ifies
brent
milky
238
daisy
titans
observations
conductors
employed
elsewhere
reinmuth
kosovo
administered
530
595
pond
raced
##phones
253
freud
automatically
contestants
hemorrh
nutrit
dependent
aristoc
##continent
hypothesis
shizuoka
bind
cia
jelly
##bel
alder
beats
unt
marvin
fris
fraser
##ials
##angu
parma
##irect
edith
##eryl
juvent
johns
##rique
anger
ideal
ruins
breakfast
favou
teenager
feminism
uganda
beetles
bicycle
perspective
marseille
shepherd
f1
lily
mash
##sd
leicester
##onduct
relativity
augsburg
retiring
statues
lemon
welcome
striker
fitness
occasions
hannah
hes
pau
##aan
##yen
reid
chitt
##alli
218
slam
##ungs
trem
kitchen
maharashtra
twentieth
516
higg
##lies
##yg
stir
beam
whis
##ebe
mush
##idea
1794
grig
barrier
verd
hallow
doubt
propag
announces
aberde
germain
explanation
577
a1
homet
riley
tina
zion
shen
unh
uncer
somewhere
impress
merger
shorts
turkmen
certific
persu
tarn
loving
##chaft
indoor
coordinates
427
nurem
##cock
thumb
thurs
##orgh
208
##iry
##etus
##opotam
albanian
median
formats
251
defunct
graub
boyfriend
odys
orbits
mohamed
maritimes
nagoya
petroleum
337
##atist
207
ally
##urrect
carc
indus
nationalism
amor
whereas
happiness
squid
columns
tatto
monkeys
prosper
interpretation
425
borrow
jal
jill
##iates
inten
inns
##ioni
##stop
abe
schne
swallow
cros
reverse
devils
lucia
romeo
diversity
opinions
assumed
graubunden
nerve
sits
yah
##gent
##asso
stuck
##uram
1750
rochester
juven
capable
25th
russians
remark
protector
info
##marks
frequent
##iveness
flavor
hormones
nuremberg
326
dd
hitch
ioc
##nt
##sts
##opus
##ikawa
herr
##ilee
maori
terrestrial
samoa
distant
approval
gardner
headquar
dimensional
dubai
tuber
diverse
challenges
rookie
archipelago
wednesday
645
lift
soria
wah
##olves
##undy
doom
##yson
241
skiers
rockets
##ushu
candidacy
switched
ricardo
trapped
chromosomes
congestive
hr
vrh
##stro
##chu
##osing
shipping
coe
genome
recurring
elena
##gren
churchill
everywhere
antig
destiny
hunger
cyclones
cerro
hydra
communicate
##cribed
furniture
347
435
610
ces
glands
lent
tens
zach
##yar
##bard
sting
##avan
monet
217
obl
##aea
jacqu
fuji
neighboring
toler
##enzie
sensitive
770
cage
dora
jol
vince
##eros
threats
##ipse
carm
traits
226
salem
bullets
collision
rebels
antiqu
sacrament
##graduate
##kinson
feather
##osta
specialist
tomorrow
banking
reacts
toyota
horizon
hometown
323
416
cz
nxt
rode
sams
##amy
heating
proud
marilyn
mane
exit
hert
phd
preserve
versailles
mercy
denied
premiers
amongst
1787
apparent
abbreviation
lonely
tuesday
flet
kry
##gor
##oning
anh
##elius
byron
aftermath
##ulture
consul
humph
887
sandra
participating
pigs
cassette
gentle
suitable
jurisd
328
niel
##koping
##itian
##iments
##akk
##illed
convert
counted
aph
monks
secular
crni
213
emi
##bye
cyan
sunlight
medicines
viking
ensemb
ethiopian
cameras
accomplish
appeals
sacrifice
rahman
locomotive
collapsed
580
cac
vale
°f
##erie
##amine
##lywood
##quel
coleman
##spring
popes
barrel
steal
demol
nearest
defended
##naught
similarly
limestone
eleanor
satellites
seemed
valentine
inherit
roland
initiative
anxiety
345
hos
pach
rous
##esian
##alom
##asu
##irl
##etr
hector
##ampus
##tenberg
##isei
demo
speeds
grab
royalty
judith
hospitalized
abbas
kanagawa
recovery
electromagnetic
provisional
399
415
nab
pter
pagan
sss
##jiang
##igata
##adian
##fering
arte
##asses
1778
monter
##obe
artem
trevor
variants
samurai
1785
chapman
horns
doctrine
fabric
pizza
ajax
hms
pest
pah
yoshi
##comb
##than
##imony
sect
seals
##ups
usb
herz
cologne
decoration
##epp
281
waterloo
continents
crosses
protagonist
curve
telecommun
continuing
##hardt
preservation
scandin
tornadoes
choreographer
saxophon
mughal
760
mature
nog
pard
vick
##zin
andes
spell
conve
##arya
mang
schl
standings
etienne
declined
scorp
reproductive
##continental
discontinued
lj
mupp
##iors
##vana
##idon
##acion
bru
##ffin
248
satan
julio
jeanne
dominated
marcos
cherok
bubble
hokkaido
schwarz
lance
rim
yuan
##bil
##cesters
##umps
spo
knee
appropri
maid
antip
tomas
primitive
paying
brandenburg
commanded
imperatore
drove
shelter
synthes
recommended
battalion
tadpoles
aerospace
auxiliary
##cestershire
629
675
cerv
##anan
##empl
chenn
1780
##ieri
larvae
232
digit
ecuadorian
chronicles
dart
diane
ily
pes
##wang
##bons
##ivorous
abo
booth
grun
symp
trace
performers
##islav
utrecht
encoun
souls
rhineland
sergey
sponsored
moldova
infinite
327
fischer
nish
##jima
##fel
deaf
sergio
acres
supporter
belfast
227
baloch
385
fergus
timor
predict
alfonso
sailors
displayed
exposure
prepare
336
745
841
fy
wavel
stap
##agement
shots
##uca
##ibal
parody
minis
mafia
assess
servants
surin
##lla
harsh
hyde
haj
vega
treaties
protects
ramon
dai
##git
truman
carac
bred
contra
315
midlands
sandwich
medici
rankings
immort
vikings
khamba
490
tier
xen
toad
##adder
saff
overd
##atty
##shine
toured
1850s
manufacturers
robertson
sociologist
intense
639
735
bust
jab
nt
##amon
##entin
##iani
marble
webster
##qual
differential
borussia
tunes
wisdom
announcement
tsunami
811
929
gin
ner
oath
pis
rak
##onzo
lever
dismiss
metaph
228
mya
##201
889
705
fuller
practiced
exhibitions
nutri
nouvelle
##kok
##atin
##rek
##unn
##oded
##esset
rivera
246
405
burm
aston
richards
birthplace
segments
mozamb
329
cus
ely
mistr
wives
##aic
##ajo
##org
##elo
##uria
##odies
afford
soup
##actic
makers
statements
confusion
discovers
ranging
lauren
shirt
pleasure
bohemia
triassic
pornographic
nippon
447
sapp
##wear
##fit
sep
neal
starr
237
busy
rao
revers
midfield
antlers
touring
mcd
rapids
danube
republics
eyed
missionary
concerned
dolphins
426
625
craft
fah
kamp
##alp
##olid
##bergh
laos
reggae
intermed
##301
audiences
owl
##osystem
hyderabad
chennai
526
dana
kof
tud
##lay
##orah
##apes
##icho
countess
quinn
hara
##otta
corinth
micha
radius
paula
visits
cameo
sunshine
philosophical
temperate
princesses
hutch
relegated
kov
mock
osh
##bound
##itudes
isles
##theless
heather
bois
1770
centimet
##ght
overth
249
254
297
braun
selen
option
inspiration
coloured
toledo
phrases
marinos
walsh
bis
kop
lund
##jon
##xi
anah
conven
upset
secrets
295
gamec
355
sentai
sharma
frontier
logical
beyonce
synthetic
niigata
elephants
forbidden
333
cip
irene
zagre
##vement
threw
##olini
bees
##acc
footage
243
mainten
##ukh
3166
1860s
motiv
tribune
describing
funds
controller
segunda
##skaya
molly
eleventh
terminology
nineteenth
navigation
delayed
orphan
subprefecture
britannica
zagreb
419
527
hare
tart
wimb
##cu
##court
##anu
##alliga
##assis
knesset
brush
236
consoles
bret
suite
camel
hoch
posts
olivia
employment
hawaiian
438
615
cena
tear
witt
##pc
theft
ine
hassan
fool
rox
disl
johan
metab
redd
eras
limburg
venues
predicted
estimates
baghd
commentators
advocate
forecast
vacuum
725
cigar
dz
hitting
##iency
##arms
fork
byr
##uddin
agnes
mae
mothers
load
lasts
madame
squar
magnus
bonnie
waltz
diaz
synthesis
wealthy
eduardo
cedar
349
346
338
378
nir
wrap
toes
sociology
##ikovsky
hered
flesh
##erald
239
296
squares
deriv
savage
reacting
peaceful
favour
sculptures
ibrahim
lithium
rifles
dressed
decorated
vaccine
yevgen
fletcher
518
tian
tik
tann
##each
bei
##opol
fee
crest
mounted
##erville
mori
antio
hunters
literacy
1786
commissioned
significance
mutual
##angelo
reserves
348
496
eph
gim
mell
##list
##itable
neill
leh
carne
eden
285
pawn
varieties
floors
sunny
aargau
scholarship
linguist
lutheran
trigger
displays
fellowship
429
721
gop
morm
ust
wies
##arov
stays
heal
proto
enz
ley
newer
abund
compreh
##ibo
pars
stras
##loaded
realized
explore
healthcare
okina
layout
spreading
vegetation
imagine
wiener
elliot
preferred
circulation
philharmonic
418
fow
gly
tate
##iu
##hurst
##atro
##amation
##ithms
##anted
grover
##issel
incred
designation
obsess
garfield
liech
jacksonville
puy
predator
stephanie
disestablished
blocked
alek
atmosph
harmony
##chwitz
halloween
cbe
##jat
##atham
224
islanders
##atories
##ophy
intensity
sanf
associations
collecting
involve
boxes
negro
gaul
encry
luxury
bibl
pronoun
isolated
manuscripts
proposal
wille
##orious
##itas
##icious
unex
proceed
leigh
258
286
interchange
##aldi
balt
##eldorf
cowboys
punjabi
streaming
momentum
dictator
johannesburg
wendy
cylinder
aggressive
canceled
428
620
796
gond
hiding
##ycl
##olism
##cephal
##opods
shab
##umont
##avier
boots
sought
##space
apprent
223
ske
daytime
glam
##aeus
convinc
787
##theid
alcoh
isabella
fitzg
547
627
831
ges
ngu
andr
##iras
whate
orth
firing
sauro
tracy
slang
emm
maggie
hotsp
ballad
mascot
banker
curry
digits
observation
messenger
immediate
kapoor
reunion
feld
lava
pend
ratt
yong
##person
##tham
##raper
unfort
spears
worried
developers
businesswoman
templ
receiver
mcnaught
penal
domingo
lawsuit
oilers
jurist
omn
commentary
ipod
manuscript
burmese
618
748
749
awar
dough
effic
##auts
##bath
##escent
beak
shane
click
##oked
mega
schwe
impeach
219
slim
salmon
viral
cruise
iwata
liechtenstein
343
eros
lach
yog
##jah
chit
##tering
shy
##acts
moth
252
229
iris
militia
humanitarian
arguments
melissa
ivory
antony
gregorian
feminists
vulner
eisenh
unsuccessful
apartheid
cherokee
whatever
unfortun
377
446
akh
cull
eul
erit
pik
##part
##itational
##odo
##odont
##acan
leone
aryan
trench
serp
augusta
##cession
##aires
276
1783
pageant
mammal
advisory
konstantin
448
996
fathers
tension
shrew
spotted
##ryn
allison
acron
elm
myers
381
pirate
piper
update
schmidt
quran
commemor
thursday
gamecube
376
396
ning
oster
pose
##fil
##etically
spher
sphere
##cliffe
flame
noct
273
##ophren
petr
mosqu
beaten
airplanes
clifford
subsidiary
maintenance
445
626
bian
ej
thank
offspring
schum
saone
providence
annually
peaks
radar
membrane
##hei
explo
sentences
prevention
thrash
571
hanover
suburban
stevie
sterling
esperanto
miniseries
nutrients
439
538
635
kell
##pi
##zilla
##ucn
##erness
aggreg
presley
244
emilia
313
takah
##former
squir
panic
465
payment
goalkeepers
astronauts
nordic
explorers
offering
buckingham
##piece
cineos
biblical
726
watt
yus
##dia
##hog
##ceae
deities
ort
presby
groß
creed
303
retreat
##ofen
patriots
trailer
cerezo
distinguish
chevro
evangelical
schizophren
juventus
795
gag
tamb
##200
thief
##athi
schu
##zek
tottenham
##ledon
1784
prav
fukushima
regulations
gifts
prehistoric
ensemble
aboard
611
naw
wade
zimmer
##pan
##inh
##stock
chow
plug
brat
resurrect
##ographies
obso
288
accent
raja
verses
esther
goodbye
posted
measurements
sylv
echo
##kirchen
professionals
riaa
baghdad
fitzgerald
398
bury
dort
hail
hanna
kah
wyn
##ications
##adan
asylum
lep
1620
guam
helium
sketch
299
incor
farther
greenwich
ronnie
sabha
laser
tailed
optical
disabled
sovereignty
situated
terrible
destroying
guinness
mccarthy
539
995
bots
mito
tna
zu
zee
##erman
##alous
##ersdorf
hepat
##utz
fries
mangan
weber
harp
261
cyrill
366
bordeaux
faust
##cheon
##eldon
familiar
levy
riders
wonderful
intersect
gaelic
omega
548
535
cic
nue
oleg
wan
##hara
##inge
revel
chapt
asth
marino
meal
dob
257
cardiff
hunts
vaucl
mistake
dwight
441
436
499
528
676
825
lager
oita
uh
##itone
##sei
offs
airing
bihar
cyrus
768
jules
involvement
sahara
nikolay
lagos
antarctic
nassau
clyde
phantom
935
aal
dah
duss
gore
lia
lum
sque
wong
##ilst
##iland
##chin
shor
comunes
pepp
##acent
sof
##ussy
teresa
##501
civic
##401
condem
451
757
panther
praise
aliens
terrorists
employee
##escu
archaeology
orientation
gaming
gamba
subsequent
reconstruction
faso
sapporo
dino
ero
wards
xiv
##worm
##nels
##itiba
##agu
##agna
seab
orton
butt
goat
resid
298
##appy
missed
confidence
boards
murderer
environments
carbonate
pigott
jenny
installation
##rophys
decreased
inauguration
puzzle
jacqueline
obsolete
529
616
718
927
931
918
ramp
raven
inver
##ching
##abul
##izh
##azaki
elton
283
legit
titanic
406
burkina
performs
bowling
participation
estimate
bunny
tobago
##grave
ceremonial
phenomenon
evacu
eminem
chapters
512
649
716
926
bae
cube
lime
nah
pipe
vom
wi
##kas
sto
##imon
nec
adject
winchester
howe
##appa
311
##ophyll
ecosystem
characteristic
matilda
viola
767
casino
hussein
nationwide
occupations
removal
neighborhoods
torture
kurdistan
nursing
middlesex
headquartered
awareness
cyrillic
322
495
537
hust
##agic
##gee
centered
brien
##undi
registr
##onscious
buying
259
walked
314
trainer
lester
closing
persec
abdullah
##antha
sprinter
integer
ricky
correctly
tragedy
437
dund
gia
kens
mie
vitt
##vey
##jev
##eti
##ules
manages
apo
##weed
recall
suprem
277
##801
bulld
strauss
mahara
removing
funding
bedford
nagar
renault
thermal
botanist
withdrawal
798
936
939
bates
caf
iucn
pomp
vog
##arina
chee
##aparte
canyon
##pha
##iku
laun
fins
loos
271
##flu
natives
##tym
motto
constantly
carnivore
##nikov
vowels
casualties
upgraded
anaheim
eisenhower
chevrolet
vaucluse
519
778
937
915
eut
gb
gould
##rance
##has
##aren
##eling
##chel
##oder
pean
##ibe
1650
dried
relax
amadeus
supple
##psy
karnat
benin
reporting
crimea
excav
oriented
rumble
chronicle
guadal
wimbledon
449
637
647
gou
mish
##hal
##yst
##pox
onwards
comments
noel
307
234
##auf
312
presentation
settle
50°
dense
panthers
cello
sylvia
havana
throwing
conversion
pornography
goaltender
innsbruck
karnataka
728
717
aware
cows
dams
fare
##liest
##beck
##edon
anten
##ieux
mank
tradem
webb
1300
eds
##ancing
endors
succeeds
angelo
ideology
881
arabs
hamlets
ethan
observances
flynn
assisted
dealing
teenagers
respected
answers
explosive
seriously
botanical
portsmouth
dresden
498
690
678
736
euk
rt
xvi
##cho
chol
##rab
congreg
peach
##ustion
manifest
disband
22nd
emble
##boo
avo
variab
donna
floating
taliban
386
insert
doctorate
inventors
rotation
bosnian
brighton
disputes
sieg
seventeen
hemorrhage
546
619
827
fier
nara
##aul
##thou
##ameral
ches
##ieg
mare
##upta
maybe
233
loose
landmarks
mcg
thomson
lucerne
flee
sexuality
hemings
tails
##adeshiko
dodgers
possession
bacon
ornith
batteries
auschwitz
hierarchy
sacramento
presbyter
549
638
975
976
bb
cuc
kuz
nadeshiko
sime
##rooms
##lean
##adt
##acon
canucks
##uko
272
astrophys
384
targets
savo
##ricke
1763
absence
barton
cleaning
calculated
pharmac
crusade
gujarat
925
koll
luna
nim
paw
tl
##oys
##wara
##mor
##ilder
chant
une
roe
preach
goldwyn
volks
357
hampton
shoots
separately
mandela
diagnosis
discussed
customer
531
746
848
gis
gaza
mab
nost
sagan
wart
##mings
sticks
stunt
chips
trium
basically
champagne
278
goodricke
##601
408
##force
firefight
661
renown
conducting
581
agrees
frederic
omaha
plasma
hs
lus
lips
pt
yi
##uya
##bles
##anum
toile
##uti
##ums
counting
boog
##eyer
parana
crem
287
263
262
279
naturalist
359
sato
andrei
hubert
laurence
lionel
parasites
cheaper
dawson
815
kee
kashi
mating
nuts
##kw
##inga
##iston
##ovna
enrique
1740
coaster
calm
steep
##aneous
secretly
363
387
referring
miracle
speedway
landsl
underne
chaos
beneath
vegetable
cocaine
bomber
glacier
predecessor
underneath
839
875
919
baz
kak
tears
##ør
##inos
##inians
##rous
chun
arb
##club
syrac
booker
284
define
marty
402
wanting
casc
twenty20
mortal
travis
jagu
aurora
wireless
hammond
rainforest
417
aks
biz
eternal
##kk
##hot
##enes
##ingly
##enta
twelf
bladder
highlands
addiction
509
407
memor
darling
rubin
tissues
kyrgyzstan
campeon
ambulance
twelfth
636
775
776
bant
bick
etym
pork
sf
uly
recept
tej
##icians
##ilde
finale
##anka
intercontinental
victories
358
facto
461
owens
pleasant
principality
hormone
syracuse
928
aims
rij
tired
##isle
seiz
##illac
frib
earning
strang
##epants
242
filipp
invisible
masses
##901
browns
486
cannab
emerged
kirch
aeronaut
adaptations
apparently
neighbourhood
imprisonment
cognitive
599
695
845
jaws
lass
##rang
shannon
cone
joa
grouped
stark
castell
godfather
508
camden
etat
361
367
655
bangkok
protecting
casey
generated
katie
rajas
klaus
suspension
autobiographers
isabel
##recce
atmospheric
alcoholic
324
423
648
921
bore
gains
hons
nils
sq
##rage
##wen
obst
covent
368
455
punished
605
bonn
telugu
nepali
clinical
container
gravitational
thermodyn
squarepants
sanfrecce
incorrect
621
878
poc
xavier
##had
##leader
cheshire
shik
ori
neust
##uder
genius
italians
##esha
seeking
356
robots
satir
458
treatments
485
liefering
draws
dirt
townships
surnames
essayist
restrictions
vessel
quartet
procedure
sturm
642
876
jah
wad
thuring
##arest
##thood
##entric
margin
linds
1598
dozen
##ffy
underworld
empires
##sha
##ophil
posit
raph
565
579
bundest
##know
applies
cowboy
vicente
gabrielle
reelect
wreck
discipline
confucian
telecommunications
020
699
799
niss
tiff
##rach
##ritic
engra
disgu
##auss
ups
289
sportscaster
paolo
radi
publishes
505
murd
devoted
cardi
certifications
987
sequences
bombers
1768
manufactured
kashima
extraord
cosmic
rebuild
surfaces
troms
mvp
342
838
joke
##vy
##edge
##reuth
##ichy
indicated
274
colleg
labr
ruther
possibility
555
explosions
##claim
megade
olivier
giorgio
schizophrenia
fribourg
bundestag
bisc
deng
dante
eure
kiy
rc
ال
##rington
##lis
stating
##ignon
##estrian
gron
artwork
listening
282
characterized
sunset
884
catholicism
catalog
481
1782
bonaparte
1758
archaeologists
lambert
chlorine
ferrari
conversation
surrendered
dixon
uranus
natalie
cromwell
megadeth
998
bench
kats
mn
pony
wen
##jav
##pill
stam
hew
bez
chung
##mental
carriers
indirect
1779
1100
regulation
amino
294
missiles
808
334
332
hoped
lovers
bottle
decrease
1840s
vorarl
delegates
renewed
consciousness
dusseldorf
729
719
877
fury
het
hai
ips
yv
##cus
andres
##ionale
##igl
##church
itunes
proclaimed
pratt
marries
phyll
ammun
cald
30th
slip
obe
annabeth
bremen
karate
collector
383
synch
vaugh
weightlif
lamborgh
jenkins
hernandez
favourite
aberdeen
certificate
michaels
erotic
819
duc
henn
mk
mug
mama
td
zap
##bys
##pse
##fur
##roads
alain
alma
plata
meck
gob
minds
assets
jealous
villains
humanities
freight
704
388
independently
jonas
spinning
confederacy
swords
bugs
##rupted
outdoor
andorra
tubercul
mozambique
080
432
536
646
632
828
849
lb
xin
##roft
isn
beard
seam
carth
1760
mayflower
contents
elf
23rd
landkreis
##otting
gluc
grac
506
403
musicals
robb
456
965
786
##iyah
kilog
promoting
mercia
unconscious
crystall
harmful
carpenter
prayers
hepatitis
050
696
938
katsu
vass
##hy
##fu
andalus
linz
demons
revised
855
379
funded
banner
macedonian
norte
volunteers
tactics
ammunition
739
826
dover
rides
##oise
invert
whilst
##akura
protons
fres
##upe
usher
##ecy
warming
265
supermark
competitors
honol
halo
georgetown
765
685
circuits
fleming
bhag
bulls
integers
approximate
couples
gathering
vorarlberg
598
698
916
benson
ding
fior
lc
lid
luch
oman
panch
saves
tes
##ocated
##umen
excess
boo
scared
##izations
adds
1737
whenever
cron
291
archd
raiders
369
457
nobleman
baba
785
1781
bollywood
mandarin
freddy
reformation
nagasaki
sailed
vertebrates
rescued
ensure
joyce
lecture
clerk
vagina
drainage
hymn
falcons
lamborghini
honolulu
070
cush
fou
fencing
kand
korn
yel
##ruz
##hang
##jet
##jak
##sta
##otr
##akar
grampus
weaver
avengers
extent
donated
silicon
circles
rounded
primaries
boyd
488
tunnels
controlling
cocon
iodine
anjou
efficiency
eukary
633
835
tara
thur
##adic
##opy
worcester
##action
nationale
haun
##parents
883
354
dunn
options
hydroxide
challenged
##optera
lymphoma
rectang
supercentenarian
ferguson
010
060
422
442
738
837
dae
fert
tc
tuc
##mb
##asan
##opa
enroll
newport
apes
apples
##iera
metam
carefully
##ulla
##apped
##brand
taluk
708
371
theatres
573
commanders
cathedr
repeat
subdivision
narrative
licensed
lv
mih
za
##ratic
##eet
##nis
##aroo
##mans
twil
cray
quentin
##annah
metric
292
locally
retro
lego
cyt
404
##hao
806
985
semic
gasoline
attempting
falk
alej
##lenburg
##ommod
sophia
helicop
beetle
sanctuary
midfielders
comprehensive
asthma
847
829
biss
cag
dic
gat
rational
##hear
##atri
##eba
tek
dias
##ikes
##eps
305
slope
264
transmitted
accommod
myel
myths
##loe
downs
antagonist
507
sunni
behalf
755
effectively
beatrice
##holder
taxi
sabbath
dimension
numerical
gathered
sponsor
tubes
zelda
eclipse
524
572
846
cory
pts
rai
zoe
##lake
##mart
##anam
##enheim
levi
webpage
##grass
293
remar
brett
##writing
sometime
argue
362
collective
azad
866
858
renal
protective
armenians
significantly
locked
interaction
##kirk
dialogue
antibiotics
strasbourg
renowned
040
816
997
hap
qin
rih
ucc
##rats
incl
isonzo
##aden
chew
##ocation
##aryn
##udh
##endium
blaz
genoa
outs
assyr
barth
locks
invade
409
lowe
574
aquarium
bitter
resistant
strengthened
alexandre
venture
distinctive
arsenic
artemis
397
597
fon
kolk
vissel
##mg
altar
shrek
uncom
condom
carb
sche
amn
quarters
remn
intest
solving
mesopotam
##maid
soviets
352
robbery
ferment
gallen
865
468
semif
seminary
potato
colonists
rodents
wishes
anastasia
apocaly
samsung
intermediate
412
643
iq
nj
rik
##fus
##idy
una
cong
exchang
adele
1596
lighting
autism
882
damages
processors
968
heinz
restricted
obituary
bamboo
deutsche
caucasus
babylon
willem
lindsay
raphael
rutherford
021
011
672
bite
hats
nij
wacker
##makers
##eras
##orio
anita
shia
orion
concluded
clare
tricks
brend
recr
##azzo
elig
306
##boat
capitalism
ballets
mcn
cheer
bolsh
protestants
drops
freddie
poker
guyana
consonant
consequences
discharge
393
634
836
818
bould
cache
giro
nos
oro
pius
##100
##inte
alam
healing
unw
manning
1730
disks
stranger
simmons
everett
sixty
##ijk
equally
805
466
##steen
666
rosario
reigning
vacation
bacterial
dimensions
giul
balochistan
tuberculosis
394
523
dord
dair
ecc
hig
kou
panda
ull
vort
thal
##itely
toads
##adier
cheng
marriages
adul
grades
relating
24th
valais
waterfall
imdb
array
troll
606
867
869
668
##uhr
dynasties
futur
diplomats
teddy
gateway
lexington
cunning
sesame
nguyen
goss
hess
jov
kiev
pang
sis
##tw
##emer
##ieve
##ifier
##achim
26th
daylight
walks
318
varied
453
boxers
##rolog
##ppard
cordoba
descended
reproduce
mckin
sacrific
portraits
aristot
recreation
pietro
substitute
scooby
nutrition
mistress
391
733
icc
kish
pash
##elong
##andan
unions
trunk
induct
1766
desk
airs
slash
268
extends
sonny
silv
errors
351
802
machin
##ihu
renov
bellmare
protesters
cooling
burgundy
permanently
consumption
opportunities
outlaw
carnegie
twilight
392
##ilion
stup
##osi
conclusion
fry
##ikon
1621
slayer
transpl
##shan
email
parking
expelled
latino
hillary
insult
665
darker
wilderness
koz
871
bowie
kerry
mantle
absorbed
algorithms
witnesses
lyricist
414
522
712
ceb
hilton
iro
lays
rp
##aid
##gil
##omiya
##berra
spinal
diagram
##eye
##techn
deserts
##aira
##ssel
harriet
grandchild
arranger
karab
melan
452
955
967
373
accessible
dreamworks
demonstration
##eboard
rituals
segregation
saxophonist
trademark
027
413
ego
jou
jade
kut
##wy
##arie
alter
chili
whitt
1741
##clair
blamed
1560
1590
depicted
assam
rememb
reduction
malaria
erich
702
608
651
developmental
763
686
psychologists
674
liquids
feminine
utility
python
judgment
humphrey
appropriate
dortmund
497
591
797
bree
burr
dumb
kung
lena
mh
nay
ness
##word
##cra
##lemy
frat
compass
carrie
blizz
goof
slower
simone
realm
takeoff
959
commercials
wheeler
granada
paleont
tehsils
czechoslovak
amphibians
saxophone
skyscraper
372
476
543
514
gamma
mund
pistol
rs
rivals
##ан
sts
##irs
##ignan
spd
canary
fey
manor
associates
erup
franconia
inflamm
958
theresa
orchestras
dolls
reveals
imaginary
michelangelo
shadows
##birds
pupils
patterson
uranium
##through
metamorph
026
cement
zip
##uana
toe
##imoto
enlight
lea
tect
canberra
##erna
lax
perce
mons
southampton
betray
proven
308
slalom
avis
majesty
##evich
melt
garrett
459
institut
988
eighteen
tarzan
opposing
charleston
1765
aerial
anatolia
poisonous
pipes
##millan
nigel
temporarily
##employ
campeonato
honshu
mecklenburg
cathedrals
433
713
cis
hanc
j3
lump
muc
teng
##wari
##kal
##vik
##code
##arius
##omed
alumin
hect
spear
##iale
clusters
partition
##ikan
##anson
1748
1774
joao
decimal
coburg
airb
makeup
##ophys
##brian
##inka
extract
physically
balk
torped
756
656
986
781
681
venue
671
claiming
vasily
rudolph
clayton
podcast
deeper
caterpill
brilliant
botswana
variables
etymology
helicopters
3ds
544
gaga
tcha
##agos
bran
singular
deskt
269
irrig
erin
workshop
entity
garage
382
607
curved
462
688
naj
legislatures
speeches
remainder
sulfate
attributed
truly
yadav
tajikistan
schneider
513
644
tide
##frey
##eson
##asio
##ocar
##estan
##estown
miners
smile
barra
filter
##inde
countryside
suv
copied
353
604
wilm
861
467
kras
photographers
##wright
treasures
bucharest
lizards
##foot
recommend
specimens
scattered
oracle
higgins
odyssey
okinawa
##jatjara
beds
dab
hue
kik
mour
ngc
pots
##isan
##uno
mari
clap
1729
brenn
weiss
302
everg
christie
##iewicz
farra
casting
##470
703
moselle
duet
857
anthology
1755
bolt
scratch
searching
lamar
quantity
placing
examination
isolation
renewable
025
475
594
977
aki
dove
fiber
pike
poul
vip
xii
##zone
tope
unemploy
ida
probe
##ongo
indeed
##obacter
304
##etsk
##itsu
totally
mcdon
maternal
##baum
758
hunted
bloody
469
788
557
inhabited
payne
liberia
cdu
gabon
consultant
yourself
593
617
697
cody
fulf
rage
##vre
##andi
neuch
conway
trips
sheets
1745
livest
##ensburg
noon
267
266
##liner
louisville
roberta
364
706
mountainous
487
dreaming
bryant
thunderstorm
kathleen
witches
multiplayer
unfortunately
##abulary
extraordinary
443
533
794
843
912
cited
lys
nests
vad
zack
##bee
##chy
dexter
1736
1566
goose
attending
surge
undergraduate
subcontinent
##inders
godzilla
burt
macmillan
coastline
reads
##adox
556
568
privy
completing
shootings
fantastic
safely
##books
ssr
##rapers
sutton
volunteer
##music
guerrero
aluminium
tchaikovsky
neuchatel
344
714
gus
hath
##rise
##auc
##far
##fun
##zier
##arine
##ptic
1720
perkins
##ormal
lars
rockef
seneca
specially
needle
peterson
##beat
willy
989
rolls
rodney
flooded
marsup
alfredo
tobias
anthropologist
pseudonym
hogan
hijack
councillors
mosquito
542
517
722
awa
fond
pog
##kl
##pot
##raf
pey
##antly
##orts
comprom
1772
overl
50th
haitian
halls
gotten
sunderland
966
766
667
567
bombard
1759
watches
randolph
polytechn
chamberlain
hellen
concentrated
forgotten
vastra
jubilo
817
dend
foll
mord
nath
wand
wounds
##bh
##oris
##inen
##amous
##esti
carved
northum
registry
bare
regionalliga
319
midway
castel
obsc
garner
389
keynes
bayer
fauna
483
combine
somali
navajo
tellur
poorly
1707
exclusively
fourteenth
cpu
immunity
skyscrapers
emblem
917
991
cw
kost
pamp
##rs
##jack
##ædia
##atom
##asco
##ombo
dece
cola
1773
twist
##alya
653
463
689
galicia
predomin
679
baha
sanga
botany
uncon
shelley
dodge
sparrow
khalifa
kashiwa
592
742
924
dill
dive
jug
viva
##enant
ismail
alicia
chich
ars
phyl
acknow
servers
veronica
astur
toro
fails
crafts
textile
goalscor
673
contracts
touchdown
prevented
chandler
cryptography
aztec
labrador
491
493
623
824
aro
geb
pomer
sino
##onn
##isal
##irang
shields
unification
neville
##itya
spiel
sparta
clients
apache
parach
warwick
willing
highlight
eli
##ectal
colorectal
##270
petrov
602
citation
vanessa
956
868
856
658
489
566
879
tablet
marcello
jennings
definitions
geneal
lazio
conventions
jurisdiction
rockefeller
677
eich
gilles
lighth
##iqu
##hov
##ml
##zt
##isition
##amel
stoke
##etian
forcing
aside
shores
arv
canoe
exter
clade
##ibilities
engagement
christchurch
316
imam
deborah
halle
execut
654
breakthrough
separates
374
vault
packers
assassin
laurie
corey
nanjing
deposits
yamagata
pilgrimage
tattoo
disbanded
neustadt
444
624
kod
rains
##vide
reys
alison
##chuk
stack
polym
adolph
1711
laus
weas
palme
bandy
transmit
builds
cataly
devast
862
deadliest
medications
ashes
kanji
baked
drought
calculate
worshipped
stevenson
kabul
simplified
dolphin
folded
reprint
propaganda
rajasthan
hancock
hild
pens
uc
##bies
##alysis
prat
arter
1749
bram
quot
##ports
lateral
invas
##itsch
incarn
goodman
settings
garland
mosques
859
gunn
687
683
boulev
carnival
ghosts
escapes
ugly
flexible
crosby
serpent
aggregate
presbyterian
791
bia
ebert
kany
nymph
paz
vhs
##chat
##umed
exha
1715
1640
harass
stealing
killers
develops
hyl
troph
hoh
nevertheless
ulster
779
gauge
confirm
wolver
encourage
procedures
chromosome
vishnu
hedgehog
enzymes
aristotle
desktop
724
bing
nast
##rish
##pard
spies
1685
1599
buk
weird
assists
backs
braves
davidson
ballot
709
809
582
banana
planetary
bunker
heavier
theodor
lecturer
lobby
claudio
voyager
marxist
jakarta
improvements
strictly
dictatorship
collegiate
io
kc
nets
pug
##mand
##ᅥᆫ
##illas
pras
##udo
afro
boone
1721
barker
##ropods
volta
turku
553
971
photosynth
transformed
lizard
inaugurated
bankruptcy
030
424
kant
vos
##lights
##post
##fin
##xton
thie
##orum
ching
peac
diag
##uco
##ibald
1746
##azu
careful
corb
designing
tops
criteria
descript
902
652
choices
hawkins
staying
1757
appointment
otis
constituent
ibm
ryuk
neutron
phillies
##criptions
prefix
unhappy
dairy
090
031
732
793
812
dens
gland
kami
nl
sina
wester
##stick
##stable
##emes
examin
paradox
grants
##obar
alba
builder
guid
##loid
extend
vienne
freely
hoover
petrol
657
484
682
smithson
burnt
pueb
bouches
benny
habsburg
infinity
1830s
fluoride
sustainable
acronym
peppers
041
434
ket
nolan
tz
##onen
##aram
##atism
##leigh
stability
shout
spice
##izers
grams
organize
##aev
morales
battlefield
firearms
joseon
informal
balloon
759
painful
batista
galile
methodist
##print
namely
dissip
morton
bertrand
correspondent
russo
hertfordshire
622
fidel
##nir
##tail
##fields
##edel
##rob
leis
compat
compuls
##ensky
edmond
terrain
28th
gloss
deliber
williamson
physi
grains
royals
957
981
558
pottery
##daughter
shrubs
originating
commercially
jonkoping
daniels
abdel
##zyme
lyndon
cumber
demands
adjacent
increasingly
specimen
avalanche
convinced
torpedo
534
612
923
972
cf
dus
jing
pou
wagon
##riz
##ched
##adia
##ayana
crescent
309
27th
ecological
developments
caste
goldberg
superstar
promises
crossover
969
769
669
julien
conservatory
riverside
kenyan
771
bolton
reportedly
##backen
elimination
poisoning
ichihara
cecilia
daddy
dynamite
prostitution
niece
hastings
maltese
avispa
topeka
478
drom
hick
jod
moul
nil
oval
penc
pena
##los
##elope
##chev
##emont
seym
neolithic
##ugawa
##uben
exiled
clint
1725
artif
paler
##ankton
lois
loch
##ainty
olympia
irreg
504
config
equil
samantha
frankie
603
659
pascal
audition
##guard
padd
49ers
custody
##untary
hubble
mentor
destroys
viscount
manganese
eleg
kro
vander
##iq
##vine
##beth
##power
##igraph
alley
stole
unix
##ipur
ware
gerry
guided
dividing
myspace
raul
episcop
454
482
561
569
sinks
dissolve
addresses
##grove
gdp
turkmenistan
registration
691
743
823
cern
jedi
sars
zw
##iem
##mium
##prises
isis
chassis
##oding
linn
clocks
engel
1521
basal
harlem
consent
transpar
##ippers
##vester
macau
753
962
##iyama
magnific
celebrations
pyg
1764
immigrant
crustace
emphas
reorganisation
trafficking
nissan
irregular
532
792
aman
gong
hm
##iast
##geme
prisons
manfred
boost
scroll
##izo
1735
##kson
gerhard
eddy
swab
restore
robbie
distinction
751
holdings
combines
objective
5000
sweat
padma
ipad
thorough
##ithmetic
skilled
nathaniel
hodg
dudley
byrne
hereditary
kensington
472
833
933
bows
vu
##vant
##bold
##jer
##jud
##onov
##stones
relev
dei
##agin
##rak
leima
arithmetic
cannes
agr
brune
minas
reginal
mai
##urnal
metac
##letter
companions
##cca
revived
##aldo
labyr
502
gotaland
tenure
woodland
collar
planted
plantation
baton
973
sculptors
touching
pushing
dynamic
injection
rwanda
overthrow
vulnerable
boll
bump
lyd
pto
##zman
##arat
andhra
##iances
##iped
##eburg
##ostic
blanc
poit
belfort
##ollah
sla
317
michele
golds
activism
storyline
explored
masks
609
761
789
782
programmer
551
559
commands
editorial
unlock
krakow
crystals
weighs
tulsa
jumps
blessed
inheritance
thuringia
karabakh
813
buc
cah
kins
nr
strom
##irts
enthus
clive
##endale
##ansky
1550
1595
departure
loth
simul
##unga
governmental
avant
esk
realizes
latitude
copp
putin
cease
prompt
knowles
464
corners
synag
dunham
difficulties
nicola
confederations
illnesses
integration
deutsch
innovation
snooker
wanderers
phylogen
##video
boulevard
494
772
814
cen
gle
tiber
zah
##yder
##ifax
##aceut
1728
cob
apps
famine
stripe
rows
modes
##ometer
shortest
handling
devi
807
954
784
664
privately
bombay
hansen
dubbed
archaeologist
velvet
mystic
troubles
##balt
simpler
grandmaster
fragments
jasper
cinematic
peggy
bambi
unexpected
834
aq
cels
cynth
naut
oj
pact
wond
woo
##words
##nic
##nake
##bot
##puts
forget
chim
sele
shine
planc
peck
thatcher
lethal
##abria
sci
lai
mona
##issions
regency
livingstone
##awar
##heit
urb
flores
503
washing
864
563
562
773
##zzi
unclear
nakamura
demonstrations
ingrid
gymnastics
arrows
bmw
jewelry
convection
glucose
b2
foul
homin
lunch
lumin
sins
viz
yoga
##thor
stella
##opic
##raj
atari
orang
##lectric
rede
treating
defines
macc
754
curitiba
racist
663
##aptor
hopes
graduation
974
1769
improving
1565
wyatt
salvation
expanding
concerning
leopard
fibers
eduard
guarant
drowning
biochemist
juvenile
suriname
cipher
spherical
eccentric
613
hatt
nud
##yin
##anese
chil
chav
chau
lean
prints
##athlon
clip
pollen
1718
medina
creators
walton
incorpor
malik
halifax
petit
961
chairperson
privacy
drummers
photographic
gorbach
clinic
grossing
infrared
cinematographer
inquiry
weiß
kaiser
saffron
614
934
dign
gull
oasis
pv
sich
##hou
##may
##yp
##eses
shade
shire
clone
carriage
norris
1723
lawn
coch
reliable
nationals
##lli
corpus
avon
moreno
wilde
979
1656
sioux
kerr
mansfield
##garten
apostles
jumper
lodge
italics
anhalt
rihanna
reginald
riz
zolt
##aud
##vist
##zyn
tow
##aming
##ersch
aria
playable
boiling
herod
allig
disag
perf
albire
barney
interval
karak
752
drac
maxi
cellular
1658
pyotr
huang
moments
electorate
substant
mutant
refuge
vaccines
chopin
malayalam
bipolar
tudor
hotspur
eritrea
seymour
744
cyn
gaining
nail
rans
u2
xiii
##dc
##wind
##nitz
##tal
##alach
alert
forrest
##estr
aren
mariana
##soon
herbs
1680
1675
nationality
regina
guys
apprec
salad
vijay
montp
cephal
racecar
863
boarding
medication
474
bahia
gilgit
regardless
weighed
thornton
ghanaian
unsuccessfully
kow
lust
roster
##dh
##kowski
##ск
andrey
##olome
##isto
shat
sheldon
##allo
plato
ariel
##ansson
##assa
lao
1676
greet
geo
##iero
elias
animators
salis
billie
politically
journals
occasion
screens
micron
##erback
1754
buffy
gonna
prelim
anglia
fascist
guerrilla
staffordshire
coconut
reysol
922
auction
bells
corro
ditch
jockey
jensen
kyl
nachi
tyson
weld
##went
##icy
##leine
whip
fright
clans
##ansen
1710
##ouss
##clamation
flip
minsk
lix
elsa
##ankar
sims
sufficient
ethel
662
strain
873
pubert
##backs
frequencies
shaft
finishes
arrangements
jacobs
montevideo
wurzburg
tickets
claudius
fertility
abundant
resurrection
fertile
alejandro
kolkata
##aceutical
734
842
##dar
##jas
##front
##inished
##alist
##oved
chimp
##oking
carmel
1714
perception
##onshire
##ologically
attitude
##sses
obey
##ophone
mermaid
socialists
hostage
clever
papal
951
963
984
combustion
564
479
telenov
tanaka
investigate
focusing
buchanan
javier
improvement
lugano
overdose
cynthia
913
fus
rin
##rics
##ech
##zens
##orr
##atl
##isen
##icity
##agher
##therland
conse
##arde
##antan
claws
##achal
1747
1727
syph
desper
helpful
urine
##iros
raped
803
protoc
microbi
exceptions
471
orchestral
illustrations
gibral
gambling
awak
occasional
gavin
tumor
negotiations
822
894
993
lening
mj
##kick
##cell
##pen
##zes
##uld
nex
conferences
edible
amelia
charente
airplay
establishing
mets
backup
bandleader
merry
graff
cope
primetime
convicts
964
introduce
orbiting
cinder
unders
licence
tatar
butterflies
prospect
implementation
uniforms
##build
shonan
899
cv
cout
coca
ks
mw
rama
##atio
##itory
chord
prose
joachim
1040
##eco
monts
canadians
sutherland
##psis
camille
##370
jewell
woodlands
distur
prototype
554
privile
josephine
874
watts
respective
katrina
ethnicity
##wski
demanded
intercourse
mussolini
cannabis
723
872
891
914
##ser
##hak
##bas
##onte
##chool
coma
pollin
1771
##qui
buttons
bloss
pert
##leville
scho
scha
brooke
amin
himalay
tyne
static
severely
popularly
##211
entries
curs
modeling
684
##verse
1655
saddam
ladder
##ascus
##iggs
brigadier
rivalry
telescopes
excellence
crocodile
rovers
##stroke
katsuura
844
932
994
damp
huss
jinn
lied
pants
##ng
##pit
alum
stain
##urd
whal
shake
##abo
1649
acre
trails
helene
##intosh
throws
##indy
kitty
##rico
richter
marking
rhy
vegal
finalist
764
ghaz
007
chooses
potatoes
##oshima
774
furthermore
##roscop
##chenko
steelers
mentions
jakob
jubilee
nouns
helmut
councillor
gloucester
monetary
smithsonian
albirex
vegalta
477
492
euth
hoss
sark
tips
##lass
##mia
anonymous
##omans
stems
ono
chong
##akis
trend
compens
adel
madeleine
backwards
smallpox
emile
midland
solved
snyder
melanie
samar
baller
semen
585
1767
hanged
theorist
yugoslavian
reserved
mistakes
elderly
reeves
andersen
neighbors
boulder
livestock
puberty
leningrad
693
832
gour
##sf
##tics
tha
##enau
##aret
togo
prok
spur
spices
##ipa
mei
flux
guides
palau
simulation
olympian
villers
irina
snout
nobles
983
552
baja
springsteen
akira
473
slee
touched
filling
beside
matthews
integral
ponte
lafay
zombie
mesopotamia
blizzard
694
892
946
fang
fuck
jurg
pace
sj
xena
##oot
##nay
##lang
thel
##asian
alvin
##irk
chill
##rav
##antis
manson
drift
baritone
interfer
varese
trojan
osborne
853
juno
wingers
pharmaceutical
repeatedly
sankt
dalmatia
fyodor
saurop
loosely
##byshire
labyrinth
lafayette
arom
bd
bunch
cet
cough
faw
nk
oph
sb
tones
yakov
##wat
##inating
##arna
##elas
##adena
##tera
##umo
##esta
energ
##abil
##onga
##ogens
fein
compression
hera
##ulton
cobalt
##onson
strips
quin
backed
superst
##eshi
pauline
olm
egyptians
insane
costumes
citizendium
owls
burgess
pontiac
disappoint
napoleonic
auburn
cliffs
homosexuality
affiliated
symmetry
palermo
boun
fencer
joker
nank
vapor
##hyn
##anza
toh
forts
plut
prost
proton
abram
apolog
mein
1731
1726
1738
warrant
amos
els
barrow
skat
##atorial
arche
treason
operational
##onyms
intens
santander
damascus
derbyshire
953
hungry
851
982
762
identification
committees
documented
randall
embedd
explosives
hiroshi
lectures
laurel
framework
##ablanca
erosion
ulysses
joaquin
coventry
wilmington
executives
024
893
xp
##mod
shrop
shri
mez
norwich
ada
1739
1716
1660
##obic
gloves
farn
khor
socialite
##irol
ruff
783
kinder
quarks
oxidizing
analyst
pursuit
annexed
sedimentary
posthumously
apprentice
launches
triumph
goofy
northumbria
gaut
haus
jiang
kep
ping
pint
tain
##dn
##cence
##iona
seville
lec
##quil
##unders
##ecost
augustine
##yss
trauma
barrett
slender
heading
##brunn
bias
mald
authent
bali
nightmare
mrkos
charted
juniors
choosing
audi
kohl
certainly
##rology
gangster
lantern
kangaroo
hazel
inaugural
marquis
demolished
shropshire
iau
kuro
pim
saus
yash
##women
##uis
##haven
##itate
##ulam
##umar
compare
1670
maure
bela
themed
surpass
module
busiest
valve
##shore
glow
irwin
daup
natasha
##afi
952
cycles
mahab
inventions
doris
snowboard
monarchies
investigations
sultanate
bohem
constellations
petty
orioles
murdoch
dl
dorn
sights
##lift
thesis
##alm
##ulas
1638
##leva
##icki
schon
pooh
loir
simult
epstein
keen
granddaughter
sniper
traders
aziz
paso
reactor
taxon
katy
glasses
toni
patriot
transformers
rupert
mongolian
drowned
epidemic
mauritania
oscars
cunningham
bain
emanuel
mound
sans
xl
thou
##thitta
##irn
##etia
unn
nect
spro
mecca
norr
php
1519
saud
euros
endemic
retain
##shi
magdal
intention
##106
actively
henrik
confident
technological
destinations
804
murderers
felipe
absent
axe
controversies
faithful
lavender
gambia
pentecost
tokugawa
apostolic
psychiatrist
hoffman
shifted
dundee
endorsed
groningen
himalayas
992
bount
zag
##dr
##sm
##hes
##het
##owitz
unrel
##allgau
exclud
afl
abused
adobe
1719
1630
amus
foundations
smur
pools
palaces
##plus
militant
devot
wilder
holden
eighty
081
587
mariah
galactic
promotional
tablets
feared
detected
gothenburg
resorts
reyk
mimic
touches
hulk
atheists
pravec
irrigation
salisbury
gibraltar
943
cain
dand
lol
lans
nm
nood
yaz
##gins
##mila
##orp
tos
reop
stiff
cane
alla
##qua
minh
mint
moose
29th
composing
patton
verlag
entities
torah
convict
##opsis
vocabulary
dynamo
missionaries
strokes
bearing
occurring
kumamoto
knocked
phosphorus
remarkable
nielsen
mankind
692
895
fats
lille
sot
##pow
##icist
tome
alten
##chet
##ulates
orator
enzyme
colts
1648
minnie
slopes
consado
wrestled
handel
##after
torre
vanu
852
##ihad
589
cookie
fuels
dimit
treasurer
sickness
mackenzie
transformation
landscapes
advantages
reunited
encryption
iroqu
consadole
cuy
##lund
##cover
stanton
##osha
enab
flown
hades
dru
1141
##obo
##bris
competes
##107
libyan
carlisle
##orax
danielle
occupy
letting
dealer
gorilla
confederates
nomadic
mistaken
valentin
burials
ultrav
coyotes
poseidon
savoie
grandchildren
947
945
ao
aig
nero
tire
yere
##iol
##yang
##joki
##pd
stake
heis
##oti
beir
##ithec
exceed
meals
adr
disqual
bloc
recipe
rowing
skyl
harps
transf
accus
walters
##heads
erie
critically
judah
alexis
inflation
sandstone
inhib
##guer
bags
keyboardist
fraction
interactions
striking
linguistic
considerable
decorations
baptiste
dorset
qaeda
gorbachev
disagree
016
014
bans
cindy
nomen
sint
zepp
##ska
##nor
##vd
##mitt
##atops
ante
##igious
##cheng
##mere
##oden
##odus
lech
clair
becker
herd
1743
1540
##iversity
livingston
deploy
guiller
append
##coe
archibald
thirds
##102
enterprises
halluc
harding
horace
multimedia
854
microp
frontale
cornish
cooler
attractive
dickinson
cummings
neutrons
defendant
pioneers
corresponding
undertaker
mormon
condemned
preliminary
bum
bony
dahl
eman
h2
rb
sver
vaux
wires
##wicks
##frog
##thouse
##add
##urities
##agger
phylum
evelyn
upps
gew
sumatra
hyogo
##ijuana
newsletter
translators
captivity
chapelle
elevated
pedal
winslow
calculus
nitrate
chalk
withdraw
spawn
turbine
responded
semiconduct
eligible
spielberg
planck
898
biel
samb
uter
##tel
##mant
##fal
##occhio
notorious
birch
1713
lact
coinc
##oughton
moths
rower
subd
##shot
sonata
##yrus
baum
combining
narc
1751
1756
scripts
jesuit
071
precious
tyrann
kidnapping
wavelength
uppsala
949
kud
nude
##wolf
##leep
##oum
##ilation
stitch
##aste
boyle
carbo
1147
geologist
##urya
modest
justices
##evik
observe
macro
shoe
jericho
naomi
shrub
dominic
logar
guardians
accounting
nichols
jessie
senses
compiled
hazard
cruiser
nerves
gwen
pursue
siberian
memoirs
tiffany
uccle
cebu
metacritic
948
ffe
yuc
##web
##pri
##zac
##zai
##owe
##opod
##oplan
##iak
shades
##race
##iege
spac
enorm
enjo
meps
adoles
1688
##uala
workplace
quotes
surpr
everton
seasonal
##108
##109
realize
greenhouse
burlington
karls
macbeth
multic
909
candle
translates
conservatives
abdomen
kyushu
pathanam
scorers
sorry
encyclopædia
nineteen
allegedly
shrews
transplant
embedded
ultraviolet
beirut
pathanamthitta
028
896
ett
kris
yeast
##aris
##icide
##ouk
##urav
seki
lineback
##elland
##site
scouts
indy
##ateral
1070
gertr
amir
##ungen
magistr
operative
fars
grape
haley
madras
004
ceramic
##utenberg
pinocchio
ichthy
dramas
neurosc
implemented
requested
pompe
yamaguchi
immortal
landslide
satirical
reykjav
yerevan
023
cbc
cakes
dm
gok
hire
rue
##got
##jana
##ст
##oufl
newborn
polk
aden
blanch
1597
1492
grind
amal
##aleigh
elaine
portions
irrit
eccles
##103
##104
occult
##ijn
resting
conviction
907
905
083
##iosis
interviewed
zhong
lincolnshire
maximilian
granite
sulfide
reflected
jinja
claudia
abbottabad
kernel
nieder
borrowed
dismissed
reddish
brunei
slaughter
protocols
euthan
vanuatu
reykjavik
012
dillon
pg
pins
tand
uci
yon
##wagen
##botten
##pian
##opia
##ulating
##illera
conj
marm
twain
##irez
##ysburg
guilla
weaker
caled
accum
operators
passer
##701
refuses
petition
disturb
furious
904
boycott
pasadena
disneyland
deeply
gettysburg
ratified
axel
pentagon
peasants
cholera
asturias
032
941
eus
hated
hound
lange
mous
niz
uv
wanna
yen
##won
##blad
tosu
alad
prol
##abor
diaries
exo
1724
1629
reson
genev
recycl
barre
##203
greenville
sunk
luft
screw
melting
mustafa
institutes
naruto
rainy
051
061
##emption
073
printmaker
jamestown
aeros
austro
trinita
habits
pamela
antigua
fet
rack
##kus
##now
##game
##girl
##lat
##anus
##enment
##arck
##reated
##ayy
sew
sepsis
##iao
##ibar
carver
##ernity
roche
flick
1625
1619
acet
##uchs
##ileen
moirang
landes
covenant
tempo
specials
##319
woodward
garrison
903
gunpow
breakdown
wwii
meetei
danced
ramirez
lask
ernie
##walk
cordillera
autonomy
adviser
sylvester
witchcraft
supplied
##iciary
stirling
antiquity
ejac
thermodynamics
##wickshire
gunpowder
dop
lenses
maus
nakh
pence
pino
ufc
##arity
##ilon
##staff
stun
hep
##umoto
atoll
##acular
levin
brag
1526
doyle
consens
##rops
reduces
##uckle
##105
condens
401
bulb
583
wikimedia
1568
mechanisms
billionaire
polymer
1689
preparing
dolly
shelby
cousins
1820s
psychiatric
phenomena
allegations
gloucestershire
celestial
##arthur
supplement
syphilis
019
072
091
benton
eck
fulton
vold
##tains
##zk
##ен
##itative
##ask
##estar
idi
leah
exeter
tristan
scann
##tex
1046
universidad
31st
camoufl
athena
frankenstein
climates
003
084
laboratories
vasco
threatening
catching
consistent
vinci
soda
suzanne
ribbon
bamberg
unfair
goaltenders
##iculum
impeachment
siegfried
toilet
lausanne
surprised
013
ave
dental
eust
fist
hux
henson
mister
sos
tant
##aute
##oule
##ayat
##eters
##osse
##alling
plast
decree
1520
prejud
specified
lawson
interference
olympique
discs
handled
exploded
##rode
osman
finalists
believing
projection
networking
distributions
##iscus
agreements
tamara
sabres
ordained
nagano
nicknames
targeted
necessarily
hammers
supervis
##patrick
oliveira
emilio
cultivated
equatorial
weightlifter
carthage
enlightenment
mcdonnell
cumberland
944
bauer
fanny
kass
lakers
mered
mata
rss
tach
veto
##jant
thang
##stag
reformer
chatt
##opf
comets
1616
brenda
1048
1580
coel
auguste
##ysh
outcome
consolid
loans
antis
##219
troop
hooker
horr
sharif
908
findings
gallagher
bangal
bernstein
586
affecting
gilmore
quarterf
duran
levant
hypn
superheroes
bismarck
aesth
advertisements
lagoon
oblig
recruit
acknowled
celsius
022
hach
lama
mok
mens
pesh
tidal
vet
##wl
##nings
##making
##yana
##°c
##iton
##thest
##ented
alarm
##emort
mayo
permitted
1145
goa
warned
harald
divides
epoch
##aneously
##inkle
tito
##hampton
##afar
cleared
rosem
cornelius
completion
rodgers
iconic
bushr
paths
heming
fluids
1683
shaun
preventing
subdivided
thirteenth
kreis
recreational
sustained
crushed
plummer
mauritius
bismuth
mclaren
ipswich
haunted
semifinals
equilibr
guillaume
942
dice
dfb
ea
eucl
hib
ike
yer
##lop
##cas
##oring
##oram
stats
##uration
##oplast
##aci
argy
teens
##uble
clips
compress
serbs
megan
##adec
decis
monty
##obal
quinc
slot
subc
olympiad
##aean
raff
filmfare
solanum
billi
gravel
##umba
poster
limbs
macos
primates
panels
082
588
princely
##theim
akron
atlantis
pigment
reveal
addressed
chandra
talented
eruptions
moody
adoption
denominations
isotopes
corinthians
yevgeny
bison
lengths
rover
tung
zak
##nets
##hat
##hey
##houses
##ilies
##ocial
##akawa
##acey
1611
blades
crete
elbow
instinct
angus
##ophage
castillo
goldman
donau
academie
benoit
santana
baxter
savannah
nuclei
stadt
##oulos
injuring
##atiya
akbar
1659
1762
pitjant
spray
##untu
umbre
quantities
domesticated
ignored
massacres
tonga
flavour
##ulsion
digestive
pixar
intervention
hydraul
kanye
amusement
897
bok
ei
ij
kj
kaf
mott
##dong
##houn
##vill
##bol
##para
anand
##lea
##thel
##rae
##upo
##unde
1149
##ahr
estates
careers
submitted
suborder
sumo
inca
malawi
verc
explicit
henriet
similarities
catalogue
qualities
psychedel
garde
welcom
alec
resigns
lifted
weakness
nichol
emotion
gnu
caucus
hitchcock
caracas
bolshevik
bose
lapt
pern
rko
##link
##anium
##inational
##idis
##otive
chees
enlar
leuc
##ichord
##osto
1695
1045
1547
barons
##ossa
malone
downhill
##256
romero
processed
galleries
bullying
thrust
eighteenth
1567
4000
dalton
tololo
gentleman
tetrap
mendel
absorb
beech
bromide
proportion
dmitry
defencemen
evergreen
cinderella
carbohyd
aang
jain
kall
ried
seng
tau
##iw
##nav
##vara
##pop
##food
##fax
##enland
##aline
##lewood
##amins
aly
##overed
##imeter
##ornis
socrates
##pherson
compose
phases
1610
1627
1076
1140
gotha
edison
genn
traces
meditation
elastic
provider
noir
internaz
##ukawa
slogan
actresses
constance
midwest
batters
needville
washed
athen
territoire
caec
##utsu
casa
generate
siem
oaks
questioned
doubled
grenada
collaborated
mollusc
aviator
##pcion
baltistan
meredith
gt
turing
##fold
##inomiya
##aring
##alaya
##ivism
chatham
whedon
##utors
shun
comeback
##angi
sheppard
indre
1686
1049
acclaimed
guiana
communaute
ella
##shaw
sued
titus
##207
debates
balkan
##rodite
rapt
fishes
tribun
006
crabs
puff
risks
ruben
dissolves
ancestral
exhibit
yamamoto
##metics
approaches
pearson
dyke
wetlands
hendrix
acceleration
constructors
zarago
mitsub
alessandro
franks
dmitri
navarre
skateboard
pitjantjatjara
internazionale
duel
igu
kard
nell
oste
rott
senna
vl
##lace
##listed
##amar
debris
##igned
##ishing
##iche
##asta
scler
paren
1628
gerais
genetically
deposed
formations
longtime
skaters
campuses
australians
tempt
##214
greenwood
burundi
cao
##234
##232
administrators
citrus
policeman
pulp
reigned
zhou
zhurav
gustaf
##birth
monasteries
stratford
concepcion
tackle
uncertain
wrapped
ningthou
iroquois
015
099
017
hahn
sage
##yi
##enk
##asim
rejo
heian
byrd
tric
1618
syrup
poe
helmet
palazzo
loaded
magician
occident
premium
##242
duff
warships
audrey
kimber
ottomans
corporations
protested
04°
calculations
pulling
gyeong
kangle
challenger
descendant
meteorological
##urasian
gelderland
subprefectures
ultram
invertebrates
machinery
stupid
aladdin
hemingway
zaragoza
035
aosta
b1
gom
hides
lom
nod
oils
trit
##yers
##cats
##inov
##aten
androm
wasps
unstable
##estes
##avers
neander
##ieur
##icher
1615
1041
footnotes
1585
novara
coined
smirn
supers
##etting
emerson
breton
discipl
##206
##205
khar
frey
##297
samson
replaces
torch
influenza
persist
avery
payments
ambros
584
coldplay
diploma
huff
rudd
dhabi
llc
scarlet
bubbles
ursula
attendance
marathi
fungus
rasp
fayette
pilgrims
dorsal
cottage
myself
nocturnal
leisure
mitsubishi
ct
cary
fia
gug
mendo
rms
rca
siam
##mens
##park
##ᅡᆼ
##anova
##itated
toch
##entina
##optery
##opoly
seism
##abh
linden
fron
abig
hasan
##quist
aguil
1645
minus
##ebrate
hume
olympus
archdi
##otherapy
##202
batting
antimony
##pora
benito
nightclub
##bao
chairs
mirrors
investors
##ydon
bombed
accepts
pinyin
industrialist
kurds
grasslands
nevis
jointly
stretched
spaniel
biele
assessment
fowler
zeppelin
029
076
042
mural
renn
riga
##sar
##hoff
##cie
##jord
##ер
##ße
##anos
##oue
##igue
sten
##agara
##aghan
bye
joints
dispos
1637
1690
1516
1146
cobb
grizz
depot
albion
supp
communion
metz
##vez
##sheim
salts
currents
##204
governorates
verbs
sounded
##233
##244
failing
906
##ariat
##uxe
005
##colo
generator
dissolution
catches
burger
installment
patriotic
hannibal
loyalty
hispani
anarchist
conventional
deportivo
sinking
rattles
lighthouse
trophies
psychedelic
2em
auf
bouch
hicks
raleigh
sip
uph
yves
##pal
##anim
##edias
##itism
reiss
##emed
chis
sealed
peel
##abar
arid
marge
hass
##ikk
nora
allerg
flank
1047
baseman
buie
impressed
##airn
salon
default
extending
extrat
##308
##linary
##275
##254
equals
ballroom
##243
069
pinned
zhu
sheridan
concertos
seller
circumc
merchants
multiplication
metallica
bentley
shogunate
airbender
compromise
photosynthesis
voldemort
extratropical
046
duct
domen
kes
rath
sart
tender
womb
wahl
yield
##geb
##gger
##cad
##jid
##xy
##zia
##ор
thier
##atum
aneur
##ouard
stamps
##ianus
##avis
newest
##iker
scary
##erno
1647
perd
coats
dozens
liam
skane
steady
transist
meridian
royale
##306
visa
##217
##257
009
graduates
1761
lorenz
mp3
approached
consumers
dramatist
neurolog
updates
complain
alvarez
determination
neurons
takahashi
brendan
enormous
huxley
archdiocese
077
caffe
doping
ginger
puck
rer
tilt
wanda
zay
##will
##kie
##kha
##cin
##buch
##bull
##zed
theological
##aty
##utta
plenty
##abel
marguer
herak
allmusic
1646
1515
schul
depict
weaving
traps
smugg
arturo
bests
loz
salle
100th
##208
censorship
mora
lineage
##218
##212
##253
##316
##293
snap
courtney
judiciary
eta
organizing
certification
ivy
reno
shrimp
062
nagorno
gorge
excited
##uyama
shocked
merchand
eurasia
ezra
kollam
mckinley
magnificent
bounty
gertrude
mendoza
abigail
018
093
fals
jokes
##qi
thess
##orca
##omial
reind
##adle
##adur
arun
maroon
feeds
colt
1075
sufi
solids
soloth
berber
advances
grandparents
##307
##303
##215
francaise
##259
##313
##312
##287
##282
##355
romagna
survives
multinational
gunther
mountaineer
ulrich
cubic
miriam
cables
pinto
mutiny
precision
succeeding
continuously
sticky
sapph
tasmanian
beaumont
nihon
meadows
warnings
metabolism
nirvana
bianca
guillermo
quincy
solothurn
075
aero
bucks
ingen
##isuke
##olving
##etten
##opatra
##ulous
##este
pele
##acia
claw
tres
boomer
norma
colombo
1717
lau
1644
goats
obstr
skip
##ometric
deluxe
advanc
##209
##213
##273
##261
lowell
introducing
darren
coul
broncos
promotes
trumpeter
investigated
illustrative
wolfe
##kirch
coden
tortured
fishermen
patty
resembles
overturn
affiliate
iberian
bolivar
taekw
encounter
derivative
maldives
037
039
fag
fiat
giles
pile
pank
rae
tigr
##wo
##uence
##hoven
thoibi
asleep
##agong
##ulo
##usted
friction
polls
complement
##002
induced
phel
agust
brie
periph
warmer
mono
evalu
northampton
reck
recon
finest
belmont
##olla
quito
##annes
bravo
jeop
brewer
pais
blackpool
extens
##305
visitor
##274
##251
##258
##uela
##315
burst
##266
##286
##285
##bonne
hawth
bronch
abbot
orchid
expressions
vascular
dvds
subscrib
pavlov
imagination
tokushima
cortex
rhein
skeletons
dracula
consensus
049
033
092
bop
gs
kuk
##mother
##base
##alk
shelf
##ongs
##ellen
clad
trim
##endish
##actyl
syed
winnie
overcome
numbering
##flight
intra
##retto
competitor
##216
haifa
##318
##263
##289
##351
horst
mascul
behave
sands
dogg
bernhard
transported
##ihan
087
emerald
exploring
fears
supervill
fontaine
masturb
nurses
ammonia
incredible
adjective
bissau
equilibrium
047
043
dump
oth
picks
zod
##journ
##omac
##eles
##ersion
conan
enrico
arbor
tec
##ellers
##outi
##007
adler
1732
1623
groove
guern
geographer
numb
bari
humbold
##302
float
realistic
##277
##272
##311
##299
##296
badge
freezing
olaf
wilts
ruiz
papa
008
##iyan
lucius
##islava
mythical
rotating
jenner
mixtape
wizards
yukon
hainaut
emigrated
kendall
volkswagen
sinai
jurgen
bielefeld
cact
eurasian
hary
ksh
viper
wage
yuki
##nard
##hole
##giving
##pad
##prising
##fires
##iten
##rots
##olly
##ilin
stub
##ignac
spends
conclud
##acao
##ritis
canvas
##005
joanna
1678
brug
##ultural
1148
secured
albat
gubern
##yna
voluntary
antique
##309
##252
explodes
##268
##269
##264
authorized
##292
climbed
viewing
crimean
kramer
bordering
1405
elevator
##hoe
buddhists
locke
sedan
##iferous
zoology
migrated
pereira
##otypes
caldwell
aneurys
098
034
dn
ler
lour
lilly
leroy
m1
wir
##moke
##jal
##jit
##onies
chey
##anders
unrest
neum
##apuram
##acus
env
abn
carly
engage
##clan
recru
preacher
##awat
##areth
##indi
steele
housew
croydon
romani
salary
salman
biod
menu
donetsk
##usha
karn
##267
##283
judoka
##151
damon
vanilla
ethical
curious
054
lovely
spokes
numerals
ventura
warmest
coordinate
essayists
unicameral
monitoring
dewey
revelation
robbins
balkans
unemployment
kepler
036
cid
faz
gai
kis
pich
tuv
##whe
##hm
##yas
##pu
##pet
##на
##arro
##ingh
stig
hears
##owed
plankton
##very
frames
trash
##endon
deciding
minaj
gras
sob
crude
##leased
terrier
munster
301
magma
incom
addison
imphal
paterson
##314
burbank
##456
romney
alexei
wilbur
considers
002
bernardo
captures
065
tallinn
chaplin
sinclair
exhibited
containers
hurd
perfectly
accuracy
glaciers
horton
crocodiles
mahmud
guidance
nicholson
reindeer
045
bala
null
naur
pus
rfc
tnt
vod
##oes
##tas
##croft
##bet
##amus
##amatsu
stair
heil
deux
##iae
ats
connie
##abilities
##antz
##ichiro
commuter
serra
##class
flats
bricks
1078
blown
perl
perennial
1485
octopus
edouard
smol
beloved
##ismo
retained
##ophobia
suarez
##heed
grands
unionist
erd
40th
##262
denise
damaging
mustard
tracking
semitic
psychoan
renee
bowler
bottles
seventy
algiers
shining
hartley
contribute
brightest
anatoly
chromium
converts
byzant
gifu
ascension
amphibia
psychiatry
kemp
comfortable
rabbits
hutchinson
boogie
crustaceans
umbrella
078
bike
cfb
dots
pemb
pension
tends
##reck
alike
degen
ares
triv
polly
scrap
mep
cara
##erney
1641
perug
safer
gregg
guill
appalach
surreal
farpoint
imported
##zej
downloaded
colleagues
mercer
##hea
presenting
antilles
silly
martini
conde
##279
##265
##281
##284
##291
##366
garbage
insulin
semin
tarant
056
067
contrad
##rosse
mythological
mandate
singaporean
1603
cooperative
sensory
behaviors
dynamics
brahm
unfinished
styled
rashid
reefs
venomous
microscope
frisian
artifacts
##ophageal
jeopardy
humboldt
wiltshire
gubernatorial
bai
feb
hott
kuala
uy
yates
zor
##rio
##rays
##kill
##cery
##bear
##alon
##ivka
ascle
whist
sek
playboy
canals
polling
1541
warwickshire
rely
schwart
saunders
alban
traum
impair
sumer
##yler
extr
massif
histories
##405
erwin
##276
##ijo
##294
tombs
##222
rosal
cartridge
sorts
ambush
banjo
metropolis
##ranos
dropping
cavendish
amendments
prelude
cortez
announce
destructive
consulting
fragment
vectors
stabbed
brewster
chittagong
synchron
inductees
hectares
thieves
mahabhar
048
038
044
buster
dach
eury
gama
lumber
ponds
ritch
rishi
vans
wigg
##dog
##e6
##omera
##ento
alias
##idium
##opolis
unite
##aved
sper
muscular
thereafter
bett
lara
palma
impl
invaders
blackburn
corrid
##bride
esch
taft
##304
##489
montre
##288
equity
robson
photon
faction
##garh
referees
holders
symbolic
057
052
caspian
practition
1753
eliza
therap
paddy
ibar
djib
baking
ronaldo
syndicated
cameroonian
methane
selenium
intersection
##worms
synagogue
bangalore
097
bains
dok
glee
gutenberg
kli
rana
tires
##kim
##hun
##esth
##advant
##orted
societ
##endi
##004
admission
1631
basement
##weiler
profits
everest
statute
corr
##owska
illusion
##406
rhet
freak
explaining
koreans
vez
##352
##382
halfway
fielding
declare
printer
088
058
068
066
064
celebrating
criticised
automotive
taller
1569
acceptance
nikita
billionaires
hayden
yamato
bridget
fleetwood
ellipt
steinburg
geometric
refugee
instructor
checks
adriatic
binding
euler
buckinghamshire
##jevo
tejano
vaughan
andalusia
episcopal
aluminum
bohemian
aguilera
marguerite
2d
celle
fok
fuz
kip
mbe
vh
vida
yur
##oge
##wered
##witz
##gage
##oura
##thys
reza
chances
##ugs
##lander
trends
##avez
seren
serena
##008
twisted
butch
1588
marche
nationalists
finch
##obile
geograph
terence
wouldn
instagram
croix
professors
biographies
sanam
##istano
urinary
jackets
verdi
##417
##317
##295
##386
macon
saras
foxes
reviewed
recognizes
085
alternating
sevilla
1555
memorials
celine
precise
remixes
pitched
recipes
tatyana
bathroom
wonderland
##street
rhythmic
minimal
##group
laksh
rainforests
proportional
kofu
centimeters
ptolemy
sichuan
095
bary
boca
cey
kosh
nhs
oll
sall
uber
wig
zed
##vili
##ᅡᆫ
##arak
ino
staged
stellar
heel
asi
##estra
##itha
peps
lept
##sohn
##mani
##eyron
musket
blonde
grip
universite
estuary
busan
magenta
suce
louie
taisha
##379
##255
handbook
##357
luiz
##399
##irov
cleopatra
punct
ghetto
beginnings
venge
ceramics
086
055
minorities
ramos
1657
skinner
dealt
surroundings
celtics
jordanian
kicked
tango
anchors
vulcan
##uilder
rigid
electroly
emphasis
prosecutor
nsw
congregation
zoltowski
taekwondo
096
aik
bion
hiber
ia
sinn
sammy
##nock
##nau
inmates
##aluation
##itat
rebo
chloe
##akin
spill
leb
leiden
##athe
teatro
##eya
coloss
1545
##nev
regen
finite
##uctions
##awks
quoted
looney
sportswomen
romanized
composite
menstr
##404
humanist
cambrian
##278
##361
##395
reflex
ceiling
olsen
browne
053
odi
yellowstone
shotgun
nasal
079
responses
hui
oxfordshire
frauen
lavigne
dye
##jarvi
maintaining
bloggers
cristina
crowded
theologians
batsman
redskins
nhc
muppet
enrolled
##heart
dordogne
relevant
goldsmith
094
gue
sake
xona
##oin
##cam
##oros
##oug
##stage
##adio
##odian
arbit
marquez
marijuana
##ograd
clues
knives
1744
aggl
centaur
disadvant
1626
1698
bresc
goeth
britten
traced
distress
mainz
##coon
raion
colorless
arriving
civilizations
##371
##374
argues
snack
libre
carlton
mirza
saxons
stepped
blockade
exciting
grasses
squadron
vitamins
discussions
bergman
rebellions
lindsey
interpreted
clermont
miyamoto
metallic
clifton
madhya
sassari
conqueror
defenceman
tolerance
##combe
muppets
legitimate
nilsson
inflammation
catt
fd
fiona
nails
siv
tbil
xxx
##rush
##held
##jong
##oride
alta
##usz
##unton
##opoulos
seych
spat
##ichte
##gean
trenton
##ifiers
##003
##006
rooney
1696
1450
reconc
willow
delph
paternal
titular
##271
##298
##353
##358
##359
##354
mcco
##369
##evsky
prevents
ruined
colonization
venetian
watkins
089
taxation
probable
spreads
categor
kazan
employers
svens
kitts
huntington
linguists
sarajevo
fascism
algebraic
prestigious
armoured
advertisement
sacked
##film
descriptions
nectar
recruited
bere
cds
kup
kwan
oax
rie
rory
zd
zem
£1
##eau
##vig
##lach
##bay
##anity
##enthal
##olta
alve
alonso
##agra
dieter
##ifers
megal
lazy
1066
bla
acclaim
1546
1250
1290
wink
broom
desmond
overlo
##ismith
maintains
##grad
inverse
archived
discus
magell
sala
##ombe
##375
##419
##453
karel
##356
##365
bayreuth
bulk
perseus
vener
059
063
nazism
mccall
sinatra
diplomacy
graphical
exhibits
solidarity
virtue
saharan
alcoholism
geneticist
ritter
stefani
##asmus
sponsorship
ampl
strategies
##bridg
unpop
##keeping
aurel
uncert
evacuated
giacom
ayr
dros
mla
nantes
tolk
waff
##iene
##mie
##builder
##ın
##eran
##enia
waseda
##oway
seah
platt
##odz
propr
##ogly
foley
1699
upside
##obu
surprising
##letic
##urga
magnes
intr
farr
##hev
cypri
cambridg
##377
balanced
##458
madness
equestrian
##363
tense
memes
convince
lowered
combinations
luca
naismith
travelers
reactive
commanding
bahadur
calendars
pushes
vertebra
acquisition
cosmonaut
carpet
portrayal
rodrigo
apostle
essentially
absolut
kronos
dharma
kannada
yahoo
sectors
scandinavia
reelection
fresno
transparent
lydia
tbilisi
cambridgeshire
dian
dare
pott
tash
vaster
vita
wow
yum
##vall
stairs
##urian
##emar
seized
##osuke
comun
##oges
##ifs
blond
blanco
mina
##aille
desired
barium
raids
constable
operatic
fargo
farrell
vargas
colorful
freem
martins
##412
##451
##368
##362
##394
meme
liberals
heroin
tanya
otter
contested
nikki
1687
scriptures
gibbs
counterpart
reservation
cadmium
reflection
reyes
gladys
discoverer
thanksgiving
prohibition
epidem
neighbours
espana
mushroom
metaphor
##uhrer
albatross
incomple
kite
ramb
tern
##litz
##mati
forens
ung
atp
exotic
scal
##izen
##009
##asser
1697
songwriting
grub
britney
medley
elabor
undergo
##gram
irvine
midi
lineup
chicks
##389
##385
ceased
shoulders
inscription
introduces
persians
1651
1406
074
documentaries
rhinoc
sellers
shirts
carnivorous
adaptive
hypert
##rophic
woomera
gladbach
hoffmann
##garden
biochemistry
federico
caucasian
defects
##oplasm
caliphate
diaspora
suceava
apt
arose
bakh
daph
rani
tm
wb
##oja
##vier
##inium
ander
##reich
##chlor
unve
neon
##acaf
countdown
boer
hermes
brant
offshore
##ahoga
1460
1470
albrecht
trait
##ancourt
elle
imposed
munchen
underwent
childbirth
valenc
##etsu
intercept
myr
builders
hymen
##loads
richie
millionaire
##403
paulista
501
##457
tomato
##364
##397
##393
southernmost
caes
oxides
##oye
violations
texture
captive
foreigners
concacaf
promotions
abdicated
ryu
strengthen
herbivores
databases
##emiah
coco
woj
##american
##iability
marianne
iodide
inferior
clergyman
burrows
cascade
mourning
unnamed
cuyahoga
andromeda
herakles
dolor
kans
nate
pingu
pisa
ries
rite
##sim
##hock
##erick
##iceless
reims
ito
##imat
byte
frie
excluded
trams
##isson
marching
1350
albu
##ukov
sledge
busch
valerie
myc
angelica
royce
jacket
##373
##378
##472
##459
##367
##388
##392
considering
wrist
fairfield
dominica
prediction
waist
##canal
##rosis
manufacture
svet
dolj
switching
environmentalists
baroness
hydrocar
prophecy
aspx
kristen
gwyn
gastro
##hofen
evacuation
mittelland
posthumous
bratislava
persecution
maureen
hispaniola
bly
kib
kicks
lh
rend
uae
##dor
##eze
##uw
##vard
##bred
##ар
##atov
toto
reilly
shay
peab
prud
linking
##ogene
##endent
borneo
##aterina
1643
northam
reconna
guaya
overij
strata
subgen
##urgy
solvent
##372
##413
##418
##415
##482
##foret
macarthur
mosaic
babergh
burnett
sorted
galv
acidic
fukui
demonstrated
cortes
marginal
quartz
kusnir
blacksmith
guadalcanal
seleuc
aneurysm
reconnaissance
kusnirak
aort
aichi
bov
bucc
cim
hua
jog
keller
nurn
##nick
##mot
##zza
##esy
toby
##illation
conjun
##anski
roast
1549
1511
janata
evolve
relocated
genital
guido
geisei
##plays
ska
eastwood
##ylene
daim
##407
rhymes
##376
##414
##484
luisa
##381
##391
##otechn
pressed
olig
brotherhood
bangla
travelcard
barbuda
exceptional
mandatory
initiated
hemp
haydn
kalam
confluence
omiya
bacterium
anatom
jaime
feedback
comparing
eisen
brahms
hilary
gazette
admira
##stedt
scandinavian
scorpion
fierce
kilograms
ryukyu
alligator
ballerina
quarterfinals
vercelli
biodiversity
oaxaca
peabody
coss
dung
gund
jem
keb
nand
niet
nae
ngo
xu
##how
##gos
##lene
##zie
##ев
##ик
##atre
ansel
altered
stade
##iris
chavez
##imid
##ococ
##illin
peers
ariege
boch
##ibles
colder
lauder
parrot
1632
1216
cobra
1328
##ughty
prequel
##forms
##cerpt
brains
##encers
stead
glover
epile
anyway
virgil
bertha
franconian
##473
##411
veins
##493
##494
##461
panor
plantations
luciano
##married
platy
ashton
barbie
mccorm
complexity
victorious
spectroscop
comparative
mateo
coding
respiration
carpent
withdrawn
stabil
dixie
stallone
impressive
antioch
aleksey
euthanasia
neder
rites
tard
ure
##rada
##mass
##erk
##alven
##icio
reut
##imus
##iaceae
comuni
##rack
##esters
nebul
##apur
ench
leaven
artery
##esses
##ubo
socio
excerpt
boz
carla
carinth
colbert
1742
1712
1635
monopoly
grin
augusto
strath
opium
sket
skins
valer
divis
##enco
angular
demig
couldn
mesh
patents
##402
murcia
##486
karim
##bez
citations
translate
leonese
facial
magnets
bonif
commissioners
participant
zheng
##zhen
pigeon
##moor
umberto
archbish
bergisch
gotham
tapes
kidneys
parasitic
miyagi
varying
##esperson
browsers
crucial
syllable
inequ
zhuravleva
disciplines
uncertainty
overijssel
bair
eileen
tug
zan
##nett
##nius
theo
##aras
##stani
forsy
##idas
shink
scare
1642
bluff
governance
calhoun
##awan
capp
milo
arminia
skirt
suits
##474
##416
explode
trol
##452
hardly
##396
timb
##iye
approve
tsuk
kirib
litter
djs
sidd
commented
striped
##lemagne
reflects
regulate
schmadel
##umberland
pfaff
ankara
choral
commodore
grunge
tromsø
lumpur
ransom
tohoku
harpsichord
yucatan
zodiac
haryana
archbishops
buss
bau
bites
gina
kale
kahn
lula
lamps
tess
taz
##hus
##busters
##400
##fors
##icion
##usions
##ipak
pry
##ugi
fram
##ellier
brest
blame
amid
esta
transylvania
killings
avignon
malaga
##lof
##509
lightweight
##408
grapes
visions
##483
##468
##469
##465
fireworks
hamid
lesson
coasts
coasters
furukawa
##gaard
##oyama
microorgan
capturing
galap
flagship
charlton
1653
neglect
accessories
mccain
spokesperson
cosmetics
unlik
##viol
lockheed
trustees
columnists
##ogenic
colonialism
struggles
lombard
advocates
embryo
thunderstorms
nexus
gewog
tochigi
phelps
unpopular
corm
cgi
fitted
jae
kast
mersey
nana
oed
pasha
sasha
ucla
wn
##yz
thurg
##esville
##arg
styr
chia
chiang
asex
##uger
worry
clot
##oken
##ached
firms
##ikal
##ibus
##adeh
parv
1636
1495
evaluation
upright
schal
edd
poppy
regensburg
chargers
guan
munch
spaceflight
redemption
corre
curriculum
##507
berries
##2012
##meister
northernmost
##479
trout
##496
##492
##463
##383
##384
astros
garry
readings
bluegrass
selective
veneto
figur
destroyer
marketed
splash
siena
mercen
duration
picasso
conditioning
##slow
javelin
sopranos
cristobal
reichstag
kotkova
mysteries
cayman
sociologists
coordinator
timberlake
patches
aegean
corsica
squirrel
friesland
consecr
welcomed
raspberry
guayaquil
sketches
inequality
kiribati
a2
bland
eind
gf
js
kato
mates
mls
maver
yol
##uver
##cope
##jam
##erre
thun
##enay
##olus
##omeration
deuter
##utch
##ulum
diarr
apert
scro
1666
blunt
novak
greco
creole
providers
departmental
##506
##504
bering
debbie
##409
##487
sunrise
technically
##387
africans
carolyn
islamabad
1752
lyud
splits
mandy
mortimer
ivanov
hatred
kathy
smartphones
emirate
pupil
complained
amphibian
explanations
differs
aviators
thyroid
lillian
penalties
schumacher
huntsville
maharaj
genealogy
prejudice
asclep
aaa
dina
eel
feng
jang
nib
ooh
rall
##sberg
##hops
##fol
##onal
##sty
wasp
##uran
##ayo
deform
compton
##ulk
##aked
spit
marjor
liner
fresco
##ogram
##ellular
1733
1639
blas
repet
moreover
##attini
remade
villiers
romano
donovan
famously
##ushan
khmer
##476
verst
##499
##467
##466
##464
athel
wilkinson
coupe
##ievre
kinetic
dominion
wikid
mutations
fulk
suffix
cassidy
emerging
alphabetical
##tiary
kathryn
poisoned
hirsch
mariners
terminus
ernesto
simplest
gospels
aubin
hutton
accurately
spaceship
holloway
disagreed
isotope
bolivian
prosperity
exploitation
mhz
compatible
nudity
jinnah
uterus
camouflage
ritchie
cima
jared
kame
senn
sided
tint
tiles
##non
##hay
##hari
##law
##ии
##anya
delet
seap
##osia
##illi
sph
encom
##uban
tragic
sheila
alloy
1490
popeye
tertiary
vald
interl
transcript
##inox
##flow
avril
radcliffe
##503
##505
##477
##475
##491
##398
screenplays
okayama
viewer
crying
printers
encount
reigns
cooled
coolidge
tonnes
zoos
journeys
igne
portraying
puppete
possessed
lacrosse
##thrown
dionys
impressionist
reverend
parsons
wartime
bickel
extermin
rhyme
agglomeration
etern
gupta
mest
nid
nade
sly
sine
uch
vive
vais
##edin
##itr
##iste
##owell
enact
arj
dio
##ameen
lined
frustr
boise
boiled
1527
1498
buena
teamed
airliner
johansson
personally
recorder
westward
##letta
transact
invading
##appen
runaway
revision
vars
##508
merrill
khark
handic
arguing
##488
suns
matte
panth
closure
costello
galician
investor
cheet
escal
celebrates
stephens
employer
mutation
answered
rossi
clarkson
##walker
matthias
dickens
rumors
ardern
delegate
pistons
cinematography
ingredient
melodies
dessert
leaked
zombies
synthesizer
nawab
farewell
rectangular
predominantly
substantial
encounters
bint
cess
jy
kauf
ld
ode
yvel
##riger
##wu
##willer
##nica
##juk
##fox
##atile
##alent
##elier
stard
##adas
chik
##ocy
##acional
shepard
comprises
##pei
1591
permit
1170
marched
relate
upgrade
securities
##ologic
elk
##intra
consc
##ophile
camping
labs
socially
##471
##454
squash
penet
paints
32nd
straits
cookies
winged
optics
suffers
toyama
occurrence
coordination
bilbao
koln
harmonic
sixteenth
ubuntu
unreleased
##gorod
cigarettes
proceedings
andrzej
vomiting
jaguar
jovi
simultaneously
decisive
unlikely
eindhoven
fiance
gry
ith
laps
zac
##hito
##bad
##aney
##isp
##ilus
##ilov
##adze
sey
shame
envelop
##ellin
trich
ape
scan
caret
butcher
presum
preschool
bask
##activity
charm
gek
prodig
johor
##insk
##grin
banda
anno
##cki
epist
correl
##inker
passport
superint
khat
##ijah
successes
##485
##497
##498
starship
##462
refriger
reporters
execute
gunter
hospice
korf
rosie
coupl
commitment
sawyer
##whel
ringo
##ranes
##holders
konrad
subscription
attorneys
illegally
behavioral
ventforet
c2e0
valentina
hobart
pleist
barnard
1810s
vilnius
pistols
prohibited
nottinghamshire
antibiotic
1700s
rousse
template
dromae
bowser
unrelated
djibouti
brescia
wikidata
c2e0ff
b0
cove
mow
tichy
wain
##nov
##bos
##bling
##ος
##arc
##alin
anus
##olese
token
##irm
##otrop
##unya
chuk
shiv
##rax
unmarried
bypass
##isham
##estro
##icht
mani
##achen
monoc
ministr
amrit
willard
swamps
##ittle
travers
overwhel
armored
slate
emplo
remind
arches
biosphere
farthest
esophageal
##502
##607
##603
seafood
realism
##478
verona
##481
##455
nonstop
macqu
libretto
panthe
drav
potomac
cannons
fortuna
jimenez
brandy
branded
tuna
icons
mandel
1558
packages
##worthy
vegetarian
cadet
anthropologists
dwarfs
gottfried
boulogne
hiking
sgt
jellyfish
alderman
peanut
seizures
tectonic
wonders
desperate
hydraulic
kangleipak
merchandise
goethe
bale
dx
gud
hing
sween
sana
vint
vogue
woll
zab
##range
##gara
##yama
##cem
##inius
##algo
ishi
##sticks
##chl
##chond
##ersen
forster
chet
##ags
##aggio
shand
spurs
lez
##udad
canaan
##iked
##eys
parano
1077
blum
repos
1510
1586
1118
moncheng
nationally
finned
obes
bandico
emmer
attacker
morse
##495
snails
dani
replay
pointing
caul
##ladbach
ghar
darfur
cellist
bhatt
messaging
akita
crimson
splitting
nikola
brightness
molina
yaman
bogota
entrants
muddy
regulated
matsumoto
marxism
gaston
evangelist
bieber
kagoshima
enclosed
prasad
dissipated
kylie
tribunal
subscribers
incomplete
yvelines
monchengladbach
aeg
eject
g8
jays
kac
nodes
pals
ump
vav
zhe
zulu
##moon
##ان
thall
##arf
##eded
##olod
##agana
##osity
##ithe
ors
aligned
exits
exams
exodus
boattini
carole
1734
flamm
1525
1528
1199
1499
1455
saur
northumberland
charlemagne
surve
ema
##kyl
textil
merge
donnell
##803
catast
equinox
luz
judas
circa
poetic
borg
curie
dominique
messiah
heroic
mccle
kamakura
litoria
lynx
conceptual
hornets
1605
brighter
rudy
virtually
##aphyl
zoologist
bosses
requirement
marrying
disappearance
exposition
antibodies
alvaro
resemble
brewery
miscar
strawberry
protectorate
mitochond
confucianism
harassment
guarantee
schwartz
pleistocene
c1
cue
houghton
lg
lur
mere
ropes
zhao
##yk
##puff
##ич
##orch
toon
##amu
##amt
stav
##oped
neoc
##ogg
##endron
1722
1612
1475
##ysz
teammate
calabria
terre
##cessors
##plan
valpara
locals
internationale
voicing
intensive
passive
marker
exponent
mcgra
mclean
nonviol
testicles
##iyev
privat
auditor
koji
mahal
investments
mastering
welch
commandments
kalmar
soloist
dispatch
salvia
dietrich
shelters
dresses
bernardino
supposedly
hobby
aspir
supernova
bloomberg
humidity
flamengo
beauv
carcin
reversed
huston
bulldogs
caterpillar
tellurium
parachute
graffiti
mahabharata
galapagos
lyudmila
igneous
valparaiso
ather
daly
ee
ged
joss
xuan
zoro
##leod
##igu
stacy
chie
##imited
##icans
proclamation
hadith
1215
monsoon
##amesh
outfielder
traction
overhead
barely
interrupted
angu
biella
##anished
openings
##802
honest
honore
##605
35th
robber
##otho
ballard
woodstock
##udeau
lowland
microw
baud
##viewed
paste
naughty
darm
bananas
doctoral
messier
barbadian
deepest
##richt
motorcycl
generic
polyph
kaj
fernand
friedman
hershey
enslav
hidalgo
paired
allegh
mozilla
csi
clockwise
cockato
tombelli
carrion
fifteenth
deposit
rehears
##querque
perpetr
ehime
polynesia
fugitive
unreviewed
aphrodite
fahren
convenience
tekken
deceased
deliberately
molluscs
vengeance
seychelles
fetus
ging
nz
nany
pune
rude
ting
verne
##lein
toast
##owl
asch
shag
##raz
uninh
spines
diagon
roz
laut
joanne
##alsa
##enny
capita
starter
opus
redes
pao
suf
academia
natalya
##eshoe
honig
##608
##606
handheld
##119
promo
nonpro
postp
curtain
insurg
requiring
cellul
miracles
1652
occupies
miocene
palestinians
tripoli
pavilion
##ascular
hyperb
unusually
macedon
##fsr
cheval
pyramids
##uccio
aggression
dalmatian
premiership
accomplishments
lepid
pompey
archduke
palmeiras
nanking
reopened
boomerang
perugia
bp
bingham
keeper
natch
naka
publ
render
tis
##kell
##tc
##try
##xia
##arist
##atos
##atia
stero
##idia
##berries
##utter
##ulmonary
##illance
spouse
##ipes
diz
fees
caring
adver
maynard
##tech
bruck
dray
octave
edna
popp
amour
weis
weights
##etty
underwood
bravery
valence
valois
humming
##ophila
solst
daven
##609
##602
seeks
url
##903
coptic
judo
osbourne
melvin
##othe
701
shipw
violation
digging
springer
brandt
quarry
cavity
nominal
switches
krai
thicker
scenic
migrate
admirals
chandr
grossed
msn
mysterio
bulletin
wicked
harmonica
altogether
feudal
consequence
mummy
relegation
enhanced
barracks
galileo
advancement
extensively
ceylon
cheetah
fuchs
gide
gail
jai
m2
muz
nelly
xd
##was
##pw
##01
##elis
##emouth
spine
playback
##acho
herring
knut
prescription
1270
##ahara
reluct
guidel
overthrown
poz
internacional
midd
addams
holvor
billed
historia
mcgu
stationed
jude
refin
fallout
woodrow
wilkes
##autus
inscriptions
choi
psycho
requiem
housed
forestry
pickup
unitary
cosby
unlimited
1556
apartments
jumped
definite
licenses
cocoa
revolver
lanar
mendes
miniature
euph
stimulus
rehabil
##oglu
unicode
submarines
erected
sprinters
sikkim
coefficient
uncommon
polytechnic
tiberius
noodles
rosemary
extrater
buccane
ministries
surveillance
davenport
holvorcem
banco
dit
fid
kits
wulf
zub
##rens
##vation
##vinsky
##path
##fre
##fell
##anj
##itious
##asar
##leaf
##emin
##users
##unks
chords
seag
ariana
trigg
indoch
afterlife
aging
1672
1692
1296
##undai
evapor
guj
subord
interst
glarus
walden
keel
##807
##805
##604
verbal
##907
restart
astrolog
punt
##433
boyer
##cao
34th
doming
##khaz
ramsey
rogue
ordin
controllers
vacant
reiner
rhythms
sensation
laguna
triangular
moldovan
francoise
abandon
peasant
syllables
##cephalus
yusuf
tlc
lviv
hussain
hepburn
carbohydrates
albuquerque
encompass
cinn
fife
fonda
rpm
tides
wey
wakes
zeta
##olev
##riv
##eous
##mach
##fest
##arno
##icides
##rou
##aday
##otine
univ
pluck
##arten
pee
worcestershire
trier
##ibes
mek
disrupt
repairs
drill
marches
weil
applying
rowan
waterford
extensions
mening
cathy
cardiop
mixes
browning
infamous
##432
routine
moonlight
selfish
hartman
packaging
sundays
lynne
1609
ferns
catcher
vitoria
ichinomiya
##asmine
ardennes
aubrey
##espan
stylized
nasser
dysfun
salamanders
exports
annexation
desserts
fluorine
dansband
alessand
atheist
bocc
reinforced
saarland
cullen
avoiding
mcgill
yvonne
marsupials
montpellier
linebacker
peripheral
nauru
mcgraw
aeth
fina
lop
mard
sash
tf
##nec
##von
##vere
##zky
##천
##orak
##aray
isid
rector
alber
itanium
##otan
sein
seated
##ulator
socks
abkhaz
trillion
##ideae
knot
alloys
roo
flush
bres
branco
novgorod
##ahua
1370
1316
schaff
swat
##ietta
barrels
steals
georgy
##ophus
hyundai
sonia
capitalist
realms
bodybuilder
karma
luzon
judd
believers
ferre
wallis
originates
promoter
picking
napoli
yeh
1553
precurs
faculties
pulls
viceroy
salesman
gyps
triangles
gustavo
heathrow
daytona
mahmoud
schubert
firefighters
supermarket
assyrian
remnants
perceived
caffeine
dolores
marjorie
textiles
fahrenheit
lanarkshire
cardiopulmonary
4x
db
ekar
fide
hates
hairs
jap
jens
kagawa
umar
zyg
##ythe
##bill
##jm
##pack
##ол
thee
ston
##irds
behead
dehyd
##imura
##andar
shed
spont
pegas
frs
frig
##acha
parap
##perms
##ucher
schro
charities
##oble
ende
subcom
submission
animations
comedies
staten
merely
##minton
##808
##809
##806
##906
##904
authored
refuse
ceph
informed
torino
infants
principe
surrounds
rajput
surveyor
miser
contributing
cartoonists
definitely
gersh
##kovic
kisses
cosmology
advocacy
margot
anchorage
lesbians
innovative
cultivation
puzzles
outdoors
peanuts
arteries
logarithm
appalachian
reboot
giacomo
magnesium
carinthia
verstappen
gaku
lash
meng
pors
ratch
rift
sia
tensions
upt
vign
wight
##anilla
##orc
##inette
##ischen
##omir
##ovia
chub
oristano
spoon
spanning
megh
blows
1592
##pert
##econom
1378
televised
##tened
wills
maast
harb
backl
welles
##ulli
villagers
aveyron
kea
keane
holm
bij
hyun
merida
debian
badminton
freeze
museo
petra
preview
detention
38th
##434
##agonists
treehouse
odisha
removes
liberalism
##walt
defining
##warts
spectacular
margarita
environmentalist
flavors
cosmos
chronology
tendency
decorative
pharmacy
pamph
hil3
confession
persuaded
dengue
##obacteria
##igraphy
ceasefire
sclerosis
superintendent
bourn
fence
fielder
fatty
jok
m3
nw
nave
wiley
zer
##nen
##vale
##olles
##amis
##statt
alas
shal
spann
##acies
ari
arjun
tee
cans
afi
##izi
meuse
##quette
phar
centr
1677
1517
##azquez
assim
longitude
slipper
##atsuki
philips
irc
##flin
nowhere
anticip
cyril
##909
burgh
equipped
hardin
astrid
garlic
discovering
panam
globally
cartil
cabbage
sudbury
marshes
hanja
frederik
sherwood
venezia
suffrage
##iatus
##anteed
levine
salvatore
calculation
approaching
katharine
pipeline
priority
weddings
forgiveness
pursued
examined
guaranteed
delegation
sparks
stretching
terrace
##ierrez
moisture
crayola
transmitter
whalers
nomencl
enjoys
asclepias
sweeney
obesity
eil
ether
ease
hinter
jihad
kors
kuh
rolf
taca
zig
##wala
##electric
##lana
##city
##farl
##edal
##etano
##overs
##ulse
##aky
spite
trudeau
##aching
foil
blanche
1241
1399
##azon
highlights
moe
##cke
wally
corp
summon
salty
##hammer
##804
talents
##908
confront
trades
naturalised
hostile
paperback
papyrus
collide
##adores
bernad
gardiner
facil
blocking
hanks
bedroom
illustration
ipc
indicating
ignacio
repeating
baptized
igles
lanes
##clusive
mackay
photojourn
blogger
miyazaki
##stitutional
phosphate
ciudad
apocalypse
##building
micropro
corridor
microorganisms
##farlane
aura
bs
cair
dane
ew
fade
gory
jma
##aar
##wulf
##tus
##tun
##fan
##inz
##isław
##otus
##imental
##avo
##aper
mania
abort
compost
roque
agra
1633
1694
##ultz
resin
contests
1368
guth
outlets
moines
##encio
glendale
##apple
archiv
voiceless
aven
catarina
##111
soundgarden
hostages
sharia
darius
stravinsky
ulm
practicing
therese
42nd
1561
##onnect
gangs
polygon
hygiene
hangs
illegit
gypsy
symphonies
terminator
sponsors
tipton
kazakhstani
enforce
##govern
grenade
yankee
assumption
blessing
barbera
guangzhou
##accio
filippini
compensation
thelma
rsssf
masculine
elliptical
bandicoot
solstice
bung
boud
dard
ery
mers
morrow
sond
tula
##qing
##bah
##edio
##alayan
##oland
chased
##ighton
shankar
arezzo
spare
##acs
##acoph
prisc
##ritt
##upa
manchu
flair
1673
1240
1230
cooke
##ucho
schemes
sauber
amen
swear
cradle
overland
stripped
mauna
##resh
valery
italiana
incub
takeshi
addicted
malmo
donn
##902
confron
motown
satire
drains
gunman
transliter
bowen
ahir
hayward
##herst
polyg
vasili
1709
1682
rye
muj
pokal
emergencies
##brough
acquitted
ravi
awake
breasts
guerra
dustin
fibres
##gregor
cambodian
glacial
taxonomic
rhodesia
andersson
rhea
docklands
suspects
dormant
hesper
tucson
falkland
configuration
reruns
pembro
hottest
hypertension
uninhabited
cale
ie
piers
ragn
uri
##dl
##esque
##icates
reinc
asym
##aglia
##anty
usc
footh
paran
1219
1266
assad
quill
quiz
systematic
louvre
##ipps
taur
##905
buren
pakhang
snail
##117
tener
astra
photons
eyew
insight
pacif
cabr
rolled
kimono
1408
responsibilities
shiny
ansbach
concentr
chancellors
1661
mariner
kiwi
mentally
tyrone
gutierrez
werder
stampede
vigil
tavern
monterey
encountered
eureka
reprinted
surpassed
caledonia
mausole
guernsey
cheyenne
absolutely
transactions
maastricht
cuck
dangers
fx
fum
gau
gma
hald
nutt
ocl
pills
sakh
tatsu
wim
yats
##hir
##buster
##alov
##ovis
##oton
##opithec
asper
shipped
##akan
##ellum
sciss
##endar
indigo
flug
twitch
disob
1135
##ysema
belts
quote
spacex
emissions
waldo
villars
saline
classroom
extras
superc
expo
francais
jewels
monta
sidekick
astro
45th
executions
penelope
derives
bully
garda
cantonese
casablanca
laying
automated
documentation
freedoms
reasoning
phoebe
namur
axes
oppose
bounded
srin
watershed
thickness
chatter
meteorology
vampires
##itarianism
anarchism
blowing
trombone
##proof
admired
beaufort
bracket
bharatiya
##horse
intervals
gentlemen
nueva
avoided
iqbal
krasn
hathaway
unconstitutional
incarnation
##zynski
micronesia
magistrate
smirnova
rattlesnake
darmstadt
kitz
lm
rn
##waffe
##cito
##parts
##onite
##robe
tog
##iliation
alchem
onion
heck
whistle
unse
##aller
##illand
##iek
##iez
spores
##ogues
abba
webbed
musa
1634
1572
1265
coffin
1420
contamin
1346
1375
madeira
statehood
amman
amherst
geh
geisha
skate
transcription
gladi
corona
kei
volga
alexey
distract
##baugh
ferm
babe
nicki
baj
##banks
##uhan
sirius
essen
sweep
hollyhock
mi²
1703
coolest
bartlett
ventric
sulph
dirk
interpol
cereal
mckenzie
narrowly
struggled
nominees
##ebook
antoinette
emphysema
prostitutes
amnesty
dauphin
semiconductor
spectroscopy
varsity
caretaker
macquarie
tenerife
70s
aix
dull
hana
lulu
rour
rios
uma
##cip
##oral
##onium
##ascript
##olm
##stat
hee
whl
leib
##abella
##ibor
##iburg
##izia
collo
1691
1035
1548
1594
1218
1480
1478
depress
##azawa
airfield
elmer
implies
##inta
submit
glaz
##ophiles
##ophytes
magna
malware
##alajara
morality
fisheries
middleton
ruf
faisal
gunnar
gunshot
##iscip
fortified
##uhle
requests
odin
predictions
grammat
aquino
1564
appliances
nyon
1587
symptom
mongols
revolutions
mallorca
javascript
chestnut
exercises
chopra
##iciency
perpet
guadalajara
phonetic
gcmg
alsace
denomination
herzog
##felden
shabbat
receptors
tesla
goalscorers
##mandu
peacock
luftwaffe
peshawar
cypriot
vertebrae
thallium
nomenclature
reincarn
fn
fis
gass
gps
hens
iff
pinn
qi
vard
zwe
##kr
##vol
##tori
##gle
##jad
##itra
##rova
##enti
##owicz
chasing
chihu
spess
##ebol
##ubers
manners
truss
##ansa
1679
bliss
1280
1238
1198
monoxide
buys
assume
slater
braille
emu
villar
natalia
haar
quezon
louisa
hohen
mathew
peterborough
managerial
conservatism
##ridges
sabah
kyo
loretta
embarr
signifies
christophe
baptism
ellie
sakura
subtract
mazur
stefano
parasite
yankovic
riviere
recreated
paraguayan
cinematographers
plaque
disagreement
ljubl
phyllis
supermarkets
brennan
touchdowns
shrewsbury
genevieve
ultraman
trolley
bf
bhe
caz
dang
eels
nal
nino
oven
pw
tull
vc
thong
##illet
##omas
##omori
##adish
##ayas
##opo
##athlete
##icha
excommun
apulia
comprising
##ibur
mezzo
musee
flock
##enskan
1617
brum
1220
1276
1476
1320
depressed
greta
maas
maize
himalayan
interrog
##rij
##enga
stew
##shahi
annot
##eee
suited
sumner
takashi
london2012
mala
vols
khuman
needles
zeit
##118
##tax
infancy
nicky
jeremiah
gardening
rainer
eaters
routledge
barbar
slowed
reasonable
clearing
kamal
gregor
oakley
1701
anatol
favorable
imaging
suspicious
challenging
ribe
weighing
rejects
restrict
ardija
paradig
a320
##missions
1600s
aztecs
permian
grigori
manifesto
incorrectly
erupted
blossom
transfers
propriet
daphne
triggered
bals
hn
jard
kia
lana
lute
lrt
nant
oates
pid
pae
pests
sama
soto
yous
##rint
##nier
##note
##uire
##mak
thum
##inky
##icius
##eln
stocks
##unov
sei
secession
clover
##ifolia
firth
phou
##iob
1260
##sport
medusa
starch
starvation
valued
retreated
invades
midwestern
topology
delight
donat
haem
workshops
##115
collectively
junk
timing
##zoa
facade
cabaret
##market
availability
vaj
bullfrog
alternatively
youtubers
1453
brunn
crowley
sahib
pelop
kathmandu
ogden
heavenly
storing
toxins
puppets
ostro
supervision
montene
shivaji
confessions
disciples
##svenskan
aguilar
abolitionist
seizure
fermentation
remembrance
pencil
disturbed
##mantle
conjug
sewage
domenico
schalke
nonprofit
mausoleum
cil
grom
grit
gaw
hk
hagen
kuch
lola
np
pelle
pesc
ural
vangu
##wash
##ioc
##faces
##zb
##ır
##oru
##isely
##ingual
##lew
##cea
beams
chico
##avar
spells
spagh
pri
prc
##orean
knees
afterward
joze
butte
1518
drone
schuster
saito
doha
regis
##ffen
swelling
capcom
moy
##both
trey
supergian
markings
stiller
handles
burd
benf
robbed
pressing
frankish
tori
caud
institutional
ferenc
prefectural
scotts
separating
separatist
textbook
ambrose
captains
dining
##prints
tamar
heroine
wikis
corporal
franchises
fredrik
##sexual
attracts
herschel
detection
oblasts
baths
luxembour
rushed
ricci
tastes
decreases
kelvin
sudanese
chatea
innocence
quintanilla
orebro
britannia
checked
bharat
ilya
wavelengths
ortiz
corros
korfball
illegitimate
caine
cfa
df
gems
hays
jed
kali
nub
nune
zanz
##kot
##name
##gill
##zu
##ᅵᆫ
##anid
##lek
##stetten
chl
chok
ork
##ainen
pritz
##ritical
manny
tramp
apr
parc
1671
1536
1466
##week
wines
ames
surah
barcl
modena
steg
millimet
afrika
mesozoic
membranes
delg
storyt
youngstown
trois
##159
##working
collects
crossroads
lesotho
33rd
##atoire
fortun
antonia
fairfax
ashik
escobar
##zyk
lori
analys
johanna
instrumentation
hearst
carnivores
horseshoe
##enoord
##organic
hamburger
kelley
thorne
skulls
reptile
ninety
senegalese
tacoma
soyuz
verdict
herrera
nuevo
residences
karakoram
plastics
panthoibi
aard
bays
euc
fencers
lili
pn
padu
taw
wages
yew
yomi
##oya
##aq
##gence
##finger
##ᅧᆼ
##orth
##alone
##omat
stained
deacon
mara
marley
exoplan
boar
commut
##ryl
2027
thereby
twe
briggs
1030
1542
1275
1295
1285
drif
co2
1496
broye
##obyl
eliot
attic
meta
##llan
blackwell
signatures
##written
silesian
loser
economies
horatio
postage
rufus
##444
breakup
##iffs
stanisl
hawke
antonov
recognise
hindenburg
##akhand
1506
vasil
elek
remixed
gibbons
barrymore
gustave
hiragana
prominence
prophets
vaudois
pillars
vivian
faye
brasil
brasile
multiply
ossola
vibration
oyster
pronouns
disguise
dignity
bounce
complaints
asiatic
forensic
lauderdale
asexual
buccaneers
benfica
80s
goku
mould
sill
yin
##names
##hyla
##ᅩᆼ
##itel
anac
##reb
##ilio
##entes
algar
heidi
chh
##opathy
##agle
seaw
bytes
righteous
conform
##ebb
ary
newcom
##iffer
herault
ads
knicks
aller
decker
1130
1190
1445
##weg
1340
1326
1318
##tsky
regiments
guzman
geophys
airstr
howell
elijah
stargate
rowling
invitation
remin
rockford
##ushka
erm
verified
##position
karan
railroads
restless
##113
prometh
eyre
sarg
islamist
liberated
##burne
tuned
tsub
stephan
culturally
safari
##iotto
bagmati
ryo
fulham
grayish
ivanovich
zoological
niagara
honoured
sibling
nemo
enforced
kaye
calcutta
verbano
hermione
##straße
pharaohs
sympath
simeis
rebuilding
unwanted
invasive
paddington
sausage
enabled
hallucinations
parenth
traumatic
tolkien
galveston
oohira
gekko
gideon
ljubljana
pritzker
ipa
jaff
miley
suez
##vings
##jd
##jang
##eratops
##anze
##oras
reass
##irth
fores
hebe
##opath
##imm
##ocytes
shack
##avid
enn
pran
arne
marrow
##ellation
##oreg
bohr
##ecrow
1440
##ireann
1360
##uche
weed
helper
larsen
##urov
palisa
milestone
transm
##inoff
##boa
irr
sule
godfrey
davy
morb
mcgr
##199
cantal
accordance
assembled
shooters
1505
kidd
##paa
kimura
affection
fatima
mattel
slavs
investigators
sadie
weakening
mortar
transitional
knighted
scarecrow
migraine
1667
ferrer
sponge
chefs
announcing
mukher
sokol
##runner
gogh
skelet
astrophysics
giselle
eukaryotes
intestine
remembers
pueblo
jewellery
devotion
spokesman
embarrass
vanguard
90s
gyn
ieee
nis
nause
nanny
rok
wemb
wigan
yester
##oos
##rama
##ruck
##tok
##mies
##yamba
##four
##enka
anwar
##roth
##lez
##oupe
##igon
##omal
##elos
##chal
##usive
unfor
##isho
##arton
congr
##acca
truj
meur
phob
16v
##undra
##ahed
resolved
1430
1390
regained
electors
guantan
poisons
strangers
##ancies
crews
moors
thrower
brace
##rones
glove
##ontas
voor
keio
sanford
louder
##lois
publicity
richer
donations
rhod
fremont
continuation
termed
karol
montedio
zeph
devonian
arachn
melville
prevail
georgi
middleweight
climber
##442
curator
##179
observers
berne
escort
1503
stepan
selma
kongyamba
1204
carboniferous
1557
saddle
contributor
nyct
gravey
sulaw
bourne
gyor
achieving
scarborough
liszt
comparable
limitations
##e0e6
vulgar
podium
correspondence
isabelle
##ilingual
entrepreneurs
fujita
##childnames
wendell
sikhs
instantly
multiplied
hymns
heterosexual
guangdong
grosso
satisfied
oshima
jaguars
indirectly
xinjiang
accusations
occidental
frieza
b0e0e6
priscilla
cate
eintra
hench
lough
pann
pats
tata
wished
##uks
##mc
##mount
##yat
##fels
##ин
##itating
##reter
##olit
##iran
##ayi
##unas
##ested
plc
lease
##verde
manch
sheen
parrots
1622
1593
1210
1249
1165
1428
1380
1398
1385
sails
doh
endless
philologist
##erta
##coin
legions
incomp
courty
cypress
entre
entom
karam
##onauts
judged
freeway
promising
melted
cantor
##999
climbers
lowlands
##173
##132
bangor
watford
tuning
aqua
generating
finnmark
searches
fixing
wagr
laval
buckley
hazara
sigmund
wicket
gemini
uttarakhand
displaced
turbines
snoop
meadow
piazza
rochelle
brutal
australopithec
maneuver
cusio
ecosystems
##fluoride
inserted
crystalline
cagli
remnant
hellenistic
diagrams
agripp
poitiers
elaborate
alessandria
spessart
guantanamo
sulawesi
eintracht
pess
tally
tammy
vance
xiz
##rone
##good
##lau
##jiro
##arra
inac
##iska
##lehem
##ionage
##elids
orr
spans
enlisted
##orte
##ogi
trivia
##ucer
adhes
lively
1665
1031
decid
1530
1321
1327
1319
chariot
palms
assert
quang
himachal
metcal
opio
comedienne
##bru
defences
merging
campos
password
markus
argus
burden
troubl
firefox
trader
##116
##112
denotes
robust
azure
rounding
convoy
##333
##334
junta
identifies
domes
hoping
chechen
##office
masterpiece
1654
pediat
katz
1606
hanson
thinner
precisely
liquor
strengthening
lockdown
cleaner
paleolithic
dusty
loaned
psv
1790s
nuoro
bethlehem
nursery
wakefield
ocasio
swansea
seaside
seventeenth
sachs
vinegar
obviously
screaming
##ophyllum
vittorio
pocah
exchanges
bukit
##isciplinary
zanzibar
faint
jad
jia
komb
mapping
siss
tb
##das
##hala
##arb
##elman
reel
alar
wass
ons
onions
ory
##astrian
clav
newbery
abdom
caric
##eyn
1096
1225
peron
1435
conti
evgen
relates
upload
guil
##azy
superson
##awk
yorker
barg
schooling
armand
slade
hari
landau
##boats
cori
bien
solitary
sanctions
patr
downloads
wentworth
specialty
settling
verm
mato
36th
masked
##sych
candles
sarc
arthropods
praet
bushes
coward
hangul
spectators
paramil
calculator
discusses
1483
remembering
hydroelectric
coronary
hubbard
escaping
guatemalan
quadrup
salamander
solely
reprise
dormouse
carcass
highlighted
wolverhampton
mimicry
##gotland
hammersmith
abnormal
gaius
rhinoceros
conjunction
##otechnology
chieft
enslaved
guidelines
extraterrestrial
luxembourgian
pocahontas
a5
cud
fits
fij
fancy
jima
kiel
ketch
mub
node
t20
##ride
##tl
##yre
thesp
##enham
##arre
##itos
##omers
##step
cheryl
seating
shaman
##odi
conm
abby
##ikova
##acken
knob
livorno
##ensk
acanth
1227
1137
upaz
suppress
asset
##annis
endoc
rowland
harrow
gamespot
jeann
interrupt
portfol
anybody
intro
thiruv
popularized
townsend
matching
copd
takeover
squads
sounding
etrus
informally
##169
azores
waller
closes
homicide
objectives
qualifier
pasteur
darth
odor
cutter
syntax
contrary
lyons
spokane
##trak
1563
51°
packed
electorates
fashioned
##istaberg
labeled
ayers
chaudh
whitman
echid
tempore
minecraft
puppy
sapiens
duchesses
roofs
instrumentalist
adolfo
proposals
prosecution
marquess
pixel
tramway
kvistaberg
aristocrat
fujiwara
trenches
fiorentina
##atomic
pepsi
drosophila
chihuahua
ashikaga
bw
coke
e3
hov
hiatus
jian
lakh
lopes
mith
monde
tars
ying
##hab
##gam
##zko
##ᅥᆼ
##leon
##chichte
##adar
##emus
atch
atkins
pept
##acp
##sef
##phen
compressed
cared
induction
##tee
disse
##ensch
1693
blend
1248
1115
1449
octavian
1325
1348
outfit
overtime
numeral
palo
quake
interd
internationals
steering
transc
annette
##ometers
farah
berth
trough
montal
ballon
lottery
##182
testimony
climax
procession
##332
##olfo
boyz
jerzy
##134
rosso
shootout
akadem
1509
otomo
altman
44th
1559
horned
laden
ridges
sorcer
ignor
hurts
dystop
connell
integrity
chernobyl
cruze
gymnas
apparatus
fibre
cleric
hacker
stretches
pillar
crusaders
esteem
bikini
yogi
squirrels
bulldog
hewitt
linnaeus
awakening
acknowledged
billiards
geographically
unveiled
oclc
bk
banc
dov
dames
fenn
gins
jat
mx
rast
samm
vain
yacht
##kur
##hag
##gles
##pas
##zs
##ра
##idze
##ovy
##oting
##opal
deeds
deemed
##imos
shig
orson
neel
spor
##udy
fric
##upi
committing
scent
##tea
1025
##toons
grocery
perch
1120
wario
1437
1486
1355
##neur
##tsch
depths
famer
maury
##oodoo
barred
underwear
##wayne
sloan
obi
comedic
irons
paige
##ometry
keaton
illum
ordering
erasmus
khrush
florent
economically
mcbride
zeeland
##114
sexes
replied
##183
##161
prima
citadel
trainor
curves
37th
mayoral
bridgeport
##khar
dominance
##ropolis
marcia
acceptable
fundra
expressway
##ships
bedfordshire
ryder
dispers
espionage
violinists
yoko
ozone
hendrik
kickbox
havel
havilland
fibrosis
##pieces
patented
slovakian
repaired
tropics
zachary
antenna
cardiov
rpg
feyenoord
narciss
enlarged
impaired
rhetoric
leavenworth
diarrhea
kharkiv
trujillo
bival
boles
dwell
eton
eocene
fies
jasmine
kach
kund
kgb
mika
uday
vesp
x86
zy
##wid
##uine
##hya
##cut
##fen
##fact
##ᅮᆫ
thak
thres
##orov
inert
inex
##thra
##elines
##elih
chab
chuv
asb
##ummer
##fee
##illard
proxim
cones
mariano
marlon
playhouse
clones
##endicular
##izable
herds
pha
flan
parental
centennial
##tega
blink
##toon
1529
1160
1138
coen
1447
grange
schn
doi
pala
attitudes
moff
quir
quark
endow
filters
loading
##riere
accents
landings
##elsen
irma
suites
merlin
moran
posse
verac
murad
trousers
badger
##afogo
maturity
##194
israelites
masc
damn
warship
##agno
lyub
occupying
drying
misunder
elders
1684
mortgage
youtuber
fabio
pretend
taboo
oggy
attachment
reflecting
porcel
tetra
conversations
hammerhead
motorsports
riviera
botanists
substitution
evanston
knoxville
leverkus
schumann
shorth
ethanol
inclination
surgeons
warehouse
heisenberg
emancip
kardash
padua
gymnasium
fidd
hl
icar
oder
pell
penda
vt
vsev
voodoo
xian
yuz
##kol
##kah
##vil
##isers
andaman
##ream
toei
reis
##iron
chas
##ipar
linkin
##ptonshire
trance
noting
scala
##orde
##acek
decent
1226
1195
1488
sauces
regier
chartered
swind
geologic
overnight
airborne
##amax
impulse
2500
barriers
landforms
##sheet
remakes
myrt
treats
defens
malibu
advised
##queen
##bergen
tottori
karach
mcpherson
copeland
criter
etudes
##154
##152
samoan
similarity
stronghold
okay
##comput
pasta
darrell
identities
reactors
theropod
##imento
mandal
##hoek
snowy
haired
investigating
packs
litre
douglass
miya
umayy
zoolog
hurting
nitro
interpreter
ovarian
potentially
circumference
dumont
surfing
gp2
##hopper
rented
zionist
pahlav
affordable
disliked
ustase
aaliyah
weasel
elegant
pygmy
coppola
kimberly
mccoy
aortic
rehabilitation
spaghetti
etruscan
khrushchev
##elihood
batch
dose
dann
gaur
gauss
kau
nairo
tn
ua
vuel
wai
zucker
##kvist
##eers
##yuki
##icos
##icourt
toed
isere
##ivir
bele
congl
##esson
dijon
mango
excl
clippers
##ikos
meade
##quim
1524
1298
1431
scher
ame
soo
quer
25px
wherever
##arev
##ropy
jeong
invinc
humorous
emo
defenses
faro
##look
coloring
##mei
freel
vein
hoax
osage
##165
mustaine
601
panzer
gallo
bankers
46th
bulg
naacp
##oises
pandora
teller
sherlock
botafogo
trusted
tripura
eliminate
bourge
wolff
determines
##friends
sensor
smartphone
bilingual
cska
smokey
zimbabwean
tactical
conceived
determining
brutus
staple
andrade
maharaja
apocalyptic
compulsory
resonance
agustin
styria
endeav
iffhs
elektra
cardiovascular
leverkusen
drome
huck
kano
nf
ots
pga
sith
tuck
uf
##rip
##guns
##fk
##oran
##edience
inuit
##rost
##ilians
##elow
##elton
alo
ales
##unaga
unanim
conject
webber
sermon
roach
##balls
1024
1095
blaine
1513
1246
1299
1425
1497
craters
weir
underlying
skies
harley
landown
christi
epith
raises
markers
morley
rails
oskar
##153
##156
##198
hamas
##181
clem
ruin
##olester
walloon
jimi
microphone
##azzi
synonym
coldest
dunes
1407
1206
functioning
optional
bengals
grassland
ridley
concentrate
saturdays
punishments
narrated
spirituality
reunification
displac
quarterbacks
vedic
brackets
australasia
cremated
positively
myeloma
privileges
yakovlev
ibaraki
northamptonshire
allegheny
postponed
mukherjee
nausea
paramilitary
auss
baut
cotes
jena
krem
muzz
nievre
rd
rish
rund
subl
yek
##oia
##aedia
##sg
##tag
##yuan
##cini
thi
##enet
##atma
aldo
stakes
##irr
chish
##terozoic
##raw
##arty
##odle
##aina
actin
newt
trif
##enden
2025
1613
1027
1079
1221
1231
1235
1278
1286
##lesford
1131
1126
1111
1429
amit
charley
estelle
##eport
##ollen
##ukas
slo
brawl
##riya
angolan
legged
##ricks
intact
courthouse
powerpuff
meso
dax
debated
specialised
haas
secretariat
##192
woodpe
deton
##163
##166
##162
wilma
curios
##171
distribute
chaired
gianni
bullock
offerings
lifts
sadness
siddi
vikram
spectral
theorists
1582
virtues
pavia
##ogenesis
sulz
dressing
disappears
contempor
sensors
maze
bicameral
choirs
kreuz
choreography
ripley
cavaliers
gymnasts
pieter
mouths
perpendicular
counselor
razor
babylonian
lucha
congolese
fulfill
tetrapods
thierry
thurgau
hyperbolic
abortions
bheem
jozef
cagliari
nairobi
cured
kott
kana
nieu
sog
tesi
zork
##sville
##hound
##tan
##cony
##zeb
##zio
##lei
##ouf
recess
##etism
chum
shuff
atal
##aval
##odar
proc
spins
exagger
##anges
##assi
whoever
1028
novo
janis
1125
basins
monophy
1329
schism
elgar
showa
listened
empower
reddy
annona
##ontroll
breach
discrete
mids
salah
##linger
solic
rhon
marta
hardest
denial
sexy
##185
multilingual
##efin
faulk
distributor
rosenberg
observing
cartridges
##laughter
eaton
shrink
kenji
rods
synonyms
##icksburg
rotor
accepting
tagore
1552
huber
lifespan
conquist
1681
bradshaw
huron
consumed
pioneering
kaplan
sicilian
tortoise
aborigines
ugandan
grenad
sindhi
patti
nadia
gottingen
summerslam
expectations
##ugeot
vibrations
grimm
whitesmoke
jpg
navarro
threads
squidward
dartmouth
centimetres
reelected
excessive
sacrifices
swabia
excluding
laptop
seahawks
##orchestes
foothills
pakhangba
ait
fue
jtw
pies
silt
##zawa
##onics
##enheimer
##asca
chag
chiy
##iese
unint
##allah
pea
peugeot
arenas
##essy
canopy
abuses
serene
hertha
agenda
##enshire
1674
bloch
1211
1175
##ahar
resumed
1436
##wei
1310
1347
1395
1386
genie
britons
soils
geologists
pointe
##ancon
##ophilia
raoul
majors
directorate
cyst
freiburg
mcne
collectors
##167
convey
bored
almond
bowls
05°
logs
bello
vaish
mobil
1562
investigative
spiny
tatiana
fabian
manslaughter
rouen
sophistic
hannover
expeditions
rodrigues
kiw
cockpit
gonzalo
amplif
dwelling
navigator
tentacles
martyrs
lukas
mushrooms
tanner
obstacles
gossip
fraternity
exhaust
##thorpe
welding
vintage
grammatical
conglomer
jtwc
bitch
diac
fender
jenna
nv
ostr
tory
tama
wired
łodz
##kom
##uly
##into
##itte
##oub
isla
##amir
alman
healy
sears
shov
##avir
spal
abrams
trunks
##iken
1099
1533
1439
1471
grat
sauv
willough
medellin
noth
harlan
remy
##ammar
annoy
corpse
summar
biom
attackers
berk
rhacoph
jacks
eventual
hooks
fallacy
##158
##155
matric
cirrh
ballarat
##188
##184
masah
premise
connector
tracked
banknotes
softball
facel
mirage
backgrounds
jonah
scranton
gaia
##knot
suicidal
alfa
gabor
43rd
1554
searched
1308
pigments
1704
fillmore
ladakh
vertebrate
handsome
oberliga
bathing
discussing
petersen
compilations
sakai
carpath
rahul
mannheim
1500s
toulon
methyl
interscope
collapses
tightly
eugenio
cigarette
bantu
stamford
adulthood
peyton
energetic
tuvalu
hibern
extermination
vaisala
indochina
wembley
graveyard
eber
fg
kiv
loun
nemat
oun
pfe
tutt
wic
wett
##eka
##bok
##erte
##inac
##onit
toho
tokaido
##thi
##elen
##cey
sewing
atkinson
withers
arama
##iches
trist
##ifix
haskell
scors
##ultures
1166
warlord
1341
relics
sykes
doe
crumb
appo
valves
##rios
crows
##elsdorf
romanov
##zewski
sonatas
grandma
haq
martina
mca
##197
garth
##186
sharpe
administratively
ivorian
curling
sugars
columbian
qualifications
cartel
dario
uluru
savings
fairbanks
dinamo
steppe
mccull
dealers
mechanic
suggestion
pedestrian
bonding
ganges
lifelong
imperialism
1607
##breaker
fearless
cleaned
ppv
ravenna
mckay
fisherman
piquet
cryptoc
wedge
brahman
witnessed
experiencing
digestion
blueb
ossetia
crucifix
magnetism
caldera
licensing
niels
##alpindi
slipknot
blazers
thoroughbred
##estrians
porsche
guthrie
colloqu
unforg
bile
eid
eireann
jiri
lure
nach
nuns
oe
tid
tinker
v8
vere
yal
##rically
##nom
##tland
##bag
thalia
##enwald
inorganic
reapp
rebrand
cheb
##ignano
##estinal
ata
##avas
##illan
##abs
##ichael
dik
clancy
##0000
collin
phyla
1020
1236
##icka
1349
regener
##ughts
preference
appet
##ierz
grouping
larson
creativity
quay
##intestinal
jehov
glue
##enegger
salazar
filmmakers
##inkel
faroe
presently
grandpa
billions
erika
fremantle
happily
talbot
argu
##forth
##157
##196
##195
petals
##751
##168
citing
##oyo
##174
##iscard
textbooks
##iasis
1508
kingsley
sabrina
embolism
1708
dalarna
rawalpindi
1589
bryn
lacks
compiler
isaiah
geraldine
cedric
schwyz
consequently
concordia
leakey
adrienne
supremacy
seamount
kilogram
catalyst
circumcision
gastrointestinal
nebulae
##bothnia
portfolio
aachen
bong
cumb
hila
hilly
joshi
loll
llan
nett
riy
tore
tbs
waver
##with
##kash
##num
##nab
##jn
##xit
##zat
##enthe
##icesters
##elina
##chief
hebr
##osato
shuk
oron
orwell
spence
spikes
enable
leicesters
prag
prism
tez
dire
dioc
lining
hertz
rohan
##quate
1127
##econds
coimb
1421
1448
1493
germs
1377
##neg
sai
amis
finlay
betsy
maul
speculation
undercover
modification
redisc
soluble
currencies
##nais
dona
superfamily
debts
halves
franca
posters
##189
##164
mustang
purity
wilkins
##apeake
##iyya
adventurer
identifying
savanna
odessa
domination
synod
1501
##manns
lasker
rugrats
surveys
axi
conception
tatars
ventures
chrome
lacked
syndicate
toxin
struggling
mazda
soundtracks
udas
javanese
eisenstein
calcio
kidnap
protestantism
absorbs
ornamental
cheney
gdansk
attributes
##acheslav
anastas
inferno
kusatsu
rabbis
ankle
rostov
iberia
legitim
chesapeake
archduch
accommodation
remarks
bartholome
adultery
silvio
overlap
pomerania
phylogeny
telenovela
telenovelas
thessalon
masturbation
mcclellan
iglesias
ostrobothnia
montenegrin
willoughby
scorsese
jehovah
leicestershire
dared
iata
kett
nol
rm
vett
wadi
##tu
##cans
##bart
##fic
##erel
##atists
inge
##isans
##itre
ange
##aski
##asato
##oler
##ayn
##igham
##utra
##rai
##estation
plumb
conch
##ugal
marius
##uper
manic
norbert
indefin
allsvenskan
1614
mined
1441
1494
1465
1311
1396
schle
charging
smiley
##ussen
showcase
barley
oldham
bandar
archimed
addict
##araj
castes
vij
debussy
catfish
benign
##191
balloons
macfarlane
failures
modeled
drey
naver
destroyers
essence
1409
napier
gangsta
1305
illustrators
brightly
mortality
dedication
maximus
sediments
crowds
scripture
milkweed
jarvis
battleship
breaststroke
lenny
barnum
absorption
##isoft
bjorn
morphology
##oglob
palaeont
gadd
stereo
tupolev
recovering
convenient
motivated
encrypt
chitral
chowdh
cheek
vortex
mucus
vipers
invasions
aromatic
kindergarten
##lifters
nurnberg
consecrated
nadezh
porcelain
regierungs
aida
ciph
duma
durga
hano
kank
kool
liang
nus
oden
qb
rf
tipp
##wah
##hika
##mler
##yev
ankyl
##igley
rees
##uso
##oten
beers
##aguchi
unde
orne
spelt
arles
##geons
notices
##phs
roan
1037
1288
1255
1128
1176
broker
overlord
elise
##ashvili
armando
skir
steak
humour
easton
##atori
##ophon
headache
malaya
expon
civile
khul
confusing
rommel
danes
limb
olson
timur
medicinal
pianos
murdering
##royd
librarian
programmed
rodent
raman
39th
piero
shapiro
quarterly
picnic
piccad
preparations
##hru
calculating
shelton
##points
scholarly
1669
1662
dictionaries
considerably
delivering
nestor
mendels
pups
complaint
anarchy
melodic
checking
sustainability
commodity
kendrick
chrysler
gondwana
baek
rubinstein
waterfalls
potsdam
clapton
arvid
chimpanze
deployed
overturned
pantheon
chevalier
subcommit
threshold
bourgeois
hebrides
chimpanzees
fff
jt
jahan
kog
kota
mace
mira
mtr
niro
pits
purg
tch
ux
vfl
vulture
##wati
##kat
##like
##maine
##он
thapa
thistle
inactive
##alur
##alid
##isburg
##asp
##amble
rechar
staling
##ayam
##usch
beatty
chard
deh
##aguan
##utin
##osca
shem
comoros
ortega
##aines
spree
lek
marlow
##ublish
##orna
abbe
scra
##anshi
fools
##quest
flumin
flinders
##ensh
decca
1543
1245
1239
offense
janice
warns
##news
schultz
gret
swans
albans
caleb
artic
elves
##ielle
barrie
watergate
peaking
maki
##alypt
volvo
richland
activated
##193
astor
postc
limiting
accordion
macintosh
60th
consideration
##arios
##woods
planting
sommer
mahler
programmers
##burton
waited
welker
weightlifters
flattened
kilometer
sedg
bartolome
ignat
bucket
perfection
demanding
regulatory
ferrara
diablo
chatel
udp
gradual
grenoble
jailed
analyt
hippoc
mehta
unicorn
fateh
poured
symmetric
polynomial
vyacheslav
ammonium
tattoos
orphanage
ostergotland
exchanged
caterpillars
nautical
eccentricity
microbiology
numbuh
panamanian
courtyard
chuvash
pahlavi
regierungsbez
ciphers
piccadilly
mendelssohn
1x
a4
cress
fission
fitting
gills
gomes
hitt
jib
m4
mif
mire
miros
nike
npr
pai
papp
sanger
##rud
##rans
##drop
##wijk
##nin
##nal
##mos
##yam
##bitt
##bauer
##esch
##arab
inclusion
andri
isk
##ammer
onward
chican
chek
##opsy
##iaz
shrev
plasm
##ieure
arson
arias
tep
indicted
souza
reply
prescribed
1178
basalt
evap
uploaded
regain
mauro
capabilities
##ieta
quo
islander
##anek
solv
godwin
vienn
campania
##eshow
visually
haber
cleans
purcell
nicktoons
narnia
##ohn
gaol
swept
##hofer
specifications
arnhem
guinean
##enhausen
impacts
metroid
encyclopaedia
worthy
wikipedias
continuity
migrants
brigades
terminals
decreasing
cristo
szcz
mimi
adriano
komodo
brasilia
shakur
deported
allegro
ffcc
##omorphic
mysore
jalal
vickers
pikmin
##arynx
vortis
biał
sauropod
vauxhall
supervisor
sapphire
cactus
colossus
svetlana
scrooge
conscience
palsy
pegasus
meurthe
abdominal
vsevolod
cirrhosis
stalingrad
shreveport
cev
dicks
gough
gaps
hj
jans
lore
lull
olof
pico
vader
xiang
##ioca
##vat
##tit
##gir
##lik
##lova
##job
thad
##iguous
toss
stowe
sext
shams
##iegel
spun
wors
##rites
afonso
notion
scall
serf
foam
knots
disin
1237
1247
##undo
novos
1196
1446
1477
edg
edema
pops
televisa
amd
amc
trapp
geese
strick
belo
provisions
mohan
rowe
##shade
emission
operetta
##anez
deficit
patel
##loff
supercup
markt
khanna
cathode
queer
madden
mcint
hooper
##187
[...]
