[PAD]
[UNK]
[CLS]
[SEP]
[MASK]
<S>
<T>
!
"
#
$
%
&
'
(
)
*
+
,
-
.
/
0
1
2
3
4
5
6
7
8
9
:
;
<
=
>
?
@
[
\
]
^
_
`
a
b
c
d
e
f
g
h
i
j
k
l
m
n
o
p
q
r
s
t
u
v
w
x
y
z
{
|
}
~
¡
¢
£
¥
§
¨
©
«
®
°
±
²
³
´
µ
·
¹
º
»
¼
½
¿
×
ß
æ
ð
÷
ø
þ
đ
ħ
ı
ł
ŋ
œ
ǁ
ǃ
ǝ
ɐ
ɑ
ɒ
ɔ
ɕ
ə
ɛ
ɡ
ɣ
ɪ
ɹ
ɾ
ʁ
ʃ
ʊ
ʒ
ʔ
ʰ
ʲ
ʷ
ʹ
ʻ
ʼ
ʾ
ʿ
ˈ
ˌ
ː
α
β
γ
δ
ε
ζ
η
θ
ι
κ
λ
μ
ν
ξ
ο
π
ρ
ς
σ
τ
υ
φ
χ
ψ
ω
а
б
в
г
д
е
ж
з
и
к
л
м
н
о
п
р
с
т
у
ф
х
ц
ч
ш
щ
ъ
ы
ь
э
ю
я
є
і
ј
ћ
ү
ә
ա
գ
ե
թ
ի
լ
կ
հ
մ
յ
ն
ո
ս
տ
ր
ւ
א
ב
ג
ד
ה
ו
ז
ח
ט
י
כ
ל
ם
מ
ן
נ
ס
ע
פ
צ
ק
ר
ש
ת
ء
ا
ب
ة
ت
ث
ج
ح
خ
د
ذ
ر
ز
س
ش
ص
ض
ط
ظ
ع
غ
ف
ق
ك
ل
م
ن
ه
و
ى
ي
١
٤
ٱ
پ
چ
ڈ
ک
گ
ھ
ہ
ی
ے
ە
ܐ
ܝ
ނ
ރ
އ
މ
ދ
अ
आ
ई
उ
ए
क
ख
ग
घ
च
ज
झ
ट
ठ
ड
ण
त
थ
द
ध
न
प
फ
ब
भ
म
य
र
ल
ळ
व
श
ष
स
ह
ा
ि
ी
ो
ौ
।
॥
ং
অ
আ
ই
ও
ক
খ
গ
ঙ
চ
জ
ঞ
ট
ড
ত
দ
ধ
ন
প
ফ
ব
ম
য
র
ল
শ
স
হ
া
ি
ী
ে
ਾ
ର
ା
க
ச
ட
ண
த
ந
ன
ப
ம
ய
ர
ற
ல
வ
ா
ி
ு
ே
ை
ರ
ക
ല
ാ
ി
ක
න
ම
ය
ර
ල
ව
ස
ා
ෙ
ก
ข
ค
ง
จ
ช
ณ
ด
ต
ถ
ท
ธ
น
บ
ป
ผ
พ
ภ
ม
ย
ร
ล
ว
ศ
ษ
ส
ห
อ
ะ
า
ำ
เ
แ
โ
ไ
་
ა
ე
ი
ლ
ნ
ო
რ
ს
ᄀ
ᄁ
ᄂ
ᄃ
ᄅ
ᄆ
ᄇ
ᄉ
ᄊ
ᄋ
ᄌ
ᄍ
ᄎ
ᄏ
ᄐ
ᄑ
ᄒ
ᅡ
ᅢ
ᅣ
ᅥ
ᅦ
ᅧ
ᅨ
ᅩ
ᅪ
ᅬ
ᅭ
ᅮ
ᅯ
ᅱ
ᅲ
ᅳ
ᅴ
ᅵ
ᆨ
ᆫ
ᆯ
ᆷ
ᆸ
ᆼ
ន
ម
រ
ា
‐
‑
–
—
―
‘
’
“
”
„
†
‡
•
…
′
″
›
⁄
₂
₤
€
₹
℃
№
ℝ
™
⅓
←
↑
→
∈
−
√
∞
∴
≈
≤
≥
⋅
─
│
└
├
█
●
☆
♥
♦
♭
♯
⟨
⟩
ⴰ
ⵜ
、
。
〈
〉
《
》
「
」
『
』
〜
あ
い
う
え
お
か
き
く
け
こ
さ
し
す
せ
そ
た
ち
っ
つ
て
と
な
に
の
は
ひ
ふ
ま
み
む
め
も
ゃ
や
よ
ら
り
る
れ
わ
を
ん
ア
ィ
イ
ウ
ェ
エ
オ
カ
キ
ク
ケ
コ
サ
シ
ス
セ
ソ
タ
チ
ッ
ツ
テ
ト
ナ
ニ
ネ
ノ
ハ
ヒ
フ
ヘ
ホ
マ
ミ
ム
メ
モ
ャ
ュ
ユ
ョ
ラ
リ
ル
レ
ロ
ワ
ン
・
ー
ㅅ
ㅇ
ㅎ
一
三
上
下
不
世
东
中
丹
主
之
九
也
了
事
二
五
井
交
京
人
仁
代
伊
会
佐
作
你
保
信
備
元
光
全
八
公
六
内
出
別
利
前
劇
力
加
動
化
北
区
十
千
協
南
博
原
县
口
古
台
史
号
司
合
吉
名
君
味
命
和
問
四
回
国
國
土
在
地
坂
城
基
堂
報
士
夏
外
多
夜
大
天
太
夫
奇
奈
女
好
子
字
存
学
學
宇
安
宗
官
定
宝
宮
家
寺
寿
小
局
山
岡
岩
峰
島
川
州
市
帝
平
年
幸
建
式
張
彦
後
得
徳
德
心
志
念
悲
情
愛
成
我
戦
所
手
打
政
教
文
新
方
族
日
昌
明
星
春
時
智
書
最
會
月
有
朝
木
本
朱
李
村
東
松
林
校
株
根
森
楽
歌
正
武
死
氏
民
水
永
江
沙
河
治
法
津
活
流
浦
海
清
港
湖
溪
漢
火
為
無
片
版
物
玉
王
球
理
琴
生
田
由
男
町
画
界
白
百
的
皇
直
県
真
知
石
研
社
神
祭
福
禮
科
秦
究
空
立
章
第
系
紀
經
総
線
縣
羅
美
義
老
者
聖
自
良
色
花
英
草
華
葉
藏
藤
蛇
行
西
要
観
言
記
話
語
議
谷
豆
赤
越
跡
路
車
通
速
遊
道
選
郎
部
都
里
野
金
錄
長
門
関
阿
院
陽
雄
集
雲
青
面
音
須
頭
風
館
香
馬
駅
马
高
鳥
麻
黃
黄
齋
龍
ꯀ
ꯁ
ꯂ
ꯃ
ꯄ
ꯅ
ꯆ
ꯇ
ꯈ
ꯉ
ꯊ
ꯌ
ꯍ
ꯎ
ꯏ
ꯔ
ꯕ
ꯖ
ꯛ
ꯜ
ꯝ
ꯟ
ꯡ
ꯢ
ꯣ
ꯤ
ꯦ
ꯧ
ꯩ
！
（
）
，
：
～
￼
##t
##r
##a
##d
##l
##i
##n
##g
##v
##1
##0
##9
##5
##s
##e
##u
##c
##h
##j
##o
##b
##2
##3
##8
##7
##f
##m
##k
##w
##6
##4
##p
##y
##x
##z
##ð
##τ
##ρ
##ε
##υ
##ς
##q
##ø
##°
##æ
##а
##р
##е
##н
##ь
##ん
##は
##у
##ш
##т
##ᅪ
##ᆫ
##ᄉ
##ᅥ
##ᆼ
##ᄎ
##и
##ж
##ᅦ
##ᄌ
##ᅩ
##ᄃ
##ᅢ
##ᄋ
##ч
##в
##х
##ว
##ง
##ม
##ห
##ร
##ณ
##พ
##ะ
##เ
##ก
##น
##ข
##า
##อ
##ι
##δ
##κ
##η
##я
##ц
##ܝ
##ᅡ
##ᆨ
##נ
##ח
##ם
##ی
##ا
##ک
##ı
##к
##о
##л
##ф
##ʼ
##ㅅ
##ㅇ
##ा
##ग
##म
##त
##ी
##フ
##ス
##ト
##ー
##リ
##ע
##ב
##ו
##ד
##ה
##→
##ℝ
##ß
##²
##ه
##ب
##د
##ด
##ธ
##ᄒ
##đ
##д
##λ
##γ
##α
##φ
##μ
##с
##च
##ि
##प
##ळ
##ل
##ر
##ح
##م
##ن
##ᄇ
##ᅧ
##ᄂ
##ᅳ
##ʷ
##レ
##モ
##ン
##ᄀ
##ᆯ
##п
##б
##г
##і
##ش
##ي
##خ
##จ
##ศ
##ล
##ย
##っ
##と
##º
##թ
##ա
##մ
##ր
##އ
##މ
##¨
##м
##з
##ω
##ν
##ق
##ة
##ி
##க
##ᅮ
##ᅨ
##え
##い
##あ
##さ
##く
##せ
##ल
##ो
##ष
##ᅭ
##ف
##ء
##ל
##ג
##ɔ
##س
##テ
##イ
##ᅵ
##ᆷ
##ᄑ
##ᅣ
##£
##œ
##ற
##ந
##த
##ு
##و
##ħ
##ə
##ʻ
##½
##®
##ィ
##ł
##י
##×
##ˈ
##ː
##ᄆ
##न
##श
##स
##ह
##ο
##ต
##र
##व
##ク
##タ
##ɣ
##ɒ
##ट
##−
##ไ
##แ
##ช
##ம
##ப
##ᄁ
##ہ
##რ
##ე
##ნ
##ი
##ы
##फ
##ʊ
##ɪ
##℃
##ル
##の
##ո
##ե
##տ
##ի
##ն
##ᄅ
##ɛ
##ꯦ
##ꯅ
##た
##ǝ
##ꯄ
##ꯣ
##ꯛ
##ᅴ
##ᄐ
##य
##ү
##э
##ج
##ʃ
##ய
##ர
##ⵜ
##ⴰ
##כ
##ת
##セ
##ハ
##ᅬ
##ᅯ
##द
##ண
##ෙ
##ɹ
##ট
##গ
##র
##া
##ম
##ラ
##ッ
##ค
##ェ
##ت
##±
##を
##ю
##щ
##١
##ภ
##ส
##ถ
##´
##σ
##サ
##ɡ
##ɾ
##ਾ
##ꯩ
##ꯔ
##ꯎ
##ꯕ
##シ
##ャ
##ニ
##ز
##き
##ξ
##ム
##ல
##บ
##ผ
##ט
##ण
##য
##খ
##ল
##ী
##う
##わ
##β
##ʁ
##そ
##む
##て
##ש
##ص
##か
##し
##ब
##¼
##क
##ふ
##¥
##ꯜ
##ꯂ
##ꯢ
##ɐ
##ض
##ാ
##ј
##گ
##ع
##ठ
##⁄
##ᅲ
##エ
##ア
##ᆸ
##ר
##ක
##ා
##キ
##ى
##ث
##ナ
##א
##ʰ
##ே
##ை
##ק
##©
##ख
##₂
##ɑ
##オ
##פ
##מ
##ꯝ
##ꯖ
##─
##ە
##ミ
##ウ
##θ
##ュ
##پ
##☆
##め
##♭
##ি
##ध
##ა
##ท
##ර
##ස
##ъ
##ษ
##ワ
##こ
##¹
##³
##な
##ك
##ւ
##կ
##ে
##ক
##￼
##ŋ
##π
##ꯧ
##ꯡ
##ホ
##ई
##হ
##দ
##ன
##ꯤ
##ම
##ය
##भ
##ব
##โ
##வ
##ত
##প
##ʾ
##ா
##ட
##™
##マ
##غ
##ރ
##ঙ
##ধ
##ꯌ
##ꯃ
##ರ
##ᄊ
##よ
##ま
##ћ
##ս
##チ
##ヒ
##ョ
##צ
##ज
##ʹ
##ツ
##ケ
##স
##ס
##ψ
##ら
##ს
##メ
##জ
##ঞ
##ꯊ
##ذ
##ط
##χ
##コ
##ʒ
##ꯟ
##ල
##ड
##ᅱ
##ڈ
##घ
##ノ
##ロ
##●
##ɕ
##カ
##ھ
##յ
##も
##り
##る
##ন
##ᄏ
##お
##¢
##ই
##چ
##ং
##ゃ
##ひ
##ち
##ौ
##ป
##ן
##ǁ
##ফ
##～
##す
##ソ
##ව
##ʲ
##є
##ำ
##ظ
##þ
##ല
##ǃ
##শ
##み
##ʔ
##ˌ
##ә
##ា
##ម
##រ
##थ
##に
##€
##♯
##け
##න
##ʿ
##÷
##♥
##や
##ꯆ
##ے
##ക
##ও
##ᄍ
##ლ
##٤
##գ
##≤
##ড
##∞
##ി
##ା
##│
##└
##ܐ
##চ
##ދ
##ネ
##ச
##ז
##⅓
##झ
##↑
##ო
##µ
##つ
##լ
##ނ
##れ
##ヘ
##ꯏ
##∈
##ର
##ٱ
##ζ
##←
##⋅
##ꯍ
##ꯈ
##अ
##√
##ㅎ
##ន
##ꯁ
##ꯇ
##আ
##ꯉ
##ꯀ
##∴
##ユ
##հ
##├
##≥
##█
##er
th
the
##an
##es
##in
##or
##on
##en
##ar
##at
##ed
in
##al
of
##is
##it
an
##ic
##as
##ro
and
##ing
19
##le
##ou
##re
##ion
##ol
##ig
to
is
##th
20
##il
##am
##om
##el
##ent
##st
re
al
##ch
##ct
st
was
##ir
##ad
##ers
##ur
##iv
##ay
##em
##et
on
it
for
##id
##ist
##us
##ov
##ce
he
##ot
##ow
##un
##igh
200
be
ch
##op
de
as
##ian
##im
##ber
##ly
##ation
##ag
##rom
##and
##ight
wh
##ut
##ies
from
##oc
se
##os
##ter
sh
##ia
com
##ign
##ces
##um
##ul
##ra
un
##oun
by
##mer
##ear
##all
##ish
##est
##ith
201
at
##fer
##fe
pl
##art
##ther
##ak
right
##ere
id
##olor
or
##av
km
with
##od
199
are
align
##ican
##gc
bgc
bgcolor
ne
##ap
pro
sp
##ity
##ill
##ain
##ie
con
pe
##ac
that
amer
##feren
en
##ember
le
##ab
##ary
referen
##ip
pr
references
##eb
american
##ard
##ople
ar
##ess
##ust
mov
##ath
##ate
##ant
people
##ud
##ug
te
18
##ld
his
##ich
##ong
mar
wor
##ment
di
##ame
##ort
##ub
##se
##ge
##ver
##rit
##orn
##9e
other
lin
fr
act
##our
##og
play
##ast
soc
##ount
##up
##ated
198
##ell
can
##so
##ial
they
man
fe
##ue
##ive
##ore
##pt
us
##ost
ex
this
cl
also
##d6
new
af
##man
ab
##orro
##ates
197
linear
##land
tr
socorro
##ited
not
##if
##ok
has
pol
she
##uc
##ang
web
##ine
count
##ph
##sit
comp
##ome
##ical
ap
bo
##ors
##ave
were
fir
part
##ach
##ik
comm
##lish
sc
websit
##ack
bir
bec
##end
united
born
##age
##ib
first
##uary
##ord
##ry
##own
##iz
ser
##ure
car
##ey
me
one
##out
##mp
196
##00
nor
##ace
her
##ans
##ions
##ths
which
##ict
202
fo
##ond
ad
##ime
##ass
states
col
mus
death
##ational
##pe
eng
##ide
17
ind
kn
##ern
##ory
##wn
##ound
##amp
may
all
##fefe
fefefe
births
websites
liv
have
ro
##cl
##ous
la
##ice
##qu
##ball
##ance
there
##ician
movies
city
year
par
ph
##ade
ag
jo
after
tw
fl
e9e
##9e9
e9e9e9
##te
##ater
cent
##ree
dis
##ens
their
##io
had
195
##tern
sou
but
##der
10
194
who
2000
##ision
sept
16
##ics
bl
br
september
polit
##to
dec
##one
##aus
##ks
ac
pres
##lect
foot
world
rep
gro
12
sing
193
15
off
deaths
##per
##und
its
##ild
##ual
football
##les
2001
##une
call
##ock
about
nov
##ult
##lev
per
jan
go
dr
##ward
known
some
min
##ec
war
song
co
res
most
##ah
mon
bas
11
ger
when
many
oct
##ings
##sp
14
##ick
##ivers
d6
##gh
d6d6
d6d6d6
##ober
movie
##ire
cont
##ents
county
october
##act
##ustr
##ations
##we
##ied
##old
two
##ite
##iss
##uch
##ake
gr
march
writ
##ince
ev
##ne
##erson
##ould
rel
192
up
sch
13
used
##ence
south
called
##istr
national
aug
pop
##ities
ed
sy
##ton
sa
do
##ists
time
north
gen
##ts
##ery
reg
win
august
rec
made
german
##ames
january
##ugh
##ile
##ress
##ff
##ina
bro
telev
state
##ments
##rect
##ose
am
television
sec
living
politician
##ys
austr
gre
##als
found
dep
actors
##clud
brit
pre
so
fin
##ten
##ail
char
ear
##ons
hist
sw
##uct
est
des
cr
includ
will
univers
december
##ob
elect
more
november
direct
##uring
##ident
alb
died
##ese
##0s
##ition
##ough
bu
english
gu
##ril
team
li
king
##ork
##apan
we
##ike
1999
##ages
##olog
##atch
japan
##orm
ju
##iver
##ebr
##gan
##itt
ge
out
been
bet
app
fam
tra
april
work
gov
into
##ix
##ause
##ale
distr
sm
over
##span
febr
february
govern
##ier
cal
##az
po
##son
group
##ays
str
med
##ica
2002
sup
prod
##vel
##ft
air
##ague
##ury
##raph
series
##ubl
ma
during
joh
town
hel
commun
lar
num
album
british
##ablish
award
bel
##uro
##ep
art
stud
years
##anc
##hip
them
##enn
cre
##leas
offic
##aw
popul
july
became
league
##uss
el
cap
president
france
high
##ood
how
only
name
##oll
##ash
ass
pal
ter
form
prov
att
##ank
because
imp
university
##urn
##alian
2020
##ograph
music
john
##eral
district
##ama
no
##ily
river
releas
mo
mun
##icip
establish
191
##ool
24
played
##iet
qu
##ins
like
25
him
than
show
##ann
player
these
june
star
start
euro
##imes
21
##ett
##cess
##att
##ley
##port
end
##ween
spec
sur
##iel
##ism
york
##ench
intern
serv
between
##int
bar
book
##ouse
person
##oman
main
op
1998
##able
canad
lang
2003
history
met
second
##ai
##ffer
##res
again
30
##ely
##ional
2004
##uk
##ures
##urr
mil
under
where
depart
##ient
french
number
later
##round
2005
champ
##ve
arm
long
##air
##way
municip
school
municipal
three
row
##ss
best
such
life
record
langu
official
players
##til
then
##ason
very
law
##ower
##ublic
century
##ative
##ll
##ds
##are
chr
fil
##iam
care
23
sl
europe
former
party
##ister
thro
ob
mod
22
space
child
2010
won
lead
##ase
##ement
since
##form
old
would
##cer
west
##pl
2006
##emb
##gr
##ital
ty
##ect
##ather
##fect
sk
##ually
##fore
bus
released
sub
related
har
back
differ
val
29
list
band
2017
28
26
cons
2019
until
##rop
bra
##ium
##ious
##ren
inst
different
##amed
russ
actor
four
sport
establishments
lo
##ets
games
game
day
department
age
prof
2007
island
inter
club
sim
je
ii
##ri
loc
##ind
rowspan
area
emp
##ats
member
##ung
2014
international
27
div
ret
##enc
ang
house
##let
##oss
2018
before
if
##eng
trans
##aint
ste
##ron
##inal
land
through
inv
acc
songs
##au
compan
##ott
2008
family
region
##sh
government
##bert
190
phil
##stem
gl
singer
small
career
##ants
kill
##ner
rem
##ise
##ating
use
well
anim
##amm
hum
system
##ms
rock
##ology
##omen
my
dem
champions
red
make
ever
##thern
000
2015
2016
based
christ
same
##ull
ann
##ution
##ning
produc
##its
water
31
mill
general
2009
##ography
em
geor
##gest
east
2011
2021
##ont
##ino
##bo
peak
##ert
organ
did
##ck
##app
being
##ange
often
##ural
cities
oly
mak
##co
olymp
you
season
##ae
cro
orig
##dom
afr
##ark
leg
wal
##ines
##ee
ep
##ator
##urg
##els
##ral
##ble
port
##ounc
indian
pages
miss
calif
build
actress
arch
californ
vo
##ject
##ever
bre
near
named
california
##cc
##ove
country
vill
early
own
ra
language
2013
roman
##omar
##alia
##ollow
sports
##ered
##oph
##erv
both
##ific
women
place
run
japanese
##ata
mount
started
const
against
##ives
2012
ir
##iew
tre
palomar
##omet
comed
##aly
germany
website
charact
said
mag
profess
##gy
cor
##rest
disc
black
##ky
##fl
pa
1997
each
ec
italian
tex
any
kingdom
follow
su
sen
##yn
stat
cup
rev
##ians
great
##ony
england
oper
kitt
sum
population
communes
sal
mich
commune
mid
while
vide
inc
live
1996
##red
189
##ourn
film
##watch
lond
now
around
tak
av
last
##eter
minister
##ene
help
london
##velop
ke
however
##ature
spacewatch
##ger
hol
##ize
##urch
add
politicians
##uth
class
##ana
im
##ara
##ric
examp
2022
##ane
common
maj
province
##br
including
int
##elf
bi
head
develop
children
##ling
home
def
sever
appear
##ful
sol
directed
usually
cov
##ison
neat
championship
1995
rad
##ains
##ink
##iation
far
repres
##iness
way
##gin
set
god
design
hy
##ody
big
san
##atic
progr
municipality
var
cour
##ille
##ries
uk
##ode
musician
compos
caus
thir
just
##other
power
vers
##anish
cast
curr
##ago
drama
es
import
lou
several
could
##ield
canadian
video
sign
major
##estern
gold
##ined
america
1994
##rog
australia
##ows
top
memb
##ones
##yl
##ald
##ular
##by
youn
##ried
##istan
del
##ret
##ze
open
pat
good
vol
though
lived
##ized
##ction
park
##onom
da
ill
##lo
business
william
mes
company
1993
vi
attack
##ally
tit
##ilt
what
##ible
##ala
colle
eas
##ney
colspan
church
represent
tur
ext
1992
vir
down
times
members
##itz
##na
mer
anderson
188
son
##ved
##uction
##he
mal
##50
india
##adem
100
every
##omin
##ience
large
##cr
mass
public
created
assoc
##day
white
##ute
##ipp
swed
##burg
writer
pub
camp
##ler
##ues
single
short
pass
capital
##ke
##lex
ber
popular
adv
chang
rich
men
another
present
##inc
##ka
grand
suc
cancer
began
milit
phys
left
##ington
##ico
batt
don
bill
##ham
dav
original
australian
important
1991
186
##que
##min
##ps
ta
manag
million
get
russian
current
##writ
order
publish
contro
mor
cens
1990
##20
academ
##tain
spe
color
##ams
mark
histor
tem
super
##cept
went
ant
nat
saint
##ief
##uck
deb
example
exp
giv
union
light
##esh
species
census
cult
prime
187
compet
director
##ven
countries
mesa
##bs
##ty
civ
center
##ived
gra
braz
books
##ract
sil
central
political
##ford
towns
even
mex
scient
comedy
democ
famous
cy
somet
##side
writers
spanish
er
angel
##aster
##me
brazil
##ush
1989
written
military
cat
##ring
los
##30
third
##80
educ
##ma
##berg
groups
much
sov
##40
hon
six
father
roy
rh
##ior
human
lone
sea
sometimes
arr
wrest
western
##10
still
summer
support
kh
army
##ya
vis
##people
republic
##thers
match
include
activ
flo
line
##ices
canada
means
civil
paul
enter
see
1988
ur
flor
fre
gree
##ien
loneos
##60
tot
journ
sett
james
cath
##thing
heart
dut
sold
econom
vict
occ
earth
##ired
mean
five
special
professional
lab
##ided
##ida
tal
##xt
##omb
epis
pos
jack
##ockey
##itar
##ena
albums
happ
result
cam
##yle
gir
ha
1981
auth
married
##ves
college
fem
largest
##umb
contin
built
cond
##ots
##ides
##aces
que
##ius
##idge
works
##tt
hockey
hal
##37
story
##12
social
awards
mart
##ency
##chn
footballer
##led
european
comput
##lin
engine
1987
stage
1986
real
frog
louis
40
##uel
election
democr
northern
stand
##istics
need
arg
body
##rote
rece
##19
franc
chic
##ael
governor
soviet
george
young
##anch
##ple
ver
net
##ij
##aur
want
stre
does
kore
aut
##ania
division
32
bal
tro
##pos
dise
ent
hand
green
1980
came
##epend
fif
wrote
proble
tour
mur
success
independ
voice
took
##32
italy
##ek
##ansas
term
given
##alth
##47
ve
fri
1984
rul
china
##15
##42
lat
##ville
medal
hen
##iod
chicago
##por
bur
expl
become
kar
chem
held
moved
##ness
hall
1985
##90
##for
1979
fed
along
1983
conf
modern
##ised
50
##gress
##itch
##ster
##ars
pak
##aced
wash
total
jew
##45
##ano
texas
##17
mad
things
##iter
battle
##35
chin
##48
##ife
mont
mc
got
##ids
friend
stars
love
rail
sn
equ
author
##gether
nys
character
1982
food
version
word
hard
##18
1973
ze
fire
jose
tom
association
rom
##36
##ured
##ival
##par
##illa
following
##ners
##pes
##amb
bad
##49
dou
guitar
together
period
robert
hot
look
radio
##16
lu
1977
##39
trad
events
sun
journal
founded
science
##38
##46
ice
##ady
using
return
1976
level
techn
crit
cop
##lands
##rod
event
fight
##ories
rest
##72
##ona
role
turn
put
david
worked
##olution
##raft
african
dutch
sym
station
royal
mot
ho
type
##ges
relig
185
killed
municipalities
prote
jud
take
##70
##ators
footballers
counc
court
secret
scott
tv
##ander
dev
##ev
broad
road
fun
##ula
mother
##iety
##iro
1972
##aving
natural
##pect
##ught
published
southern
##ota
1978
plays
sound
leader
africa
##uted
asia
##itions
ben
squ
##avy
descr
den
parts
plan
night
personal
atl
next
ide
feat
chinese
side
35
hor
1974
et
stop
##ittle
statistics
##af
os
obs
wind
sent
##ilar
free
vot
1975
sex
scre
pakistan
##arch
few
musical
ath
washington
thom
village
pict
empire
ref
##writer
fict
##ases
served
alex
card
days
ce
##eth
little
christian
conne
aged
1971
muse
council
##antic
##dle
fall
final
##cy
hill
rob
ara
perform
1960
mat
girl
angeles
##rael
##lements
site
rap
##olic
disease
sat
data
prom
mel
making
##ility
fish
##oth
sam
caused
local
cir
##ki
artist
charles
##ically
organiz
##ells
belie
democratic
michael
##itzer
israel
math
emper
dan
press
becom
musicians
pet
post
##nes
ham
##ified
spain
##92
ast
turk
surv
non
similar
ten
virgin
constit
##ounced
##ha
##aland
##osp
inform
36
##yr
host
repl
less
det
cant
seat
say
rights
style
prev
##go
point
led
reach
collect
1970
##cle
ball
lake
1968
##odes
##work
producer
mary
those
museum
office
carol
richard
##gian
olympics
places
studio
lot
##iers
wood
##75
eastern
frank
lim
##ways
88
sportspeople
##earch
coach
mix
##ta
lost
##ump
admin
islands
novel
70
paint
research
academy
az
##mon
grow
struct
paris
due
thought
1969
sant
test
control
phot
ox
##78
seven
gar
pun
building
##11
speak
nob
money
discov
mas
##ying
coast
today
##ches
##76
##ument
sour
38
##99
##emat
without
cle
fail
nomin
tor
fact
accord
20th
##ero
dam
service
poet
dest
territ
##ef
45
##cial
middle
prize
##ced
ca
records
parl
beh
##ba
mem
read
florida
##be
singers
cla
characters
1967
bord
##ged
must
pur
greek
ru
##ened
##line
prem
dist
anc
computer
mac
1964
##ani
round
mult
shar
sit
##ket
##ude
60
blue
teach
teams
trib
prim
ol
brown
elected
exper
located
produced
received
wil
##95
languages
others
emperor
##25
##inois
peter
##cast
##eration
##rew
parliam
austrian
connect
##uts
##ention
title
screen
illinois
##west
##43
seen
cross
##wa
fur
##atives
conv
away
##ued
key
bor
##ted
exec
##ura
consid
strong
clim
late
buildings
90
report
##iga
##96
##den
ef
parliament
georg
switzer
allow
community
bay
kansas
##ini
force
switzerland
##oles
##gar
fer
lib
administr
##uce
instit
##aves
russia
news
mos
##98
republ
zealand
##ror
according
##ropical
low
pap
##ended
problems
chart
mexico
wife
##nd
olympic
ancient
##ored
##28
##ape
##ours
health
##26
mr
track
##ita
playing
##ughter
##41
##sy
##ari
makes
should
inf
##33
prefect
sweden
1966
race
oce
75
wall
##wood
chief
##ope
prot
##ols
catholic
information
##ado
areas
know
alm
scientists
##ffic
##ead
##ergy
resp
##ished
fa
##my
formed
sho
##hi
process
find
pan
poss
let
police
composer
storm
change
hung
der
##atory
pen
alth
86
education
shows
hit
##ctor
##ground
hold
bab
cert
infl
##iana
gun
##uke
describ
##gypt
##ew
van
ok
##ained
effect
85
argent
announced
queen
although
##itional
##ped
##adu
cit
lives
female
1965
du
95
refer
norm
basket
henry
gall
##olf
65
##ga
dra
chann
congress
egypt
##field
##44
iran
catal
##lic
train
animals
treat
##cent
80
##ops
##board
thomas
virginia
iv
180
boy
##era
##ipt
cand
##ris
##eball
joined
tenn
##oon
##ament
brazilian
voc
half
##onia
mathemat
##za
woman
1945
##bc
society
##lad
##icle
among
##31
96
baseball
defe
##ii
##oma
bud
##ender
1963
##hl
eth
mountain
republican
basketball
##asons
##ima
##ye
francis
penn
includes
##med
viol
##gen
changed
action
birth
##che
##lam
##ca
##wards
prince
##oms
##77
brother
episode
98
arab
full
##unt
mostly
les
never
ship
hurr
##osoph
swedish
bank
##ja
##oria
##22
##ances
uses
words
1956
lear
##leg
clos
sand
##of
cur
come
##aut
earl
sar
##thod
46
hurrican
project
notes
energy
nick
ire
blood
winners
philosoph
1950
lawy
hom
##ements
winning
dead
culture
prison
whe
hosp
instr
airport
model
network
engineer
daughter
1961
scot
oh
1962
ireland
##olk
##de
prefecture
austria
value
production
gave
entertain
##ersey
76
##ste
development
##idents
##oy
##aries
jun
board
##ny
##cel
too
forces
portug
rac
within
nether
78
program
pain
anth
##ned
jer
dig
product
dog
##ength
field
##ada
carolina
##ked
1948
##icles
##ims
1947
##uit
tropical
break
ins
##craft
##ban
##lement
bc
bul
coll
liter
##ogn
##akes
mic
included
federal
55
##etic
appeared
fest
distrib
dyn
netherlands
spring
##ission
street
types
think
##uz
better
##ais
having
##east
media
comes
iss
66
##ato
companies
plant
geography
wrestling
gh
00
cho
##97
##ux
tim
ba
crime
##bor
##wer
movement
lower
instead
##34
lee
select
wanted
##arian
jersey
sug
once
1946
die
kor
thr
cost
##ador
##bon
taken
1957
##wor
perfor
begin
comb
view
##iger
##awa
martin
sus
max
songwriter
2023
influ
jul
1958
##jan
separ
##ests
mach
##ming
##iding
almost
independent
1951
1959
front
##isc
##view
##ique
names
pers
##itect
columb
animated
map
##ological
##row
##ware
invol
##osaur
##ems
1949
smith
##cul
##27
metal
working
introd
##21
ocean
sem
##iff
##ox
developed
1942
meaning
polish
architect
##lete
1940
representatives
nar
pie
##sych
ros
1930
observ
established
##ker
1954
pot
scottish
jewish
broadcast
object
week
56
aver
covid
##iy
##zo
##ube
colon
text
counties
settlements
##gb
cann
1952
##ola
ukra
1939
##iest
1934
transl
georgia
##ellow
centre
1936
box
1941
##ym
1955
inh
##igan
pictures
tar
keep
1944
33
eight
##com
appro
##isl
flight
manager
corn
luc
past
##91
##bers
bern
soft
iii
##ither
##ross
##lor
done
qual
considered
##abit
cra
mayor
##itan
transport
37
islam
channel
dark
irish
theat
silla
above
##iple
plants
psych
says
premier
bang
##ared
kent
fort
##gg
medic
pian
tree
##da
##agon
##ification
becomes
eos
##ova
48
wild
##eder
study
able
##get
##anger
magaz
ground
goal
jim
##aker
highest
##ference
bass
hurricane
hale
##13
bat
na
##vir
##14
proper
1938
##ylv
position
##ints
travel
##elling
##car
1933
minist
##ih
canton
1929
winter
##la
##acy
studied
som
priv
chemical
champion
hospital
##ko
kr
34
##roy
##itor
release
178
glob
##ashi
pay
##unch
murder
1990s
parish
rank
various
##ua
##93
leon
rain
decl
##etts
incre
heavy
friends
##ental
1953
writing
##vin
stan
joseph
##ylvania
mater
temper
##aria
chair
1943
advent
give
##achus
##uh
secretary
##eds
currently
fiction
cart
retired
##vers
gard
pas
##ston
##ider
##94
stra
fifa
fox
1935
libr
##utes
bob
golden
review
here
##ologist
latin
aud
biography
burn
##over
least
##self
performan
##umn
fourth
requ
symb
korean
massachus
doc
##uced
sort
results
massachusetts
##ought
1937
revolution
##men
wars
silver
bridge
citiz
scotland
ven
##ella
month
himself
il
##sel
fly
penns
dar
##ination
##ils
electric
relations
##read
lie
1931
jr
##oo
##ote
cycl
##ately
87
jean
##ouri
opened
territory
##ondiss
##ards
##ishop
move
might
1932
male
arrondiss
rivers
1928
ul
wales
crick
artists
liber
##akala
senate
lik
conserv
professor
disney
##29
pac
your
ended
pennsylvania
sir
average
ren
##23
##24
railway
edward
korea
500
lord
jackson
successful
reb
ko
##stein
haleakala
complet
material
##used
eat
fig
originally
case
cause
climate
recorded
react
carl
asian
native
failure
wat
journalist
##aff
19th
prin
##ucle
haw
meas
protect
##aka
deg
conduct
##zech
mexican
cou
1980s
candid
sav
fore
meet
opera
##bour
ident
recogn
fac
medical
##mar
mir
##king
nations
##reg
mah
missouri
czech
##cially
ww
adult
fc
bow
ray
##apt
assemb
across
castle
certain
anton
presidential
mainly
ban
##dy
entertainment
##oint
##ently
##utive
1926
cele
##ette
##owa
68
cell
amb
envir
districts
nominated
valley
aff
1927
##ios
micro
exist
performed
arts
close
drug
##kh
dre
##aign
##ales
stad
nucle
drum
students
always
58
takes
environ
08
leaders
##band
cer
##urs
previous
catalina
##erb
beat
inside
##azz
festival
od
crash
services
commit
##ques
##li
mountains
##hol
##ulf
circ
either
fut
05
months
ohio
shr
##face
minor
##mark
##iev
gas
dom
brand
che
programm
cas
villages
capt
plat
##less
oppos
css
##ira
maria
roles
espe
theory
cab
doctor
##eld
##ending
hop
bron
dance
##any
##ario
ken
dynast
ran
##osh
fame
kind
pract
##abeth
gradu
##ably
systems
campaign
page
gal
something
numbers
ut
##itive
amount
1925
##ji
hus
06
changes
##ively
seats
princ
method
fle
##ole
57
background
outside
especially
##ense
##uf
peace
wr
tax
cub
hind
range
schools
##ores
magn
goes
astron
sister
##oke
##iles
##elle
helped
debut
inj
77
sequ
97
magazine
##orf
##igr
bon
##ends
##urt
##off
vice
origin
structures
kin
##ias
##ression
institute
invest
foreign
iowa
constr
domin
wid
programs
viet
tourn
##gl
episodes
ash
##oul
honor
destroy
windows
##reme
fair
seasons
##stand
1970s
atlantic
border
reached
going
religious
branch
##rey
idea
nobel
imm
##ivid
danc
aircraft
pu
din
rod
signed
michigan
esc
##play
interest
environment
stone
armen
roll
bomb
cd
jac
##oh
singles
competed
log
##ites
47
newsp
1924
shown
spir
pope
replaced
1922
historical
##yd
orch
newspap
assembly
##anda
market
pil
##uments
further
poland
concer
electron
square
##heim
moon
independence
technology
2000s
enough
##bur
##shire
arrest
legisl
pls
bav
##ati
prob
##va
bh
##outh
nav
##eland
goals
duke
inse
##owers
##ropol
musl
##nam
size
##aki
##ift
columbia
stay
serie
pred
britain
##kyo
hyd
individ
championships
laws
abb
rout
lay
gramm
##win
##ensive
speed
syn
officer
hous
nord
possible
##oto
celebr
##66
rome
##agn
regular
library
organization
master
animal
added
1923
sax
decided
founder
stadium
mess
birds
agre
tun
##bach
1960s
features
ach
##aska
##ume
soon
minnes
wwe
##idence
returned
date
##str
##ization
##gn
dynasty
ron
lem
2010s
commer
winner
miles
invent
minnesota
barb
autom
stories
tokyo
##yan
##use
individual
committe
ts
executive
##ipl
kil
naz
##ora
##empt
conc
allowed
##iated
bell
##chester
parents
shoot
1900
our
##ateg
launch
ram
##rd
cut
##the
flag
67
upper
##ads
##edia
genus
##inian
bost
##aged
assist
bands
##pr
killing
critic
tam
cover
louisiana
alexander
theatre
activist
northwest
matches
saw
##ex
wa
##col
##akh
philipp
francisco
ey
##icular
charl
oil
oldest
internet
##hire
contr
##airs
cannot
##ois
##adel
1920
ak
soldiers
##iller
gian
performance
eun
commission
165
interview
stations
##idae
yellow
##lah
##ips
except
cook
longer
##ali
points
wel
humans
avail
trade
shot
boston
92
egg
##wan
175
deput
forms
##ila
quick
code
metropol
chile
painter
##ria
pacific
##ito
divided
rule
##ros
particip
stock
beginning
causes
kid
##ken
neigh
##teen
##can
feel
standard
bund
jazz
vocals
fast
princess
hero
studies
romantic
##mann
gallery
39
pier
lgb
##rick
##ami
lady
##hood
1921
lgbt
beg
##ades
finished
steph
##iences
##ply
##ased
ring
traditional
literature
##orial
##aine
##mont
eliz
religion
jeff
lawyer
##umi
42
ark
htt
forest
cry
rang
bol
##ocks
cold
private
neg
arth
ah
##pa
bbc
source
##well
aqu
committee
cases
emer
fel
lov
smaller
online
150
industr
1st
step
famil
ris
fant
johnson
discovered
joe
##wh
##agan
##ights
length
deep
##aya
jon
ther
oklah
true
orchest
scr
anti
nas
oklahoma
continued
1918
brain
##enced
collection
awarded
designed
available
berlin
swim
weap
dun
economic
##inson
albert
##ees
##ela
skin
foc
tall
command
##illy
swiss
kings
someone
##sen
##jo
rules
sources
jones
citizens
promot
##writers
believed
rog
##lers
ess
va
##isions
elst
91
pand
beach
ly
americans
##establish
daniel
introduced
iron
##ounds
marri
##ucky
chemist
table
##iting
owned
future
##endo
kob
frogs
##ential
regions
software
atlant
victoria
ga
running
##uten
mob
##zy
sud
starring
told
belgian
kong
accident
examples
legal
disestablish
job
surface
uef
##rid
access
##lications
mario
higher
senator
alab
##enna
jes
kim
beaut
mississ
##ustry
##inger
##urity
nine
captain
businessman
industry
176
commonly
contains
##selves
gett
wik
medicine
happened
abd
motor
sexual
businesspeople
myth
niger
justice
self
planet
organizations
bavaria
uefa
nation
metropolitan
bishop
face
mcc
sel
##iced
labor
##war
lands
gets
quest
alabama
##ippi
described
particular
##mas
ont
selected
pit
nuclear
##rich
attempt
edition
article
elections
kir
chap
##inn
82
tel
appoint
navy
claim
ministers
##chan
##eda
larger
py
kan
quar
watch
##hr
ord
nhl
athlet
occup
##asy
spok
300
ott
directors
competition
##ule
##ipe
husband
santa
tournament
elizabeth
##aining
themselves
140
active
polic
formula
infect
tenness
tried
inhabit
89
constitution
##itted
##onto
fictional
relationship
##tim
racing
distributed
affect
politics
belong
ways
##abb
banglad
pick
##enty
64
kentucky
bangladesh
cells
israeli
bull
lett
##ram
170
throughout
pra
mississippi
##ving
##mir
1919
##don
believe
93
indones
tennessee
hug
von
##kn
##inet
leading
alph
83
gener
##inary
subject
vote
##tra
corpor
tan
##inces
impro
cricket
suic
desert
temple
argentine
##mond
document
guard
alt
##och
feet
##har
##aven
ontario
create
starting
##lines
brought
anne
99
diffic
harry
kel
rat
freed
##upt
harv
ky
girls
##inct
williams
digital
difficult
raised
norway
cultural
84
multiple
contest
acting
hunt
alf
below
reading
##phia
nature
spread
fal
##cher
org
azerb
fifth
paraly
letter
turkey
remov
##icks
belg
behav
azerbai
usa
spl
jane
clubs
mand
older
##aps
lines
schol
orb
itself
security
base
biggest
ira
provinces
grew
arthur
ot
temperature
soccer
##iction
1917
41
##emic
##elled
imper
las
##ns
##anth
philadel
07
billboard
tou
plann
##isa
mosc
arrondissement
elev
followed
wide
administrative
wear
lor
kenn
philadelphia
slow
print
##burgh
##lav
crim
addition
##iment
baby
sle
marriage
##85
##oid
presidents
behind
pho
www
##gu
nic
nap
swe
trump
producers
andrew
##itage
entire
##iving
toronto
bod
##eas
degree
nint
##ting
marsh
stro
##osph
farm
hours
veh
turkish
era
godd
ethn
rot
sac
altern
officially
##kin
##edy
spr
dor
indiana
2nd
chris
reported
eventually
brook
cin
##uries
photograph
disestablishments
astronom
accept
paralymp
wolf
machine
tell
##aga
deputy
slov
families
singap
156
ideas
thous
enc
##hib
##ourg
defeated
thousand
fund
soul
94
bah
marc
bronze
nintendo
block
problem
eag
andre
##utions
tele
notable
primary
singapore
reason
##cest
120
nik
##nel
51
moscow
fav
loire
communic
needed
##wide
protest
categ
deal
chairman
rub
portugu
vietnam
1901
poor
comedian
portuguese
abs
tay
##phy
79
mission
##bury
palace
foss
rose
medalists
pul
unit
evolution
composers
profile
conference
adventure
##rol
blues
brothers
##kins
path
cree
##ho
##86
hills
leave
constitu
##liga
heritage
films
##itude
join
contract
physic
ale
greece
inhabitants
##ability
foundation
youth
carbon
staff
##ingu
physics
generally
##uv
editor
##han
norwe
ago
rug
enem
rio
greatest
basic
##western
##amin
snow
element
saf
mole
quickly
##icted
damage
mamm
##una
passeng
belgium
dipl
##bridge
regional
economy
terms
argentina
billion
suggest
goddess
init
calais
respons
400
express
paper
rand
##ava
##istic
tony
##rison
##ax
guitarist
write
constant
bush
hungarian
norwegian
##onsin
bundes
physical
budd
folk
gives
43
han
hund
weather
clear
##posed
nep
taking
holy
charts
jesus
normal
sab
tag
wisc
surround
bird
airlines
hair
bott
lew
whole
mechan
wisconsin
thm
becoming
donald
##rian
##ika
##uan
complete
hay
hun
khan
destroyed
probably
sky
queens
reign
##iac
urban
rhin
syd
cham
arkansas
lung
##orpor
electr
74
why
gil
pad
scored
mathematician
fu
hem
controll
sev
mike
engineering
newspaper
portugal
parties
spirit
cos
ib
##uses
##ghan
supreme
1914
asked
complex
talk
scul
dream
runs
trees
49
judge
ukraine
kal
##ients
81
fantasy
drop
heat
southwest
##osed
philippines
anal
recording
##ilities
##back
##ikh
44
##ologists
borough
##uation
teen
appointed
ped
fighting
##ening
gab
resign
hundred
##her
philip
northeast
kept
##cks
##acter
hong
alg
orchestra
distance
liver
tennis
typ
cher
emplo
horror
52
grammy
pin
islamic
structure
fought
##rem
signif
crown
try
southeast
stanley
draw
ye
diam
monarch
orange
dif
finn
observatory
driver
respect
##erve
units
colomb
tower
rather
emb
letters
dak
##onic
manchester
attacks
cust
trial
nam
spoken
grant
teacher
sin
legend
universe
hu
##iang
shin
calend
cars
room
visit
##ili
fat
##enez
tai
ruled
tells
serb
km²
sydney
##onne
##ancy
1912
unl
##ori
offer
jews
bed
danger
bond
##ship
##ayashi
upon
suffer
##ready
boys
reviews
und
wrestler
tas
##mit
marie
symbol
zh
110
appearance
double
sculpt
simple
raj
student
franch
1950s
afghan
##head
wing
wee
pack
lists
iranian
involved
##vert
croat
kam
ali
kaz
##ires
slav
##real
section
##88
##sa
poly
covered
thriller
bit
##reat
leaves
piano
meters
##icated
##ogne
matt
equal
##rence
shap
fred
##encies
wilson
adop
administration
bos
critics
73
##zh
##uri
additional
##ties
kat
##ences
begins
##ping
finland
##iot
picture
##ello
##oud
christmas
elements
search
confl
training
##rie
function
gala
hart
already
terror
commercial
diplom
turned
##iption
suicide
gang
##neum
carry
getting
managers
mis
loss
sad
powerful
nag
155
earlier
gay
towards
chess
##sex
moving
minutes
mixed
##ctions
liberal
##utt
##izes
johann
understand
##roit
cred
54
ka
##uki
spent
71
twenty
dry
earthqu
explor
survey
troops
universities
graph
jur
bach
generation
1916
steve
memorial
twin
stephen
hip
greater
walter
forced
route
diss
whose
victor
denmark
oxford
candidate
investig
listed
1915
volley
historian
placed
morn
taylor
figure
iraq
##last
130
##ields
##een
solo
##cts
subst
mom
lit
elector
lyr
frequ
creek
kl
illustr
construction
greg
##sey
hungary
freedom
sund
classical
programming
jam
vienna
princip
charge
sciences
##ails
si
spin
passed
inn
desp
majority
ethnic
http
cel
##ension
christoph
positive
featured
##eman
chall
spee
04
##bi
representative
##water
alpes
designated
##hold
pig
##uay
sher
communist
##fall
reform
estim
##icut
##rogen
screenwriter
1913
fash
##ising
supported
##iday
eyes
##orporated
lawrence
detroit
sites
bag
gor
pneum
pandemic
1910
59
mp
opt
kobayashi
separate
##station
##onian
worldwide
instrument
69
##vi
confir
calendar
historic
72
scientific
effects
galax
seg
quarter
1908
om
starts
hyg
stopped
ax
piece
dakota
workers
falls
significan
egyptian
##ls
##pan
##chen
##ceed
flu
assistant
horn
##ran
##attle
kur
disord
##eck
wheel
lemmon
launched
communities
##ema
dougl
contrib
limited
junior
meant
bundesliga
agric
holly
global
conservative
plot
nearly
##oka
##ez
lux
##known
fell
##ardo
weight
eggs
manuf
##alo
romania
connecticut
##arm
ariz
houses
kilomet
mobile
dies
lieuten
##emon
apart
manufact
bright
1911
lawyers
vas
weeks
##ados
shape
starred
tran
maryland
kinds
headqu
weapons
volleyball
treaty
mut
platform
cathed
ukrainian
##ilton
flat
highway
colorado
industrial
status
cartoon
financ
lif
freder
affairs
merged
thing
concert
fashion
merc
draft
##aro
ancest
arizona
##aded
sail
azerbaijan
sleep
lyn
##ammad
sid
activists
comic
progress
##65
unknown
commander
finally
oak
bring
##bourne
62
##iden
##iate
concept
products
chamber
j1
playstation
agricult
conqu
##esc
account
imperial
stroke
note
pressure
ern
subur
3rd
##izumi
ow
rapid
125
flood
rugby
chemistry
##aled
lyrics
closed
manip
bear
hans
##oper
##inals
ford
##weight
moh
##more
touch
feature
160
##worth
dail
models
pneumonia
comics
exc
bacter
##tic
composed
hotel
lieutenant
recent
gods
philosopher
aust
store
pron
18th
antonio
dj
dim
ele
eld
eye
younger
##dam
mythology
aer
danish
clin
nepal
kash
cav
sang
ambass
conflict
jord
brian
nickn
##atures
represented
##ras
##isation
##iance
##ify
##anna
muslim
##igen
drink
showed
venez
insp
plane
##ebec
deter
##con
ay
hour
ships
liga
##key
coun
##house
##arters
listing
##ables
##enge
intell
resist
ross
formerly
dv
acid
thin
lincol
appl
versions
morning
federation
douglas
oizumi
trains
crew
cass
##eg
mind
lincoln
##aux
##ista
location
##box
hear
operation
bib
walt
simply
dub
taiwan
lith
tradition
##wr
##pose
##astic
complications
gi
maine
kon
ans
weak
image
mi
##rad
02
mu
mol
compounds
cool
solar
etc
personality
bulgar
##79
brad
mort
pieces
fill
##down
##sk
##ises
sha
##ci
##ially
electronic
exhib
clar
vac
##oe
145
quebec
168
label
##ione
articles
intellig
depression
doing
management
sv
01
lad
mars
doll
horse
##itation
architecture
previously
mathematics
##usion
labour
corporation
wins
universal
scientist
##pson
marine
##ugg
##iva
##ni
neighbor
##zen
actually
arms
63
##74
##athan
split
##hs
##osen
gray
suff
ful
##asters
powers
dur
##71
mps
##itting
completed
##chi
score
vocal
garden
ends
steel
##mo
extra
inte
fern
alumn
associated
academic
montreal
##elli
lewis
03
zone
##change
appears
victory
##regon
physicist
dc
pic
apple
capit
##ager
madrid
gord
##wick
##erto
##iba
produce
likely
##esis
comment
creation
hindu
##73
##asion
reve
hou
conditions
vs
yout
##stone
measure
muh
liqu
oregon
21st
salt
##din
##wal
kelly
arn
##anz
nearby
senior
issues
##works
widely
pir
vlad
1909
removed
jenn
adam
disp
patrick
objects
speech
buddh
kw
hawai
daily
##orter
##eastern
archae
pierre
eagle
specific
remains
happen
ais
yam
samp
defense
clark
##sky
philosophy
referred
##iful
animation
scor
finish
##cycl
twice
evidence
prec
pup
atom
ton
taught
rud
##xim
##osis
maur
treatment
copies
influence
##olas
sequel
pink
divor
cm
journalists
##zburg
dal
alumni
vik
alco
##ysis
polo
1907
whether
##ui
attract
welsh
resour
voiced
##ele
discovery
##jab
anthony
##iques
##under
automob
ell
##ills
kennedy
ranked
tail
wave
alan
sixth
via
##soft
##gers
raw
wings
##oca
##edd
##ws
serving
property
##bre
opp
despite
clev
##iat
solid
sri
pilot
pok
governors
defin
fix
nich
##met
cambridge
finnish
afghanistan
threat
barcel
armenian
shah
winds
guide
venezuel
alphab
operating
flows
activities
vel
oxy
category
1906
buried
milan
##oli
beng
siding
ones
juan
alexand
##inated
learn
ker
drive
hang
mm
grass
bought
##lyn
opening
matth
prevent
1905
christopher
fried
fruit
anna
glass
lock
ry
discography
hamp
malays
##pected
jump
laur
olympians
jordan
titles
practice
##ingen
##lets
bruce
chosen
regard
simon
entered
##rane
strength
rate
jay
giving
needs
bible
coming
therefore
flow
illness
drugs
##iform
poll
scale
confirmed
##pp
cathedral
warner
numer
tamil
emerg
dia
##68
confeder
cow
transit
lam
nfl
##uy
missing
##val
penins
bak
catch
##ray
comune
dinosaur
significant
##fort
##olis
paintings
##ety
emmy
##uff
##onse
overall
belief
attacked
controvers
policy
file
##eller
ivan
aired
assass
sides
microsoft
##book
keyboard
##iny
barcelona
##rig
bros
saying
##light
reference
owner
bound
##mers
semi
clo
dragon
coal
remix
doct
ny
surg
punk
shrine
mention
##enburg
alfred
au
trying
finals
bio
cleveland
dall
priest
guy
##ledge
levels
conductor
brun
instruments
bou
mammals
##arus
giant
painting
09
##do
poetry
really
alaska
ded
tol
##nie
persian
paralympics
dol
##feld
bodies
lic
nom
subs
reasons
consist
helps
##porary
speaking
rober
contain
howard
restaur
rapper
##eding
palest
cha
globe
dat
studios
##fc
indonesia
dro
allows
gene
##ares
##orney
karl
arrested
financial
push
rid
##ante
##tha
agency
puerto
oxygen
hers
ward
diagn
colleges
davis
nin
lev
volume
fra
##ando
physician
nazi
##otte
##onder
refers
##zz
guine
graduated
utah
earthquake
##iya
##cha
trust
##je
##enh
beautiful
nel
##ration
tracks
fear
matter
gon
##wart
headquarters
prepar
ronald
longest
53
wit
silent
bene
pitch
sed
wants
colour
billy
##onde
theme
motion
sons
plate
wy
##iology
trav
recip
attorney
buff
femin
##oslav
1903
voices
pitts
knight
##pet
##ception
songwriters
##ucks
bey
athlete
eric
orient
transfer
happens
recognized
##abad
magic
covers
punjab
declared
##olved
approxim
roger
jess
##pool
veget
4th
##iop
##iko
images
##put
ages
earned
easily
evil
bart
##ivity
computers
##oster
guest
libert
crow
bot
sain
sao
romanian
toy
centuries
##ensity
##udi
column
bry
##aver
growing
vinc
orle
edge
vert
course
votes
maxim
electoral
61
##no
theor
adams
salv
##town
##rupt
##die
##tery
remained
soldier
##phone
allen
memory
connected
##ographical
acts
myst
explos
sugar
direction
cape
##pton
strip
impact
legs
captured
cloth
percent
anat
dh
fresh
exact
drums
##ayer
agent
illeg
##state
shop
officers
else
arrang
##osaurus
serge
##imir
spect
virt
thus
violin
orleans
hits
melbourne
yet
defeat
ecu
brid
ss
##fish
##arily
##ulation
tu
##tv
##cano
criminal
##yth
consists
economics
##enz
##kshire
walk
esp
rein
hands
convention
prisoners
jimmy
controlled
youtube
mouth
poets
##anced
easy
responsible
1904
protection
kevin
##where
alphabet
##isms
academics
growth
maps
materials
##lan
annual
bure
sched
happy
aisne
bun
sie
detect
ip
ober
alternative
hell
kit
##gas
accom
##rel
leaving
##iti
alone
prix
##55
##ters
trip
sr
##bed
##oration
authority
lank
habit
variety
burg
rural
supporting
um
##usal
nebr
600
oblast
##celand
peninsula
houston
nebraska
indic
quant
symbols
##igg
paid
looks
##ester
domest
##imb
flying
hampshire
rick
serious
enemy
##road
encycl
colors
##cules
planned
param
directly
environmental
tat
##onstr
##ucted
dick
ski
raf
##ao
sah
##sc
##oro
##adesh
condition
churches
##di
##dorf
##lov
##onent
##roll
##eless
fields
whit
singing
bottom
satell
clean
experience
banks
reagan
forests
##leman
races
baltim
issue
bath
sor
eleven
buy
metro
rangers
atlanta
perman
southwestern
torn
quite
hosted
lakes
designer
socialist
normally
##eline
lion
colony
##anny
dogs
encyclop
forward
ecuador
hamilton
franklin
##ocol
amaz
sympt
baltimore
exchange
tribut
holds
sweet
script
safety
wag
display
gulf
margar
128
succeed
escape
unlike
##time
##oa
##bro
address
classification
borders
bann
employ
nev
occurr
behavior
adopted
send
1930s
##hatt
underground
squad
couple
17th
managed
johnny
metres
completely
calcul
miller
meeting
eff
pav
selling
1902
##oshi
shir
concent
broke
phoen
ign
ku
##ti
iceland
diet
kra
##idel
harris
1800
dallas
yug
discuss
dancer
duch
rise
##eing
##mouth
extended
diseases
immigr
##enne
whom
armed
users
wrong
gordon
mong
personnel
everyone
household
renamed
pow
pull
tries
males
provide
jacob
16th
hyp
looking
diego
nak
##nia
females
##agen
claimed
calv
sense
ens
pittsburgh
##rh
activity
gers
sod
uncle
dna
parks
dangerous
##ault
neut
warm
cum
novels
sounds
shel
poems
debuts
muhammad
purpose
jerry
ghost
resc
attended
agreement
decision
runner
featuring
vent
meg
hugh
content
ministry
passengers
grey
russell
floor
zo
arc
repe
##ido
muslims
rabb
save
dvd
##ifer
##osphere
lav
##otes
somme
worth
playwr
##iano
hollywood
hiro
##cia
knowledge
miam
vic
price
alliance
historians
rare
cardinal
distribution
response
##uits
correct
partner
148
crimes
approach
diamond
wrestlers
guinea
arabic
birthday
question
miami
##wich
singh
desc
invasion
dave
hex
comedians
properties
appearances
naval
focus
pays
cooper
facult
organized
##wald
territories
sick
vit
##olo
leaf
worship
carried
shooting
1899
pattern
arrondissements
800
##uces
kills
increased
sul
share
##sequ
description
kids
cris
violence
documentary
##cular
ability
galaxy
grav
negative
cord
pel
operations
everything
fans
treas
intelligence
pleas
##uma
device
pakistani
pianist
flower
remember
thousands
circle
switch
bacteria
alcohol
##thodox
stated
engines
monte
faith
##ibility
height
##ogen
expand
reaction
luxemb
##mission
munich
matthew
brief
118
colombia
theater
##asing
autonom
carlos
##usalem
##esar
##illes
acqu
insee
core
5th
##ographic
1940s
biology
jerusalem
rocks
cabinet
invented
cryst
##achi
departement
diale
trin
##iph
reality
##abe
##uda
compared
constituency
carter
250
cuba
##kov
##ctic
samuel
chain
carib
mit
vladimir
zoo
##bl
plans
straight
datab
warri
fuel
##aph
ottoman
nba
increase
sales
700
fab
hors
##iber
norman
##eva
##hattan
mans
debuted
novelist
wien
orthodox
reprod
milk
##omy
##uguay
##ogy
adapt
aviation
lasted
circuit
concern
sty
chlor
##rap
138
breath
defend
sell
serve
purple
tribe
##ailand
volcano
extrem
liquid
alger
heb
user
twel
contact
1895
interact
choice
bureau
##izing
imag
translated
c2
moore
fan
##cht
carn
learning
waters
##angel
jar
ll
rice
##kar
uruguay
chrom
##sec
126
frederick
symptoms
rene
##utional
favor
chanc
archb
nash
pp
pear
extinct
counter
classic
tribes
hp
scene
bigger
wonder
##emen
##ighth
phill
entry
roads
ted
##ilia
custom
aar
buck
analysis
##isters
116
baron
moroc
describe
##div
atm
titled
failed
opposition
hid
##mund
##stad
1896
manhattan
peru
peters
speaker
##bean
146
retire
ft
##iley
##aho
##atsu
##anthrop
calvados
clay
slavery
resources
##rier
stream
earliest
principal
hawaii
electricity
lots
nigeria
bes
lack
tib
ambassador
synd
gib
recently
christians
##po
##xual
ordered
combined
bour
fro
thailand
uns
107
agreed
hat
equip
##rat
yugoslav
twelve
neck
michel
moves
genetic
elim
videos
methods
dir
##unk
salzburg
percy
goog
rif
##eme
wikip
aster
##enue
##emia
huge
filip
griff
officials
##sters
flowers
anything
bapt
honours
throne
fuk
follows
armenia
yor
##tered
pret
gained
rav
costa
##rene
achiev
boeing
ending
settlement
ruler
##asia
##holm
eug
shad
jobs
benj
gam
##sl
holland
door
harvard
nit
alice
divisions
kashmir
##eries
herb
dress
attention
applied
##enos
seventh
lud
sess
romance
teaching
effort
##iki
##cles
journey
continue
ballet
##atively
##rell
##ferences
guns
charlie
mick
creating
normand
liked
hydro
jefferson
##ontin
influenced
mig
township
estimated
clothing
phoenix
coron
equipment
gamb
unc
rhyth
technical
inspired
mental
wol
scen
##aware
##atherine
dates
og
##stan
##osa
register
margaret
nothing
synth
sure
gran
wayne
vehicles
lanc
##aling
##ders
insects
jama
136
demand
genre
florence
learned
bin
joint
presented
literary
##56
continu
oliver
##hel
##haw
thunder
install
critical
##racy
broken
adventures
revolutionary
ja
ni
leban
boat
1893
ryan
##cla
executed
heard
dominican
lies
acted
candidates
caribbean
cem
##eno
tools
barry
opposite
rough
chancell
disapp
saxony
difference
emergency
kath
kiss
nut
##adi
belarus
corps
##incorporated
faculty
##char
immed
cycle
coc
provided
illegal
shim
##illo
stayed
manipur
google
rou
##asa
congressional
##wall
unincorporated
screenwriters
101
shaped
jason
thick
audio
accepted
mist
##alle
##rees
presid
gef
patri
quality
hurt
incumb
injured
cbs
##ging
##uins
1890
visual
symph
surgery
teeth
meat
items
walls
brooklyn
cu
rena
surn
##wig
edit
legislative
indigen
highly
harm
doub
domestic
trail
determ
benjamin
##fri
christianity
fossil
mentioned
##dale
medals
nbc
pont
orbit
density
reserv
hydrogen
##58
##opes
massac
cous
rush
sas
sult
##zer
plus
##cott
commonwe
troub
strik
interp
robinson
tab
conver
queensland
hope
soph
indo
osaka
commonwealth
butter
economist
scholars
cad
kaw
indigenous
identity
##heimer
gust
##via
trophy
sarah
##ffe
##ente
secondary
nelson
string
1898
nomination
pale
##stre
scar
flash
perfect
shortly
sunday
##ears
barbara
incumbent
link
poison
6th
sens
filmography
boss
##rim
##mun
presenter
##lem
##oku
advert
resistance
income
tourism
montana
agriculture
clinton
benn
gender
phone
victims
required
##ivor
slaves
philanthrop
adults
contem
promoted
affected
malaysia
punish
pom
##ering
idaho
##ographer
1897
personalities
hunter
witch
##aceous
##oba
##ovich
##ods
advis
colonial
peng
yok
##long
syl
stev
berg
nickel
franchise
withd
ov
bernard
particularly
##riel
didn
proposed
emot
##yt
migr
##hard
##eh
resigned
zero
anime
camer
satur
shared
ethiop
900
denn
archive
battles
##asc
dod
1920s
defined
virus
scholar
disorder
mall
##pur
##umin
actions
syria
heavyweight
##iations
##born
meite
luxembourg
mitch
infant
broadcasting
##apolis
hur
heaven
##ogue
fleet
##bul
##ouver
typically
neighborhood
7th
##oir
tob
104
photos
amend
formation
delaware
morgan
electrical
diplomat
suffolk
fine
remain
susp
database
##jar
wikipedia
mouse
murr
##father
positions
wright
##esco
##akia
##izu
productions
codes
##ffff
austin
integr
defence
marshall
sard
planets
##tm
movements
##assic
saudi
prel
revol
sword
separated
lan
xbox
##rome
unique
conn
partners
doctors
cot
vanc
##nik
##mi
##aza
archbishop
wur
noted
1000
visn
##haus
aires
beauty
##urer
ig
##wers
##iven
1889
essex
mrs
charlotte
13th
1892
standing
functions
moment
gate
sets
vehicle
##enberg
##igo
mediter
publishing
chilean
##onym
meitei
cere
provinc
##ranean
lingu
frances
lap
transform
roberts
kap
spot
##ourt
hyper
eating
tong
alive
visnjan
occurs
kick
##agues
revealed
cats
##mitted
onto
pradesh
admir
##obi
attach
crashes
nasa
vancouver
ian
##usc
ain
##isch
paulo
liverpool
kos
##inia
preserv
slave
jacques
ist
spy
compil
oscar
grace
pip
pair
pione
abra
approximately
wet
isa
##ivia
joan
represents
##atar
166
performing
360
residents
composition
replac
fit
appe
soil
vermont
spider
bibli
ble
gary
phr
continental
presidency
youngest
dedicated
bald
mack
##caster
chance
arena
chick
##oda
##aco
moz
automobiles
ri
advanced
departments
1861
##imed
consum
##thal
rear
safe
##owski
transportation
cricketer
risk
cantons
kum
##opp
reserve
medium
operated
doubs
gabriel
##oni
abc
breast
heads
suz
leadership
gur
provides
aw
fellow
intel
divorced
benef
grown
1888
alongside
hebrew
ic
ich
flav
blind
saturn
##mingham
target
lis
##etime
15th
tox
nikol
mediterranean
dram
buenos
experim
gym
anch
1891
dean
seattle
finds
satellite
oz
pregn
##ieval
rhythm
tod
brig
stewart
ultim
birmingham
classes
signs
require
venezuela
##bing
##mat
##clus
senators
luis
marin
changing
luther
drummer
##uka
reflect
alz
vincent
permanent
hir
cret
coup
##arians
gone
##nij
stor
joy
walker
nauch
##roph
bog
kang
##kir
##igi
1894
napole
serial
showing
causing
athletics
sultan
overs
##omot
sung
arrived
gy
##iders
narr
buch
alle
slight
steam
cosm
cemet
hein
painters
infection
haz
##emony
herself
baker
panc
stick
nauchnij
homes
mystery
##uman
##ensis
participated
cemetery
buffalo
tunis
##aceae
traffic
yeung
suffered
heav
feed
12th
drivers
##ivals
pruss
visited
painted
hend
autonomous
##8072
nevada
zur
orders
croatia
founding
occur
retirement
jag
##ielder
mul
sulf
medieval
##rev
##uster
crop
##wise
goth
stein
##othy
stores
##erne
communication
explorer
eleph
bones
##ichi
##ache
voted
convicted
##bir
##iji
8th
ech
hab
chern
##eston
##kan
guilt
numerous
lil
plain
103
remaining
holiday
fossils
j2
##uto
fa8072
behavi
##page
##berto
scand
10th
translation
rum
##rus
##hen
##ibly
springs
hud
jung
tir
##orph
newspapers
occas
protected
monster
guer
individuals
maz
neuro
copper
audience
ceremony
mercury
##ju
serbian
prop
calls
##athers
owners
batman
fully
diction
##iere
mayors
treated
gironde
sak
tang
worst
1887
factory
dancing
diagnosed
##mel
robin
inventor
elder
filipino
particles
martial
degrees
pyren
divers
fishing
drag
##load
coastal
stockholm
##sch
##room
chand
necess
rebell
##orus
competitions
##olia
##eto
blo
campus
##lication
chancellor
adap
##hu
respir
sacr
styles
pyrenees
ral
##mes
turns
smart
larry
##amo
seem
##ifying
temp
pent
##rov
amph
bobby
compar
##aj
felt
mck
##life
##bell
swimming
crisis
dy
maintain
radiation
afc
opin
gol
##bes
educational
gather
theod
prior
##issance
provincial
abraham
peop
marvel
##etti
haute
devices
murray
mine
mond
rah
sisters
knew
sloven
shall
11th
faster
waves
stu
poem
chron
extreme
croatian
c2ffff
josh
replace
tibet
abol
democracy
liz
##low
##erc
thompson
dish
sic
subdiv
educators
anthem
leo
settled
damaged
tornado
purch
14th
##amese
##umes
knights
depending
prey
collab
##otic
useful
##net
supply
occurred
mik
views
occupied
lanka
subt
statist
contemporary
anthrop
engineers
kle
##ea
112
challeng
peoples
##inate
1863
colonies
disab
##ternal
coord
rhone
baden
constitutional
gain
seconds
choose
##aug
chose
##berry
seb
minute
indonesian
cod
passes
consider
pole
internal
looked
hole
##itis
##omon
##ocard
committed
outer
achie
maced
##joy
courts
##standing
##phal
serbia
cretaceous
bil
##rain
blog
killer
epic
por
##ovic
beyond
tourist
combat
hond
lenn
educator
julian
alp
steven
1885
superh
##rah
figures
##alty
182
machines
clothes
bug
hav
none
##enson
governments
duck
##cript
selection
weigh
avoid
1865
##cop
meets
strugg
encyclopedia
nose
childhood
talking
##eta
##iable
rhine
protests
wish
shell
1883
holding
##iago
shark
lind
format
tap
gross
jonathan
veter
##oming
warren
1864
pied
wound
firm
beatles
cuban
pronounced
rgb
arabia
##uls
descent
bulgaria
till
values
1880
madison
vin
goods
estate
reports
cloud
knock
coffe
playwright
ms
##vo
##fa
tok
bone
mate
##vision
##organ
proph
anyone
jup
tort
##e0
ade
deliver
closely
selena
lag
lose
##gio
##anian
capac
entr
horiz
infar
therm
pokemon
mail
triple
easier
turt
##friend
termin
bom
##oven
playoff
advance
infarction
pere
rib
expected
naturalized
alzheimer
hob
##ei
##isha
daught
issued
escap
severe
finance
endings
reception
situation
arnold
yorkshire
1882
limit
succeeded
##kes
railroad
gardens
##akers
##levic
provence
honey
bibliography
hub
sag
cards
boris
supposed
honour
democrat
surrounded
guitarists
bowl
bert
stef
1860
##oxide
parishes
rit
index
soap
soundtra
mixt
potential
weekly
branches
iw
marit
##oki
upd
angry
signal
mud
myocard
unus
marry
105
emir
graham
hunting
passenger
offered
newton
disaster
hundreds
adapted
ric
1862
photo
kilometers
##helm
##iens
eddie
cru
1886
mathematical
korlevic
nigerian
##anes
inner
elementary
cort
cable
lamb
##asm
##asaki
stal
##orrow
layer
diab
tiger
##iri
fired
interested
nicholas
saints
gymn
reject
##iant
1881
tig
vul
##rix
spons
regul
describes
message
##rum
portra
kidney
##zi
chat
portray
louise
daughters
rach
xing
##etta
persons
talent
nominations
distinct
experiment
##furt
##eeper
delhi
##amoto
159
canal
##resp
murdered
htm
##orig
##idi
compound
locomot
rolling
kazakh
atoms
##aba
perry
resident
trap
1873
fighter
sharp
heidel
ask
links
claims
myocardial
lisa
sig
wine
##ously
serves
valent
receive
multi
involving
lt
triang
conservation
pc
tick
##encer
##etes
apoll
broadway
housing
guilty
##ru
obtain
breed
camps
magnetic
spiritual
heidelberg
tehs
amster
foods
narrow
len
agree
physiology
paramount
ds
kun
##lie
##gie
wealth
atomic
gent
demonstr
nest
##anne
weapon
tend
thor
chel
leop
##seud
projects
capture
differences
##gau
##rep
marks
##oker
monkey
1870
voting
thinking
photographer
challenge
##aging
recordings
1879
aur
scap
strike
organic
judges
astronomer
manga
aborig
outstanding
amsterdam
rapp
tank
##agh
representing
hamburg
lomb
##ivan
mini
cob
exped
details
psychology
slowly
bridges
extremely
dennis
115
pod
basis
1868
refused
concerts
##yo
ingr
1871
finding
mikh
networks
wedd
##aku
##anni
suppl
losing
cousin
lig
##zant
##aca
rocket
suit
investigation
kab
agn
popularity
grande
nur
##oty
containing
##bria
speakers
rico
tiss
vision
stands
planning
eighth
ud
wii
##istol
survived
ferr
decide
##aws
confederate
amendment
jupiter
danny
parker
introduction
sculptor
truth
sib
leagues
haut
promin
performances
##onents
superhero
pseud
##ebra
organisms
caught
celebrated
dinosaurs
dust
paralle
1884
andy
##omi
partly
roots
throw
compete
dropped
exactly
massacre
##lon
##urance
boh
harold
wilhelm
columbus
eaten
injury
##donald
737
dict
wo
##thy
shock
##uchi
trained
harrison
rodrig
https
slightly
nem
nee
tri
obama
announ
suggested
cote
byzant
##ibr
bengal
inch
##elor
distingu
circum
ug
survive
morocco
##esa
franz
##aste
organisation
##lington
hann
##chem
nova
palm
terrorist
aid
##ierra
angl
biographical
cardiac
sudden
molecules
##enko
102
titan
sentenced
bic
cn
basin
cyclone
##vis
thirty
exhibition
hirosh
atmosphere
stom
southeastern
santiago
kyoto
jin
##ulu
corresp
declar
essay
surrounding
annivers
thirteen
hitler
existed
rating
##gra
##ader
eurovision
1875
symphony
correspond
mant
ard
##boy
cinema
gill
##iately
##bar
breaking
stuart
llo
luke
britt
formal
barn
turin
saturday
3d
mode
solution
catherine
nan
##unity
basil
filled
immediately
surname
perc
gren
industries
dwar
##cal
smallest
burns
cock
##alt
bears
backing
athens
trouble
plastic
allies
1867
vend
##etics
amy
1848
charged
##gom
shang
enjoy
allied
cs
chocol
prague
accused
xinglong
##fielder
##roid
geomet
channels
pedro
pure
##ishi
pros
edin
printed
pancre
klet
##gov
##82
##ipped
##tr
autobi
progressive
anniversary
lob
sap
##81
##erty
enemies
##ocaust
definition
kush
seeds
mete
tommy
teachers
bub
tet
##oly
##ublin
##ieties
operas
destr
abbey
mickey
##stream
kay
yonne
shakes
grandm
refug
yu
##sburg
##ithm
profit
bourg
jav
##set
evening
9th
##arn
##sea
canc
sheep
holocaust
noble
questions
suburb
ralph
##maker
##pre
appar
expensive
1878
connection
wagner
descend
dictionary
golf
rar
1872
##elia
lect
citizen
shinto
rival
rider
keith
detail
cyclist
landsc
maurice
##omes
shore
enfor
leads
sop
creator
murders
##borough
coffee
##87
##geon
respiratory
##text
terry
camera
boxer
eb
sony
1857
ceo
encour
uss
obit
continues
restr
tin
##akov
clock
volcan
nickname
cinc
1876
documents
virtual
ready
publisher
romans
curt
##burn
##igny
causs
decre
valle
walking
sentence
##hawks
ple
##uil
lah
coat
ferdin
shrines
napoleon
gn
117
overview
helen
loan
simpl
sovere
francois
bened
altitude
kurd
850
lun
tamp
marked
ernest
sovereign
bish
mend
grad
rocky
1869
urs
rescue
importance
convers
swimmer
##oned
##agne
ues
wire
##aks
geneva
tales
corner
lane
##gate
##vent
chan
1877
raymond
friedrich
piedmont
tub
unesco
files
##poses
beliefs
comte
184
aquit
chase
spong
depend
tip
yang
yank
museums
programme
athletes
zurich
statistical
jet
##mith
##fully
hugo
carp
109
electrons
opponent
concentration
##fam
neil
##uez
abuse
religions
fisher
initially
petersburg
##bow
minim
advant
giov
lloyd
edinburgh
rings
utt
##rin
##inum
applications
##asha
capitol
mikhail
ridge
nashville
cash
##pear
situ
otto
botan
iz
congo
inher
sequence
soundtrack
##84
linux
decor
collins
renaissance
fib
##opter
adj
constell
cultures
turner
gosp
hamm
arist
##izz
assault
snake
##fs
##omm
garcia
potter
laboratory
##esse
airpl
opport
herbert
loy
primarily
abbrev
caussols
ost
schedul
linked
interior
possess
cincinn
rulers
leonard
aquitaine
calc
offices
fixed
##inth
##atra
##000
relative
smok
parliamentary
##fficient
bachelor
shadow
aub
tea
actual
capitals
porn
marath
northeastern
cream
##minster
streets
interpret
sale
##come
##icia
stages
phase
motors
conducted
identified
honorary
mitchell
apollo
shakespear
cincinnati
##gi
##erate
##eton
friday
resort
talks
hammer
ibn
answer
mold
ps
##ateur
larg
hof
2020s
graduate
nomine
kate
perh
belt
biden
##estyle
commons
tests
jennifer
tube
##ridge
isab
stones
##unes
cec
##uj
glas
campbell
choir
colonel
protestant
hed
skills
voy
1859
wallace
focused
ki
##83
paras
broadcasters
darwin
legislature
kidn
perhaps
reun
##away
montgom
sind
##agi
pi
asp
aleks
amp
hut
##53
##fare
##idad
##raction
indians
dad
##rot
##aman
##usa
retrie
novelists
belongs
shakespeare
eis
##89
manuel
respectively
ein
evans
venice
chapter
yugoslavia
uesac
sean
artific
latter
bosnia
aude
ruth
##rec
merch
verb
papers
maximum
##54
paralympic
jail
ala
forg
parallel
vern
anglo
biological
tomb
mull
##cious
##iring
106
pancreatic
nerv
##ardy
127
runners
sebast
350
jum
##fia
thorn
crist
doesn
122
patients
claud
philosophers
increasing
vaud
montgomery
##pie
##oux
##oslov
mining
antar
cypr
nicknamed
gw
jor
##fast
landing
collected
cauc
possibly
crystal
kre
##elles
##ption
truck
skull
disorders
gand
pine
##van
forever
neighbour
restaurant
pon
##52
grade
132
cathol
##world
temperatures
giants
telesc
##51
##bus
##ality
subjects
rogers
eg
##abi
##fta
ing
attend
interstate
##aurus
violent
scenes
##ht
holt
##ohama
chocolate
pd
##oons
##ige
strange
sussex
yokohama
cave
hack
kg
##onna
incident
advoc
##prise
dublin
##namese
##gow
charges
democrats
commerce
behaviour
pm
183
abu
##tons
avenue
oxid
vietnamese
##57
arsen
assign
##ionally
toxic
nancy
sierra
##greg
foster
germans
sharks
czechoslov
commissioner
sacred
absor
tributary
statement
castile
feeling
improve
regarded
disappear
##hips
massive
lac
##64
marx
root
111
syrian
legacy
developing
heroes
analy
##imar
delta
isaac
##ski
adding
gonz
horses
bever
##ieu
##enders
##neth
publications
##ucker
camb
buddhist
##rik
stress
##airo
statue
helping
oxide
chal
##odeon
nazis
##stadt
meteor
##wi
##ansk
relatively
classified
ranking
recognition
visitors
devil
communications
##olph
kilometres
nickelodeon
ferdinand
thai
shut
usd
farming
morris
johannes
##hai
reduced
incorporated
susan
typical
eup
reich
unable
##oga
businesses
hauts
injuries
salvador
rebellion
catholics
mile
mats
##illon
linda
vegas
gregory
stret
arde
phen
##ahl
capacity
unusual
riv
vess
##uin
##aking
##emberg
##iolet
recov
premiered
warsaw
wwf
##ifications
sudan
ment
vow
plains
mcm
mixing
craig
predators
fount
masters
##km
##asi
aspect
sitcom
expedition
##night
##nell
##sole
172
stomach
lip
##bn
smo
combination
existence
tallest
vamp
##fr
##rac
angle
apost
162
helic
murphy
claude
##amental
##ymph
wes
##tor
##fo
check
##apy
113
authorities
instruct
necessary
bac
cruz
##place
caesar
gilbert
decade
resulted
random
tasman
gif
laure
##osexual
blackhawks
measured
banned
lope
tool
##oping
roof
grandfather
returns
crypt
bulgarian
syndrome
cotton
##fly
schm
origins
corrupt
amazon
cattle
rus
##aire
##62
produces
survivor
ride
##59
##oz
##agre
##encia
texts
dum
residence
##ahn
amounts
janeiro
dos
nice
patt
##ede
studying
font
##uta
##enda
burned
nu
##ingham
##ovsky
plac
cler
parad
dynam
baptist
aboriginal
hide
sz
inaug
beij
dee
deer
northwestern
airline
characteristics
fung
horm
##bek
##rete
denver
testament
purs
derived
rebu
kas
franco
falling
factors
##icas
subsequ
##ining
duchess
##atus
177
superv
expans
ottawa
bold
ion
##inus
pep
bread
ballads
##landers
server
periods
copy
krist
kol
##arin
147
geoff
portland
hosts
false
criminals
instrumental
##63
##uns
chi
surr
angels
villa
1874
ladies
eliminated
miy
1850
inters
constituencies
mechanical
dialect
gast
vor
chate
##anto
179
##amps
remove
hurricanes
##61
asc
console
summ
minority
withdra
attached
sull
##rup
##pm
##iling
##ortion
prefer
sanders
dating
nico
stronger
expanded
wurtt
eve
releases
grows
##iformes
ethiopia
todd
bee
reduce
entrep
wurttemberg
##erd
parag
bam
##lee
##uctive
##ussion
abdul
##oust
##estone
##acher
121
westminster
picard
dw
inches
##ication
##iled
pray
exerc
para
119
137
hudson
##contin
##69
##xx
seal
chemicals
kot
offers
guardian
granted
fluid
hidden
punishment
cole
consult
brah
passing
cricketers
lopez
brom
pyr
wiz
croc
fitz
##hn
##erse
application
bafta
alberta
admiral
hatch
marg
##velt
simpson
archer
haiti
beijing
lions
beet
##andez
ml
##67
##ovo
equation
drew
##gart
##keeper
##uras
##ogo
1866
auto
fi
##stit
##child
crowd
giovanni
aleksand
heir
defensive
kenneth
molecular
##cs
edu
qualified
reactions
declaration
##ykh
##ilo
##issa
empress
insurance
lebanon
phrase
artificial
dame
##irus
##unc
181
disasters
152
writes
rhode
##uzz
illustrated
entreprene
##gs
##onso
magazines
kurt
mast
polar
standards
farmers
adolf
driving
presenters
expos
institution
relationships
algor
understanding
pioneer
##atem
##ingo
sees
particle
carr
##ologies
coalition
largely
pool
imprison
midfielder
hired
##woman
##isph
reed
worn
parent
spacecraft
liberation
ardeche
aber
##rill
fourteen
currency
essential
athletic
franche
wedding
ya
techniques
aux
finger
presence
tyrol
glac
##cription
wearing
nadu
##roe
##emaker
##endorf
writings
##ieres
duty
1858
infr
fernando
habitat
ras
##py
isol
evolved
erupt
successor
platinum
cooking
algeria
byzantine
bourgogne
chop
aband
fires
lightning
setting
equival
lowest
wyoming
##rine
roose
budget
frequently
liberty
rifle
beth
compl
producing
keys
ceremon
prominent
##gne
##inter
##ocese
unified
##insky
##rett
kirk
theolog
afterwards
parkinson
collections
##rising
festivals
##edo
chest
mainland
henri
fairy
loved
telephone
hog
neph
marion
exclus
locations
1854
infin
mg
fever
butler
123
amateur
funeral
vast
monument
guild
moons
stops
wed
##ding
##uania
##itus
1856
chapel
harvey
palestinian
aj
viv
vary
spoke
##keley
factor
purposes
frequency
agricultural
ninth
ffc
##agawa
gerald
friendly
brooks
roosevelt
##ictions
##enses
129
patient
lithuania
edited
organis
chicken
##jani
arctic
helin
myster
thinks
witness
##manuel
monaster
genes
##psons
mask
cheese
miguel
nort
tiny
yosh
copa
boxing
colombian
##aments
rey
vii
##itarian
closer
burning
suburbs
hearing
wang
loud
berkeley
effective
psychiat
literal
##folk
allowing
watson
jurassic
controversial
anchor
lon
##lying
##aha
keyboards
traded
mechanics
uz
external
trading
wildlife
proof
##uba
institutions
diameter
istan
storage
##zig
##oko
edwards
keeping
steps
initial
fuj
##inction
##enton
simpsons
sonic
##atoes
watan
drinking
cyprus
istanbul
nurs
rip
deuts
exam
##pec
accur
criticized
cp
mim
vect
##mad
chore
tyr
buddhism
sodium
eugene
estonia
glen
robot
pirates
rept
1837
fifteen
bryan
rica
tul
raid
hindi
skiing
##dles
toward
chad
supports
authors
goddesses
neutral
keral
##itals
newly
julia
sardinia
##amer
chen
statesman
pharm
guatem
carrying
lifetime
quantum
##lar
##oted
amphib
bast
mtv
##ilis
167
143
tyler
##ipping
resulting
rising
restaurants
volcanic
eu
rican
1815
ruling
wheat
maple
occupation
generals
roughly
##yll
waste
chuck
graduating
astronaut
substance
siege
chernykh
##iah
evangel
139
worker
revenge
scheduled
picardie
dioxide
laura
fertil
ordinary
improv
percussion
expansion
gem
jury
ninet
calling
headed
watanabe
uran
storms
approved
efforts
isle
seine
##grade
empt
occitan
cardinals
panama
dreams
ahmed
cameron
tale
##du
##amas
chev
frag
metals
skill
ports
michelle
absol
oakland
html
rappers
supern
portion
woods
influential
aaron
benedict
wick
ree
##acle
maker
measures
cheap
criticism
kerala
ace
##ozo
##atics
adela
routes
sebastian
wool
##gang
##elin
fruits
elis
crossing
philanthropist
disabilities
gav
vil
spots
conson
invited
ghana
##hausen
diabetes
##uaries
##oi
##enzo
laz
133
genera
caval
infantry
uttar
earn
imposs
##apped
visible
prisoner
breaks
sample
accompan
crops
flanders
hipp
ply
anarch
intended
lights
##etical
##arta
discrim
download
##ienne
oc
##ocene
seems
exists
courage
terminal
ancestry
rachel
nou
##uni
1851
gymnast
##2e0
##ayan
decisions
gameplay
designs
temples
ffc2e0
das
##ses
shield
##active
depos
##ographers
richmond
picked
##rib
##inations
knows
##ensions
qualification
hemisph
controversy
palestine
jak
nix
sust
##ici
149
surf
opposed
griffith
wounded
cul
##rist
##nan
##point
manus
monten
monsters
crus
solomon
colored
ranges
fountain
nad
##lock
alien
##unte
seed
cliff
elli
drawn
improved
tehsil
nominee
allier
255
downtown
facilities
bangladeshi
gravity
rated
##eed
##body
estonian
testing
ernst
##family
wis
zel
protein
diesel
warriors
##star
chip
seoul
jamaica
450
##bie
spaces
norfolk
disability
assum
emperors
bullet
dancers
logic
celebrity
attempts
precip
hiroshima
1830
1812
abst
163
consort
roma
technique
acquired
elephant
gott
pill
##odia
justin
pearl
ced
gates
tum
##oor
##iab
##ressed
glenn
execution
##iper
1847
1849
camero
felix
##rano
carlo
131
peaked
expert
suffering
gospel
spend
1840
frame
##ucing
recre
antib
grammar
organs
##iso
shaw
124
credits
portrait
sara
##emy
opens
meter
trek
penalty
magnitude
constructed
promotion
atlantiques
dolph
prelate
opinion
##yon
anto
##outs
blow
strateg
airways
volunte
sarthe
alpha
favorite
ek
##olds
talked
tested
nascar
entirely
scoring
explosion
piet
##zon
coins
summers
duo
kenya
alpine
##eer
##recht
forum
miner
harmon
convent
auver
wake
xi
##uer
disk
bras
240
armies
##rial
##ading
##ivore
santos
bombing
ludwig
tigers
pov
zimb
##san
stable
mann
##anche
successfully
##eim
1846
centen
1855
request
normandy
iso
##berger
spencer
leeds
arrow
edmund
expression
photography
hughes
gustav
asks
beck
##coming
legendary
vacc
sut
##gro
uniform
excell
bishops
eco
sight
itv
coaches
odd
suggests
ultimate
tad
##alis
169
railways
lesb
electronics
##itter
ana
otherwise
decides
calvin
implement
holes
reaching
controls
glasgow
impossible
mason
##most
##eri
stim
dawn
craw
recipient
aube
dement
consp
1838
clan
wooden
##monary
riding
1844
carri
230
publication
repeated
auvergne
ahead
gel
pam
sitting
##pass
pries
1845
viii
promote
nok
ranch
##aran
beer
deleg
##ebo
winn
albania
wells
##eenth
households
warrior
retrieved
##icus
##adors
proteins
processes
threatened
lennon
fay
wend
##gal
##imo
##ocent
1836
##phis
boats
quart
atlas
bloom
sullivan
bid
##lings
herze
##unda
genoc
recomm
snakes
cornwall
license
context
centers
144
pete
processing
naples
transferred
kom
##hin
##odon
populations
settlers
returning
utc
##break
anatomy
tributaries
java
rol
##urb
saved
cdp
contrast
traditionally
destruction
##cing
shorter
173
reporter
saxoph
km2
##eyer
smack
palat
##lett
explain
schedule
converted
hood
##tz
alto
heath
incidents
session
lug
turning
policies
boundary
ritual
##kt
##oric
##oney
bea
shiva
propos
americas
decades
legends
succession
bolivia
stored
adrian
merced
broadcaster
window
154
edgar
##ennes
##auer
emma
kem
toul
##ben
210
experiments
##fb
##anie
##raine
strict
##ukee
petro
lords
constellation
##avia
##ibi
offensive
arranged
tampa
advantage
herzegov
##ilda
guar
archives
sixteen
odas
pitcher
ville
°c
##agua
crush
axis
rhe
##erts
chamb
warning
raise
grave
observed
chef
typh
millions
##orian
##eli
proced
##udes
schw
westph
##enger
tourists
task
recipients
brittany
rarely
gul
174
bruins
rainfall
credit
renew
organisations
dup
##iman
charity
astronomy
graphic
suzuki
kazakhstan
ald
alberto
unf
##ifically
##ughton
elite
springfield
graphics
playoffs
ltd
adelaide
sections
buses
landscape
mou
yas
joel
mineral
##apping
oceania
mixture
surviving
casual
precipitation
mam
hey
##ipts
servant
traditions
certified
stanford
hil
##arl
strings
##crib
educated
luigi
fewer
multip
budap
joining
intellect
equivalent
##oj
##pat
usual
##hran
achievement
jungle
budapest
##erg
alv
bless
##yees
navig
compilation
herzegovina
gaz
rup
##uter
1819
153
powered
honors
seeing
burial
involves
philippe
employees
subtropical
hak
##eness
##oks
164
strat
transg
manufacturing
asteroid
##hem
homer
tunnel
owen
entrepreneur
##eria
summit
prussia
eri
ng
nac
##waukee
junction
julie
##agonist
galaxies
gum
lak
##rose
prayer
agents
161
depends
creative
##licated
baldwin
cay
theories
1500
azerbaijani
mild
rig
wer
associate
rhodes
regularly
hemisphere
##cra
##alus
spelled
##brid
daw
rab
tie
tied
##gary
prescott
versus
physicists
1839
1843
meth
struck
milwaukee
throat
homepage
attempted
photographs
dementia
gm
ueda
##esia
shops
leap
trig
malay
celtic
commentator
hypoth
orn
soci
supporters
latvia
memphis
taxes
loves
nathan
##keep
computing
frankfurt
##esty
spar
exile
##quin
charter
creates
confed
locality
occitanie
##uve
genres
themes
silk
triangle
dwarf
smackdown
jsl
##inder
##chair
formally
brab
mills
planes
administrator
sandy
credited
bennett
ions
tusc
unter
1835
1821
glad
emil
existing
taxonom
sicily
westphalia
trom
##erm
bristol
##ija
experi
healthy
monarchy
siber
faced
plum
##izer
twins
crust
loop
digest
conquered
genocide
bj
##esi
##iser
##ctional
##ete
##acles
trick
believes
width
apartment
kham
##cement
cargo
colours
muscle
phosph
canadiens
civilization
cairo
yale
nept
##anga
calgary
invaded
julius
##commun
saxon
feelings
registered
heavily
paraguay
nixon
lub
##rent
##ulate
filmed
evolutionary
determined
chelsea
confederation
furn
fasc
sank
1832
usage
##onds
108
taj
historically
drafted
hinduism
alexandria
feminist
shopping
entrance
taste
##zan
followers
monday
##idal
martha
manit
highness
quad
continent
tours
1852
1853
immigrants
##asis
beings
span
laid
displ
crazy
pilgr
telling
##isted
##essa
bris
creatures
krish
construct
eagles
transition
sergei
smooth
jub
171
151
swan
##anco
skele
humid
debate
tissue
aus
pist
sized
##hof
stur
##urai
1842
doors
lucas
vegetables
heinrich
##alu
item
viruses
tribute
archaeological
obtained
rodriguez
hag
ned
wides
##dre
##utor
lex
220
accel
hier
jaw
##eus
##ched
##abwe
germ
discover
connects
mosque
substit
assassination
##kel
##olith
prostate
dial
##ondo
blu
companion
defender
olive
domain
shimizu
sophie
geometry
phenomen
anders
listen
temporary
buddy
psychological
hanging
chromos
distinguished
faces
lod
pump
tape
##aru
##istry
##ulated
worse
subway
volt
malta
hardware
dying
##dal
unp
##ords
acoust
erik
##amba
defeating
ultra
coordin
nokia
hod
##db
victim
argument
denis
strait
tournaments
dorothy
plymouth
##uoka
##atore
##andro
azur
teenage
kushiro
qur
##rical
1818
basse
forming
farms
handed
devon
fundamental
phillips
penguins
320
##hill
##inks
orland
##bruck
bordered
kaneda
algebra
monica
##ushima
hearts
sculpture
vall
##vor
complicated
carson
signals
leopold
dated
##arr
##itic
##chw
##aken
##inae
betty
##encing
breeds
appearing
patent
fellows
venezuelan
pregnant
##oan
derby
##isf
sector
dix
retail
georges
##going
papua
goalt
batter
affair
fastest
automobile
summary
crocod
mph
rays
millenn
fights
reaches
goalkeeper
obituaries
jura
##eo
##ampton
##utation
1841
rooms
electro
extension
juda
researchers
homosexual
kul
styl
##istle
caps
operates
morph
principles
ambassadors
appeal
pyram
lamp
##icial
agencies
joins
135
putting
constantin
ster
notably
proved
landfall
farmer
delay
debeh
travels
venus
poverty
transgender
debehogne
mumb
##yu
##thro
phyl
somers
pulitzer
struggle
literally
ves
##rate
##core
spa
1790
aviv
screenplay
##colm
negot
normandie
overseas
zimbabwe
diana
ik
l4
ranger
seas
monk
andrea
##itary
##uru
##ifa
metall
confused
nicolas
ravens
##cule
##oids
##imp
idol
boom
automatic
marcus
wheelchair
fis
##gon
consequ
diff
resolution
relatives
smoke
divine
troy
1900s
duk
ore
yo
zamb
reef
alc
##imet
unless
diary
quint
specifically
sporting
malcolm
destro
750
747
978
bise
cun
##eback
##ahan
edmon
enters
medalist
investment
randy
##claimed
supplies
ou
vag
##iar
##illery
##icts
flour
blocks
variable
airports
qualifying
prepared
mercedes
riot
##isy
##iane
georgian
solve
confess
principle
vat
uno
thanks
demograph
slovakia
patterns
bourbon
nephew
fing
jamm
##ching
heights
aragon
scope
monroe
editions
endang
harbor
badly
primera
cumbria
rag
##anca
guatemala
aids
nass
pall
##hd
##hra
##ucl
carroll
regiment
referee
drawing
mongol
ingred
cancelled
intellectual
edmonton
scores
jackie
wait
arrangement
##aa
resemb
facts
hospitals
demographics
dil
##zel
bruss
monaco
##ynth
radical
karen
limits
rebel
messages
divorce
preserved
gut
beast
announc
emily
profession
nato
girlfriend
keeps
harvest
##uvian
mathematicians
dollars
biochem
slovenia
shanghai
gap
##dot
##aser
##bery
##agar
1820
contained
directory
civilian
babies
covering
jesse
980
neb
feathers
powder
lisbon
conspir
orlando
luck
lover
##agas
##arte
tehran
feud
cohen
##flix
grandson
costs
mirror
deputies
lyon
manitoba
endangered
oss
##apse
marcel
##astr
manila
##acht
minne
brows
salam
hardy
artistic
dialects
aim
util
##lu
##urst
##apa
providing
humor
reds
princeton
adaptation
fukuoka
nikolai
collabor
kane
##here
##enza
guards
emph
funk
##wing
reh
stol
##agram
1831
skier
nights
widow
hok
rash
##kers
abortion
patric
khal
explan
elisabeth
judaism
bip
bats
##pread
export
perth
##ullah
owns
chateau
##rated
shift
inducted
feder
flights
interesting
reproduction
brussels
##noon
##miss
carey
relief
depth
strate
metre
netflix
fifty
iraqi
sidney
corruption
widespread
fold
pock
tone
##eon
tooth
marne
expect
tril
warfare
skys
argued
closest
##ipei
binary
cc
##rand
##itors
notice
norse
peruvian
swift
landed
balance
leslie
layers
platforms
theoretical
advertising
scandal
telescope
inaugur
suk
tact
yemen
280
graz
circul
dances
crowned
detective
suddenly
mb
trio
submar
markets
shoemaker
jeremy
anglican
assigned
650
wc
forty
##umber
terr
harper
annie
scotia
architects
requires
categories
fol
hij
lets
##fire
##isons
##uccess
##erner
europa
1789
crashed
cinemat
tibetan
tucker
isbn
colin
crack
ratio
ancestors
unsuccess
subdivisions
ecl
##icz
prohib
##ensen
nationalist
output
taipei
territorial
quarterback
a3
dys
gear
chiba
##ulus
orph
afternoon
explained
hoff
oslo
experiences
bhut
mumbai
strategy
ci
mood
##ych
##omo
teleg
acids
genetics
##inda
autumn
traveled
trials
twinned
chloride
opportunity
960
gd
##xter
##ebob
zeus
##osaurs
flew
accidental
generations
slovak
1833
grove
mines
libraries
stevens
maritime
jas
lok
##rt
##olar
diocese
merit
hawks
immune
shapes
innov
bringing
##dum
##bane
##icon
##etto
geographic
indianapolis
shares
princes
namib
briefly
locomotives
gig
tic
##nu
thames
attraction
contributions
drown
remembered
descendants
gp
yes
##rant
alumin
prosec
guin
##ettes
equations
lynn
geoffrey
gius
kok
nipp
##mus
##mill
##aters
towers
chester
regime
310
##ambig
1801
shooter
puppet
rabbit
emirates
ub
##cot
##ashire
topics
##ushi
survival
originated
logo
matters
bruns
bruno
vendee
lahore
piz
chorus
broughton
quiet
passage
berry
infectious
initi
lithuan
kitami
lancashire
replacing
frit
violet
achieved
spongebob
priests
giusep
dag
haven
##kina
sox
outl
artillery
##iii
lucy
celebration
tanz
riots
brabant
pbs
##chang
unic
wore
mcdonald
lungs
assassinated
minerals
noun
##atically
##cester
marian
##ogs
phones
error
##cycle
arabian
marketing
ellen
mozart
discrimination
mum
##agers
##uli
valu
archers
ahmad
tuscany
tune
##eric
stall
monuments
surrey
##castle
strongly
battery
resignation
volcanoes
mlb
##mod
##wyn
##ucc
sole
accidents
flora
harder
cornell
soprano
airplane
cyl
##olve
neither
leip
smash
translations
mccart
wolfgang
embass
plateau
abolished
lombardy
vampire
ile
1825
disambig
winters
berm
floyd
experts
strikes
empty
990
lp
tight
##ativity
societies
##eshire
likes
flags
sainte
indicate
replacement
theologian
dale
##rors
releg
peas
114
missions
midnight
essays
##egro
finishing
minneapolis
##uo
##mish
##pro
oral
##avirus
boot
establishment
shortened
cultiv
streams
collaps
molecule
gothic
theodore
pepper
ahl
bend
nig
ura
##rams
##fi
##enstein
cox
##ahi
swing
barr
candy
concord
##oppen
##bid
ish
##oses
1828
1700
roth
amar
terra
greatly
influences
concrete
bicy
nervous
dere
ti
wess
##var
##si
##pus
##anas
shak
canter
repr
secretaries
performer
pastor
facebook
sherman
escaped
millennium
disambiguation
dong
##igne
1826
milano
##flower
ferry
conflicts
horizont
czechoslovakia
acoustic
fm
muk
qatar
yan
herm
palae
passion
doug
philippine
pushed
preparation
jessica
950
jos
##gard
##etch
britann
##ucture
cycling
pdf
montenegro
inqu
##oves
skating
friendship
insect
vertical
macedonia
dome
jets
roc
##usters
1795
skater
villain
waiting
cartoonist
sessions
330
l5
pound
##otten
organism
operate
respond
##while
circumst
grandmother
aleksandr
moss
##rons
##mare
reyn
beating
canon
duties
therapy
tunisia
880
hollow
ios
##sson
##ctica
neo
1810
abandoned
wu
##olan
aggress
latest
tenth
savoy
fraud
sindh
reptiles
hi
##case
##hall
stamp
leuk
1813
fled
blank
mainstream
clement
bayern
juris
achievements
monastery
340
##hop
spelling
1792
helm
variations
attacking
sask
##isse
clou
clif
muscles
edwin
signature
receiving
benz
defeats
monthly
lorenzo
printing
kamen
naked
centenarians
giuseppe
##uge
##ubs
barack
patron
councils
penis
##boro
increases
##strong
motorcycle
##ailles
##fts
android
reward
consec
trent
carries
instance
libya
viewers
##lemania
pretty
##itled
allan
##alez
advice
urata
freshwater
uruguayan
francesco
lithuanian
##jov
inject
##ilian
##uting
##arez
##ammed
everyday
greeks
identify
boroughs
jen
pix
rut
##idays
##athy
tech
1829
josef
protocol
rosen
nicar
rejected
uzbek
telegraph
hort
ji
nc
rams
sikh
plural
##acco
1817
1822
sco
hercules
hels
specim
dissolved
diamonds
jorge
tasmania
##unciation
absolute
gases
pf
##ku
chains
referendum
pride
shoes
praised
conquest
dion
iod
##affe
republicans
bowell
aunt
flies
subpre
moral
silva
tsun
aspects
##olithic
cogn
##su
##arts
marqu
##aze
rape
fortune
hopkins
celebrate
neptune
subprefect
##rets
regent
electrom
##awi
easter
gonzalez
yuk
##mm
##mate
tram
treasure
interactive
leipzig
bent
shog
como
internationally
wrestlemania
entering
equator
1806
bassist
cherry
besides
kawasaki
cure
##iad
##cor
##fight
##fried
##igar
drinks
gram
europeans
breeding
turb
specialized
focuses
citizenship
bradley
dollar
570
##cat
coop
attrib
verse
civilians
rosa
watching
manufacturer
nina
saving
zen
##aches
visiting
participate
stalin
vector
410
gad
kad
wich
theology
toys
plates
leather
blake
milton
##otted
viktor
antarctica
instructions
870
##rag
##rice
##kre
forbes
beau
clara
adm
engaged
deck
geology
bonus
rubber
pulmonary
indicates
guerr
experienced
canterbury
640
moll
nun
shutt
repair
holmes
honored
melod
tribal
perez
enforcement
rebuilt
380
diver
lup
sizes
ved
##len
##vet
##person
##yer
##isie
##imal
##clusion
martine
voters
victorian
vocalist
lebanese
turtles
bombs
abstract
##bu
chak
##rys
##onda
woody
translator
beaches
earthquakes
samples
determine
vest
##nat
1824
herald
phon
remake
##onaut
practices
watched
belonged
annex
adopt
travelled
nitrogen
penguin
delivered
fen
kitch
roh
palmer
thrown
epid
exposed
happening
racial
sprint
clarke
trinity
alleged
nurse
brunswick
hain
welf
##ird
##unct
1814
##derland
puzz
rates
zar
##jara
input
##asse
##ebrates
communists
256
legion
##restrial
filmmaker
donkey
professionally
fighters
lotus
physicians
erect
fbi
##leton
prostit
twitter
disco
deport
madagas
weekend
consecutive
cesar
kara
rent
wre
zones
##strom
##ernal
guad
quit
guitars
collapse
losses
stefan
infrastr
somerset
lymph
raz
sansk
vish
##tar
##lia
##rea
clause
evan
mahar
pulled
trinidad
eugen
gradually
sanskrit
##enter
stem
shi
##ahu
armstrong
moderate
biologist
ancestor
klein
ussr
sack
##pin
##ono
reedy
meh
laugh
270
madh
athe
promised
entertainers
circus
kobe
substances
veloc
970
mits
##mal
##acio
restored
sexually
expressed
advisor
loyal
vessels
madagascar
pairs
##anton
1816
conscious
extensive
brisbane
xx
##sd
##uen
##eres
trucks
##lingen
esper
consisting
stripes
narrator
valuable
##imi
##loo
tomatoes
nobody
perspect
pilots
duchy
pour
##orne
tru
memoir
homo
bahamas
constantine
ninja
breathing
kurdish
mccartney
nwa
##hist
##elt
##imate
##assium
##quer
councill
caroline
practical
430
ming
##lio
claus
flam
voiv
strongest
drake
potassium
leonardo
rotten
bonds
wals
##ean
##alam
##icate
maya
underst
wald
lesser
alexandra
powell
fate
mv
mog
xia
dayton
puts
inspect
rainfor
legislators
mohammad
weakened
heter
##ovan
prizes
barber
superman
pointed
patriarch
tj
carrier
brass
drives
260
rockef
kingdoms
sensit
measuring
lyric
partnership
beverly
##pecies
pag
rust
##wana
##rite
##endra
##iza
admitted
1910s
discip
restoration
matrix
climbing
ranks
participants
bengali
curtis
wizard
lesbian
jammu
bm
gest
tut
##riet
shear
arb
components
revenue
santo
wiki
kirby
griffin
benefits
bisexual
kyr
miz
pab
evac
holder
innocent
eldest
portrayed
toulouse
electromagn
830
chec
feeding
driven
populous
gloria
coral
designers
economists
functional
gibson
abbreviated
exercise
chambers
1km
860
##card
##ipper
cancel
newcastle
parade
centres
apply
chronic
##cker
tenor
crossed
leonid
brandon
duncan
ratings
marshal
shawn
violinist
situations
940
##dan
als
prices
permission
bars
panel
persia
accounts
installed
detailed
welfare
370
kdot
oise
##gel
##olt
marco
geographical
everybody
timber
revolt
cambodia
patricia
hesse
sue
wak
##hand
##iture
##etz
comfort
sheph
overt
seneg
extinction
morrison
infections
dispute
igor
sulfur
circumstances
fog
##arium
##alism
##immer
##ipeg
tonight
hd
lift
##uing
##avian
numbered
factories
roller
belarusian
caucas
paradise
##bb
isot
##istere
##ugu
endate
architectural
fortress
diplomatic
windsor
##enhagen
tobacco
kumar
infrastructure
dors
rally
yar
zinc
##urus
wei
prove
##quez
labels
abbott
affects
rotter
astronomers
measurement
dalmat
dramatic
660
holl
tosh
dew
harbour
transmission
hotels
facing
bedford
flooding
experimental
marathon
rockefeller
boul
ria
##bone
stood
mayenne
calder
belize
listings
explains
cyclists
rudolf
kuwa
coronavirus
wise
herman
216
battal
competing
rainbow
gc
##found
##wil
schles
surgeon
biologists
technologies
##chez
facility
tsar
elevation
sevent
voyage
ae
mugh
##onc
##stown
##ershire
marina
flames
finistere
buzz
symmet
jamie
pronunciation
attractions
icelandic
ticket
trilogy
910
aew
##rina
##oire
ants
##ucci
reconstr
jewel
catalonia
mongolia
hate
##hart
##reen
rex
##apor
laf
willie
christine
managing
publishers
visc
meanings
burton
1803
counsel
##ytes
connor
occasionally
knockout
prophet
rna
yev
##horn
##jun
##mons
alk
chim
manual
gerard
relation
##itta
openly
azte
psychologist
shirley
##press
##iration
conce
parth
reputation
highways
sno
##rises
sleeping
dhaka
dul
gift
##eur
bean
pla
1798
##eca
airbus
brack
volumes
campo
magnet
kenny
pollution
urawa
##rates
##iner
##thum
alleg
ondre
##ennial
##lette
tanks
sheriff
henderson
minimum
conspiracy
dess
dorm
kus
##enbach
stere
balls
deadly
jeffrey
consisted
flowering
senegal
dock
hul
pia
forwards
##sev
1791
belle
belly
##bourg
yamag
gandhi
exclusive
930
lal
pett
##sten
##chio
##idt
proport
blade
cruc
lessons
wheels
taiwanese
920
fusion
gan
nih
tons
##isi
1793
eva
bark
angela
firearm
lima
##ymes
coverage
collaboration
sik
yard
##gia
##inas
##ieth
hispan
compact
##inki
superior
oceanic
cutting
subspecies
jamaican
cameroon
winnipeg
tah
vand
scheme
outbreak
valencia
glory
##yla
bills
meanwhile
brigade
algorithm
470
bolog
vid
##vic
##bral
##osy
grim
barnes
decline
rafael
purchased
rotterdam
575
mice
toll
atlet
winston
cran
provision
valid
portal
##redited
bailey
customers
##bird
helicopter
820
##gus
##aton
ink
ank
##anti
##ellar
##ango
##istances
natal
andrews
flowing
leafs
dirty
doubles
refugees
kyle
##atan
##storm
##orno
holidays
courses
pianists
motorway
falcon
tongue
einstein
eruption
550
999
vy
##vas
client
bases
glou
copenhagen
hamlet
fairly
laurent
discussion
pregnancy
cooperation
512
bce
zam
reorgan
beeth
scales
1776
1600
fallen
recognised
bombings
responsibility
arsenal
lich
anj
##imov
sheff
rook
graves
accomp
460
cater
distances
patch
##ław
anx
##elly
##osc
comba
conclud
1834
##ogan
notting
sings
underwater
interests
drain
comparison
dictators
pocket
koppen
rope
##lain
##erver
##adh
genesis
representation
receives
oliv
cannon
belonging
lunar
bits
mitt
ole
sass
vibr
##hed
##oque
##amics
##anta
abh
##001
helena
instant
verdy
naturally
algae
420
540
gim
vig
wander
##mates
##anmar
##reh
sta
##etown
deity
whale
marse
beta
modified
classics
turbo
freestyle
bavarian
orbital
clouds
710
##eni
blast
sauce
##atti
urdu
administer
sharing
spirits
equality
illustrator
autobiography
subsequently
unoffic
wichita
##tes
##ipel
##angers
##orship
diving
christina
claire
determin
##otype
dud
hik
vib
yuri
##nut
##uber
##avel
spark
1827
##ourse
coy
holstein
seek
hautes
##harmon
stafford
naming
spectrum
guru
golfer
ondrejov
eats
##bal
peer
marl
mead
twent
relay
animator
khy
readers
corporate
rapidly
roberto
dual
hns
tac
tack
vie
##bank
anast
##uga
abroad
doo
245
##ropri
1809
penny
timeline
lucky
manipuri
immigration
defenders
ecole
390
bout
hull
stern
##avi
manner
schwar
interv
membership
##kaido
grain
fault
1805
timothy
suspect
programmes
fernandez
frost
atletico
beethoven
bism
fiv
flex
pounds
chir
scout
hermann
sanchez
tao
terrorism
nicole
510
572
lying
##cz
beaver
perm
augustus
angola
middles
publicly
racer
emeritus
contributed
editors
eh
fract
kart
mia
rov
chor
partial
134
desire
myanmar
##flies
graf
somalia
cartoons
venom
cerebral
dow
dans
tables
##emann
##using
shells
##allow
monitor
germanic
outdo
sally
aval
compositions
connecting
traveling
bhar
lenin
aes
yards
##stra
##bern
partially
1200
governing
emmanuel
richardson
navar
buddha
sailor
rouge
consumer
cavalry
576
cly
ix
saga
tup
##kow
##ahon
225
707
cabin
lorraine
malaysian
embassy
rats
##hor
##jing
##icing
aless
newman
blair
prehist
belgrade
organised
avi
intent
chiefs
concerto
assistance
pierce
sustain
ticino
bermuda
1796
roch
amber
##ront
koch
identical
nucleus
regarding
1800s
butterfly
benefit
pilgrim
constantinople
cake
ling
och
sg
##hyd
abel
215
armour
castro
copyr
rounds
dominant
##zhou
fluor
attracted
achieve
cnn
horizontal
martinez
voivodes
bie
rost
tus
component
cruel
1804
suspended
shuttle
kron
ses
wider
##run
##lore
neu
##aby
manage
1775
este
##azar
hybrid
babyl
##ihara
customs
jumping
merchant
consonants
kitchen
gior
ora
tent
##lif
##atur
##aders
fran
prair
difficulty
maurit
cuis
calcium
fingers
bard
dmit
ff
fas
jh
##des
##cup
##zing
##emi
congest
newark
142
editing
founders
guang
emin
brew
developer
denomin
365
olga
##utenburg
exploration
laureate
leukemia
730
gael
rw
thy
##imer
plague
commod
speaks
1807
conquer
continuous
480
642
nie
tough
##sis
2024
crater
interc
##ammy
thoughts
processor
suspected
meetings
sergeant
joshua
740
deals
sega
clergy
##quet
##atta
handle
multipl
probability
frozen
derek
kak
nh
pud
##nar
##px
conrad
polyn
subfamily
cups
moses
reforms
nacional
understood
jp
omar
sd
yak
##alf
arrival
judg
teachings
miranda
clearly
342
auck
jake
tav
##uous
##mu
infer
##apo
1797
##anning
tautenburg
verde
satan
grounds
1788
phillip
dent
ered
hank
sink
yad
rect
unity
feels
newfound
joey
preced
235
blacks
coaching
properly
sediment
honduras
fritz
auckland
520
iphone
mt
##lag
##orrh
205
seth
presents
janet
ears
##atchew
differently
greenland
fatal
scorer
withdrew
disappeared
##ozoic
taxonomy
bik
hes
kern
##arth
prep
remote
topic
homeland
turtle
670
jong
sach
zomb
##zzo
##unden
armor
demon
corb
ecology
avatar
judy
espn
630
840
sok
##kova
stutt
pluto
##atha
1823
indie
agu
dischar
willis
undert
variant
radioactive
celeb
celest
ellis
prussian
maintained
lut
nd
##kos
204
##antes
smell
##azi
noise
antwer
judicial
veteran
valleys
excellent
helsinki
sheffield
nottingham
antwerp
790
eur
xv
##icul
borngen
brut
decay
organist
raising
magical
flemish
aquatics
##what
segment
vitamin
please
ceremonies
namibia
khyber
cine
yun
##oibi
##mail
stuff
##urers
leak
##upp
solutions
postal
prefectures
microsc
alternate
basilica
fivb
##atchewan
aka
sous
defect
##alli
spike
brick
gros
1400
greens
maiden
himal
212
discontin
researcher
instruction
fungi
wcw
890
##atel
plaza
##iban
soy
##urring
topped
humanity
surviv
##borg
playwrights
shallow
palatinate
vatican
saskatchewan
cuts
##eny
##atural
alps
##aye
feast
1799
secure
surprise
archipel
sanct
turks
mighty
rebec
koh
slavic
resource
tadp
ingredients
voivodeship
412
bess
##care
##pers
##ayev
hash
indies
worlds
basel
amo
pref
sofia
kingston
hym
garonne
torres
##kreis
bologna
395
aph
sends
##sv
##abil
mayer
allah
highland
interface
wellington
porto
revival
climb
darkness
durham
libertarian
mgm
nes
##nn
##abl
scat
##ibu
brings
gujar
noah
##gradu
290
brave
arrive
1808
rises
boundaries
oriental
vernon
wednes
icon
##gets
##muth
##atu
##ceeds
##abited
crane
##annon
observer
astronomical
nepalese
residential
surrender
nile
##vious
206
wasn
neur
##sein
disagre
somewhat
creature
governorate
nobility
declares
konst
##brook
neighbouring
cott
mcl
rita
vine
inland
##amura
##opl
spiders
prest
syll
populated
moist
handball
satisf
premiere
swimmers
accidentally
andreas
antibiot
reynolds
shogun
dug
hbo
werner
abilities
hook
##afa
infected
sailing
travelling
reservoir
skeleton
bail
ns
nure
qing
sne
vista
##vian
##jay
##stead
amanda
##amma
congressman
recognize
reformed
clarence
wolves
advertis
emotional
krishna
porter
##right
##chus
asking
1811
apar
carmen
##inski
baltic
##eroy
atlantique
amazing
updated
pablo
survivors
jal
dear
cluster
knox
edo
##ashtra
315
eps
patrol
freeman
stopping
osc
homeless
interviews
pyth
trumpet
intelligent
coronation
norton
spending
##ylan
funny
maxwell
barbados
aquatic
wears
monarchs
concepts
ownership
oxidation
bhutan
590
cors
kai
pant
##vae
##inho
##ayas
whales
##acker
edges
##ussia
impression
anymore
arrives
burrow
coached
bankrupt
begun
reinfor
lankan
slovenian
accompanied
ducks
brill
saar
recover
lighter
mrt
qualify
circular
legislation
habitats
##borne
dip
higg
ties
chu
shu
counts
apoc
scots
guess
aerosp
emotions
kv
til
trop
##ivisie
whites
meiji
strand
baroque
irving
entitled
accessed
analog
whitney
mansion
eredivisie
712
dash
fake
hiv
lens
mys
##sted
forbid
##ulin
preston
caliph
angles
##boys
variation
periodic
subsidi
theorem
algerian
celebrit
cb
dhar
jok
##oit
##math
sheet
##ikov
button
moor
##uku
emigr
learns
curse
viewed
nicol
bradford
migration
copyright
375
672
628
715
##log
##raid
unre
##illion
clown
141
upcoming
greene
defending
cyber
vera
scream
mechanism
uganda
typhoon
kuwait
celebrities
ai
kub
##inity
##amic
##ayama
forth
whis
sham
##tenstein
##elyn
interim
burma
entertainer
crab
kyiv
contestants
uzbekistan
542
aure
kais
pets
wein
traff
madonna
samurai
memories
rabbi
hin
##nas
##ivores
##idan
directing
geological
governed
252
##cessor
legally
##icester
hallow
pakht
hardcore
dukes
velocity
432
ez
espan
sending
##vich
##mberg
##acks
reducing
anywhere
##centen
neighb
mandela
arcade
requirements
purchase
newfoundland
545
md
##lord
##icit
comet
enh
hern
##ensional
drunk
grid
ecw
berkshire
1870s
jerome
suicides
folklore
zhang
kidnapped
tanzania
boc
hello
##edi
##leen
##rels
##iler
##ako
convert
##ifest
##ende
158
johnston
obvious
invention
philharmon
##gyz
silence
logan
contestant
percentage
adjust
wesley
mysterious
supernatural
hypothesis
440
632
efficient
kag
##yard
##onica
##itama
##avan
##odor
##order
dres
##obia
operator
connections
getty
kyrgyz
780
yours
##days
##ische
##unkh
flute
coin
basque
##obe
archie
berger
karachi
roses
cooked
welcome
segreg
horns
lynch
veterans
zambia
wessex
oy
qa
##jee
##ivery
notation
saul
missile
bergen
racism
wax
bahrain
bleeding
mcmahon
imprisoned
schleswig
fug
hast
##isible
##omorph
shif
##alla
noticed
##engers
##aek
reader
stadiums
optim
crawford
voltage
della
kend
pest
vital
##ов
##idian
beans
shizu
ate
sheikh
yearly
ashley
##keepers
stolen
submarine
515
##jin
##xide
afraid
poles
austral
divide
verd
cinem
contribution
herbivore
dishes
nicaragua
hispanic
unofficial
##unkhwa
cia
##lich
##bage
heated
##otam
peg
##antin
##ouses
phant
##icking
##ierre
##velle
hyder
##archy
1802
ult
prede
hayes
pizza
pakhtunkhwa
560
hague
sams
##roc
##oline
##adays
ital
##phones
tract
slam
delivery
enterprise
oceans
vikings
baku
recovered
strategic
372
578
##ivo
##idd
##iants
plas
encl
leicester
traged
1794
phara
251
nowadays
shoulder
cyclones
additionally
pulse
disputed
##onymous
rebecca
gale
lj
mald
chrys
##illing
fris
##ausen
churchill
supercenten
##porter
mahm
spiral
orbits
licens
integrated
monkeys
siblings
yankees
aberde
antoine
392
iber
pitt
abe
##tenham
253
##engths
posthum
chemists
broadcasts
straw
hawk
conductors
falc
lifestyle
linguistics
announcer
inherited
bicycle
jurisd
stuttgart
dylan
fk
thread
marines
##omez
muss
bride
weimar
speeds
promise
##las
##cos
forec
##ulia
##odyn
commem
juice
##engo
competitive
325
cafe
hunger
separation
segunda
floods
clarinet
philanthropists
elephants
aja
bind
dell
hence
nied
winger
augsburg
amor
ammon
releasing
1880s
davies
theaters
medicines
3000
austen
lancaster
pyramid
##yg
##anor
beef
##andra
shan
##idea
acute
albany
247
222
versailles
mrx
gardner
bronx
package
vinyl
prosper
accurate
717
bella
tues
##enas
rever
##eryl
##ilyn
remark
1890s
titans
liege
tasks
335
dd
fet
gomez
homet
##kaya
##olin
stir
##imedia
edith
runway
castles
mali
##cripts
mccl
limestone
macdonald
bernie
campaigns
cubs
boliv
teenager
frequent
smoking
interpretation
muller
##graduate
332
pau
##aan
##iates
##once
##reats
##oso
exclud
warn
uprising
whereas
filming
teaches
##caa
opponents
pwi
yah
zach
##atas
fraser
adri
flint
312
nearest
signing
loses
campe
melody
breakfast
elsewhere
propag
aa
anh
landmark
rockets
varies
debt
graub
latvian
theatrical
antiqu
dimensional
columnist
beetles
nebula
explanation
lago
##gun
##anov
##ioni
ongoing
beats
##osing
mang
##iffe
counted
brat
guests
211
richest
##101
brands
##enzie
diverse
enjoyed
hedge
petrole
maharashtra
##master
shen
clash
carm
brent
258
##otti
lasting
juliet
automatically
exception
surgical
##osystem
pharaoh
339
rode
##eros
inns
##amy
##iry
##oco
worm
somewhere
238
russians
freud
burke
turkic
hosting
distant
anthems
ambul
hemorrh
moroccan
kosovo
##rahim
fischer
hometown
graubunden
dot
fiji
gog
pond
##igs
##sts
unh
sperm
##ebody
notre
##endered
overd
capable
232
reverse
destination
hindus
alfonso
drawings
pigs
reinmuth
##ivorous
anthropology
auxili
khamba
prairie
792
aimed
kann
nir
raced
##lies
##gae
##jor
##adian
##ebe
barrel
mya
tempor
happiness
confuc
oswald
inspector
nuremberg
dora
##vana
##irt
spell
arlington
##adeus
221
defenc
mori
knowing
banking
reacts
candidacy
favou
asteroids
dragons
vowel
siberia
shepherd
shizuoka
472
720
caves
mash
vrh
##coms
thumb
heating
##agus
##see
carc
brock
sworn
median
larvae
214
defunct
cameo
hoch
structural
mccar
mohammed
##chaft
perspective
twentieth
cac
ioc
thurs
209
##idon
##ipse
mane
aftermath
##undy
liu
juvent
communism
275
trem
discoveries
boyfriend
##amento
brandenburg
breathe
synthes
appeals
occasions
ricardo
encouraged
nud
nerve
sits
##thus
mush
musk
elvis
johns
filed
##ushu
protector
squid
ideal
persu
columns
tatto
abolition
hannah
administered
wednesday
596
dart
##opus
##ande
brady
bash
254
treaties
ethics
costume
headquar
lithium
cameras
opinions
gentle
petroleum
425
cerv
f1
jol
luk
nago
pach
rak
##fred
proud
##icho
##osta
##ifies
##angu
parma
saitama
juels
traits
sitcoms
fergus
certific
embry
tunisian
suitable
aristoc
recovery
hormones
jill
pter
##gor
##itian
italia
byron
hert
##spring
milky
##ylum
malt
camel
sharon
tarn
cerro
toyota
shirt
##continental
coordinates
337
##aise
##koping
203
stuck
##urrect
##lywood
gramp
crni
stras
slide
skiers
demol
salem
doctrine
concerns
uncredited
ultimately
cuisine
aerospace
592
525
ces
gos
ncaa
pagan
soria
tina
##rs
##jima
##olves
##stro
albanian
hyde
everywhere
collision
vacu
cage
yoshi
##yen
sting
##illed
##ardi
##ials
##ilee
218
226
##ungs
bihar
grab
sunlight
sami
somebody
cassette
preservation
trapped
abbreviation
mughal
anxiety
hc
hos
nish
##notes
##pi
inten
heather
monter
##yson
terrestrial
weston
retiring
martyr
approval
loving
ecuadorian
indoor
scandin
challenges
kry
lill
##lift
##onzo
##enov
andor
stap
enri
cologne
knife
preserve
##ulture
schum
directions
jef
defended
tomorrow
journalism
ruins
utrecht
rahman
tornadoes
##continent
wisdom
tsunami
sensitive
610
777
##elo
##stop
ally
shon
marilyn
##ikawa
decoration
schiz
artem
impe
haj
nutrit
flavor
walsh
lance
lily
ome
vale
##nt
##asso
chitt
##acion
1750
1777
minis
##irect
##tenberg
swamp
impress
25th
##lla
anger
statues
variants
##naught
merger
premiers
dominated
saxe
lemon
employed
switched
congestive
glands
niel
##eaux
##alom
##igata
207
##omer
##empl
217
judith
observations
dinner
participating
##hardt
assumed
bis
##kinson
##alan
reid
indus
recurring
motiv
##yeong
digit
commanded
dubai
tuber
horizon
collapsed
nagoya
ily
tens
##atist
##rock
hector
bei
##opotam
shane
##ifice
##actic
templ
antip
catalan
hospitalized
paying
rebels
mohamed
inspiration
satellites
sendai
ethiopian
ligue
elliott
accomplish
742
cz
pis
##cope
herr
1778
parody
monet
quot
viola
rankings
neighboring
pavel
striker
fitness
maritimes
cecil
roland
##cribed
tajik
516
645
borrow
rim
°f
208
##iments
uncer
disl
swallow
##ieri
231
shorts
amongst
timor
julio
temperate
jacqu
telecommun
viking
punjabi
apparent
fellowship
archipelago
417
hitch
sells
wives
##cube
##wear
##yar
##imony
##abel
arte
mao
barrier
hara
emi
portable
turkmen
flyers
##marks
reproductive
347
crom
katherine
elena
suite
mercy
323
denied
info
##islav
practiced
sequels
##cestershire
shelter
doubt
initiative
battalion
halloween
435
416
675
770
meyer
tier
xen
zion
##nian
andes
##olid
marble
worms
coe
juven
213
servants
obl
paula
encoun
toledo
##iveness
relegated
ajax
flet
##xi
##anu
##esian
##uddin
grun
redd
##aea
ecosystem
specialist
holden
lucia
treasury
announces
marseille
tadpoles
345
415
760
riley
##iors
##gent
##zin
threats
seals
byr
##quel
phd
nationalism
secular
harsh
daisy
antlers
standings
sentai
describing
souls
scorp
wiener
triassic
bubble
exposure
furniture
442
nxt
##jiang
##wang
alder
schl
##oby
assess
##isei
makers
##bye
continents
mcd
royalty
philosophical
jeanne
continuing
lonely
germain
auxiliary
732
a1
bust
##fit
##orgh
1780
acres
appropri
241
humph
##aeus
danube
discovers
medici
1787
sailors
drove
preferred
419
580
lent
oath
tear
yuan
##gir
##oard
##adder
##odies
carac
soup
contra
##ffin
supporter
belfast
starr
intermed
primitive
borussia
predict
spokes
robertson
dependent
moldova
911
craft
sss
deities
proto
enz
lever
##ellan
webster
sergio
##space
popes
formats
consul
##otta
statements
##ombe
aston
similarly
sandra
odys
ramon
kanagawa
segments
feminism
displayed
fabric
rookie
595
680
kamp
tud
wah
##iani
spotted
afford
trace
waterloo
micha
radius
antig
limburg
705
1785
ensemb
diversity
locomotive
advocate
tuesday
impeach
475
lum
misc
vick
##fel
##erie
sect
ort
spo
##arya
rochester
upgr
schne
257
revers
varieties
toured
destiny
declined
hunters
vegetation
choreographer
goaltender
prehistoric
745
irene
##kok
##itudes
##asu
relativity
248
305
227
##aldi
socialism
1850s
frontier
nutri
harmony
valentine
sociologist
britannica
476
fy
mature
rous
sapp
##cock
##anan
##unn
unt
manch
##ikovsky
laos
midlands
antio
performers
385
immort
tunes
communicate
hawaiian
orientation
phrases
honda
dough
tik
##vement
##opods
sep
conve
##esset
##ups
booth
246
322
tomas
sharma
crosses
curve
romeo
fuji
hartford
niigata
mozamb
dolphins
announcement
discontinued
hyderabad
intense
399
gly
kav
pou
pard
##aic
##umont
##alliga
mank
brush
symp
saff
quinn
steal
demo
313
trevor
commissioned
significance
waltz
exhibitions
terminology
sponsored
nouvelle
336
ges
hms
jelly
##cu
beam
##ithms
##apur
##okee
##asses
knee
creed
busy
salmon
355
sergey
concerned
sacrifice
dictator
hutch
infinite
browser
provisional
639
eros
tart
##list
##bergh
##akk
countess
1770
brien
coleman
grig
##epp
307
3166
taliban
richards
eyed
negro
favour
controller
seemed
cruise
johannesburg
electromagnetic
prepare
526
kof
mistr
##than
##chel
spart
cyan
402
squar
garfield
ruby
rhineland
luxury
commentary
employment
synthetic
saxophon
displays
##chwitz
sterling
447
gond
lager
nong
##bel
##oning
##arms
##olini
toile
hisp
##assis
157
monks
genome
secrets
242
consoles
cros
associations
1860s
realized
samoa
posts
protects
##angelo
scholarship
isolated
philharmonic
erit
vr
##jat
toes
##amine
##entin
deaf
shipping
fee
usb
truman
bois
fool
knesset
##erald
rivera
mainten
underworld
228
##201
floors
baloch
tribune
protagonist
okina
estimates
alcoh
735
cic
pah
tann
chit
plata
##apes
##sei
feather
exit
##qual
centimet
bred
259
load
iris
birthplace
fuller
literacy
layout
imagine
diane
kop
zagre
threw
##itas
andr
stays
##agement
bru
upset
doom
maori
303
236
ske
rao
##hei
visits
observation
liech
chapman
dressed
piper
##craper
orphan
canceled
forbidden
490
lund
mock
osh
pend
tate
##hal
##part
heal
##fering
##uca
dismiss
reggae
295
retreat
involve
optical
owl
commentators
338
378
577
nog
##atro
isles
##amation
shots
##avier
teresa
321
ivory
##eldorf
magnus
option
beyonce
linguist
chromosomes
426
fow
hitting
viss
##alp
##odont
proceed
surin
306
##ukh
braun
midfield
explore
confusion
sunny
##theid
alek
manufacturers
rifles
wealthy
nippon
zagreb
akh
bian
pose
##itable
##elius
##acc
mothers
metaph
harp
mcnaught
petr
885
savage
gaul
baghd
diaz
gamba
chronicles
isabella
uranus
yevgen
438
awar
gin
vince
##auts
##bons
##eses
##cephal
shy
counting
compreh
carne
apprent
annually
touring
peaceful
bonnie
immunity
predator
funds
bibl
coloured
##kirchen
fitzg
eduardo
hokkaido
apartheid
349
615
fah
##jon
##opol
sociology
newer
aggreg
285
intensity
radar
audiences
##eldon
pirate
lauren
eleventh
macedonian
pornographic
schwarz
liechtenstein
eph
ner
ratt
yong
##has
##uria
chant
whate
leh
firing
goat
##ght
##gren
gamecube
##atories
cyrill
venues
princesses
missionary
decorated
reunion
circulation
333
625
bing
eut
morm
nab
nue
wavel
##jev
##iland
##oded
ley
boots
##onduct
pars
1620
schu
cres
crest
mafia
243
297
281
bret
corinth
developers
##fordshire
eras
405
abbas
kapoor
cedar
418
996
tian
unex
##ibo
mega
offspring
schwe
islanders
311
emm
##appa
boards
bullets
thrash
1783
hydra
cowboys
chlorine
streaming
reserves
marinos
kurdistan
riaa
fletcher
whatever
eul
fathers
rik
sabb
##theless
revel
##eti
##ignon
##izh
flesh
237
314
designation
squir
etienne
banker
goalkeepers
cello
spreading
destroying
unsuccessful
aggressive
518
cip
dana
gb
pik
wrap
##bound
##orious
ine
worried
apo
footage
grover
eden
mae
282
differential
raja
##erville
verses
##301
domingo
cerezo
lutheran
cork
cena
wies
wyn
##iu
##rob
toad
chenn
orth
##ifax
serp
overth
lasts
militia
obsess
888
republics
##ofen
astronauts
ranging
carbonate
mammal
sculptures
iwata
gifts
uranium
trigger
forecast
496
ero
sf
wimb
yog
##worm
##atin
##olism
##acan
allison
resid
saone
slim
286
318
886
mascot
convinc
healthcare
crimea
lawsuit
disestablished
encry
atmosph
recommended
346
428
547
618
bots
cube
feld
mell
oita
vitt
anah
##rek
##tham
mangan
tracy
249
296
humanitarian
ballad
deriv
andrei
ibrahim
bohemia
wendy
delayed
reconstruction
cyrillic
825
hust
kashi
lach
lime
xiv
##iency
spher
maid
johan
##atty
302
businesswoman
halifax
devils
nationwide
mutual
pronoun
immediate
mistake
dodgers
torture
inherit
chevro
maintenance
348
620
cus
ning
##lay
##arov
##agic
hassan
##undi
elm
slang
224
incred
characteristic
prevention
panther
environments
sabha
offering
terrorists
suburban
gravit
subsequent
navigation
gujarat
juventus
vacuum
biblical
gia
wille
##nels
##pc
theft
##org
##ener
asylum
spears
presley
dob
myers
cyrus
madame
hotsp
melissa
murderer
predicted
sexuality
jurist
gregorian
momentum
nineteenth
manuscript
manuscripts
acceler
cylinder
esperanto
thursday
376
635
dort
dai
hail
ngu
xvi
bees
asth
neal
rox
##acts
moth
##aires
daytime
sanf
olivia
involvement
jacksonville
reacting
pageant
dealing
cherokee
pigott
##escu
molly
riders
pleasure
aargau
situated
clifford
commemor
miniseries
nutrients
fitzgerald
411
810
raven
##orah
chips
##tering
congreg
pepp
boog
##action
sauro
airing
308
223
interchange
volks
posted
##cheon
teenagers
##skaya
chaos
ipod
##nikov
thermal
distinguish
proposal
guinness
konstantin
445
749
gag
oster
vog
##kas
##umps
manages
abund
hered
flame
incom
settle
sentences
rapids
strauss
messenger
participation
removal
schmidt
pharmac
evangelical
biz
pt
##nis
##court
##hurst
##ersdorf
ches
comunes
orton
leone
##gee
herz
sought
obso
##ledon
greenwich
explo
panic
assisted
bacon
imprisonment
343
495
cbe
witt
yus
##adan
22nd
##zek
condem
vega
collecting
boxes
marcos
blocked
aliens
levy
echo
##piece
dresden
396
422
626
748
796
ej
nara
vom
zee
##mor
##icious
##athi
##erness
239
272
273
lego
maggie
farther
esther
curry
brighton
toler
intersect
middlesex
439
478
effic
nost
zu
##etically
##ceae
chee
shor
conven
##uder
canyon
##ibe
##weed
elton
metab
##190
465
digits
sprinter
hanover
excav
muj
vulner
airplanes
sapporo
awareness
448
517
795
912
cigar
watt
zimmer
##rang
click
1772
groß
dried
weber
loose
##auf
raiders
mounted
receiver
conducting
stephanie
imperatore
klaus
feminists
adaptations
wonderful
phenomenon
subsidiary
innsbruck
headquartered
918
bant
dund
fier
gou
hare
hiding
thief
##inians
chun
##agu
unfort
pean
registr
##shine
##ophy
membrane
funding
subprefecture
eminem
chennai
436
bury
##erman
chapt
##rach
##ustion
aboard
centered
disband
offs
283
##appy
768
1786
renown
nagar
estimate
container
sahara
sacramento
##grave
obsolete
431
cull
duss
lia
wong
wade
##dia
##vey
##hara
##inos
##lean
##ilst
bez
seiz
##ucn
laun
resurrect
endors
288
406
326
balt
##former
hamlets
381
penal
1784
doctorate
hussein
armenians
##antha
nepali
explorers
buckingham
conversion
withdrawal
elliot
casualties
professionals
hemorrhage
unfortun
398
377
446
528
617
727
995
kiy
##hog
##bles
##mb
seab
##ums
marvin
frib
trium
244
219
glam
##eneuve
persec
cannab
miracle
speedway
nordic
prav
archaeology
tailed
employee
patriots
nursing
baghdad
chevrolet
aal
euk
lb
lava
ramp
sque
tails
##wari
##itone
##ilder
##oder
##acent
##cliffe
##ancing
##ussy
##ographies
noct
intercontinental
donna
50°
secretly
ethan
jules
payment
occupations
measurements
##adeshiko
glacier
auschwitz
plasma
nadeshiko
pes
pipe
tamb
uh
##hot
##beck
##ycl
##edon
##itimate
##ingly
##azaki
##cession
loos
steep
##ophren
goodbye
##loaded
performs
366
702
closing
sandwich
beaten
flee
bundest
eleanor
answers
jenny
synthesis
disabled
lagos
throwing
sovereignty
interscope
rainforest
clyde
ensemble
chapters
427
612
616
716
798
bb
nt
nim
tast
##git
##fil
##anted
trench
1300
suprem
providence
noel
316
incor
##psy
dense
ruther
trainer
observances
1782
antony
ronnie
explosions
bunny
ornith
terrible
jacqueline
aks
het
jaws
anten
##ications
seam
fries
adject
basically
pawn
##araj
##501
tottenham
sunshine
casino
oilers
##ricke
constantly
update
antarctic
bundestag
848
935
ely
eure
gop
tears
onwards
cheshire
comments
299
276
arabs
mosqu
praise
removing
rotation
explosive
seriously
discussed
schizophren
548
546
690
718
839
875
dae
lass
wi
wards
##uya
##chy
chow
une
aryan
presby
ups
eds
fins
229
accent
goodricke
arguments
matilda
362
certifications
trailer
sylvia
ceremonial
wimbledon
772
711
939
972
aware
dino
katsu
xin
##itiba
##thood
##abul
disgu
##onscious
cardiff
azad
382
referring
logical
respected
underne
surnames
jagu
batteries
guadal
underneath
522
676
937
915
bore
eternal
gaga
mish
nils
wart
##liest
thank
##anum
##lemy
sticks
##upta
gron
winchester
sof
artwork
298
empires
supermark
##tym
##401
##ihu
beneath
decreased
fribourg
649
947
936
926
gould
gains
naw
oleg
lep
marino
butt
renal
agrees
abdullah
megade
neighborhoods
##rophys
pornography
lymphoma
strasbourg
449
638
845
878
917
kov
koll
mn
niss
nuts
##cus
##onn
##alous
##ameral
shannon
tek
finale
buying
highlands
sportscaster
viral
angelo
408
confidence
shoots
sailed
vicente
correctly
stevie
regulations
aurora
crusade
faso
mccarthy
megadeth
437
736
778
946
dz
tl
wen
##lis
##roft
##leader
##agna
nec
neill
##ryn
maybe
bladder
outs
peaks
variab
seeking
benin
384
bowling
vaucl
bulls
1707
sieg
opportun
tragedy
678
fare
nomen
##100
##hy
##aren
##eling
meal
##ilde
262
emble
burkina
robots
travis
oriented
cleaning
tissues
botanical
dwight
inauguration
samsung
alcoholic
519
975
dams
lus
mama
sagan
xavier
inver
##stock
##otr
shik
plug
manifest
tradem
parana
1650
acron
grouped
obst
##sha
##esha
burm
##force
sato
462
bulld
protecting
casc
landsl
advisory
havana
bomber
##optera
isabel
puzzle
erotic
637
##wara
##ør
##edge
canucks
trunk
cald
filipp
gluc
demons
presentation
328
757
panthers
possibility
bonn
rajas
diagnosis
barton
suspension
nikolay
seventeen
gaelic
hernandez
499
925
tna
wan
##wen
##pill
andres
sto
mayflower
##club
italians
wanting
autism
sunset
363
452
reporting
baba
flynn
1763
kirch
vegetable
tobago
possession
parasites
reelect
sturm
aberdeen
michaels
bick
henn
iucn
jab
kens
mk
mie
saves
tb
##oise
isonzo
##cho
##iras
##adt
leigh
##atham
mare
calm
barth
278
publishes
floating
karnat
naturalist
etat
lester
affili
casey
absence
aeronaut
gaming
sylv
quran
nassau
phantom
ferguson
vaucluse
492
549
647
695
976
fencing
gore
joke
kell
paw
sime
yi
##zt
##imon
sphere
##acon
##ichy
marries
292
emilia
brett
takah
addiction
donated
##801
victories
thomson
catalog
##know
hierarchy
evacu
ambulance
karnataka
331
746
928
kut
kee
##jet
##enes
chol
##eba
1737
##icians
perpet
ammun
covent
motto
devoted
352
386
bordeaux
insert
targets
tunnels
mandarin
renault
deutsche
surfaces
cognitive
gravitational
619
872
dante
kung
lid
lips
tension
uly
##rance
##vy
##had
##bin
##mings
stam
itunes
##ovna
margin
joa
twil
slip
annabeth
##alypt
##flu
erin
marty
655
familiar
packers
clinical
integer
disputes
archaeologists
vowels
vaccine
anaheim
775
849
838
oman
poc
tuc
uc
zoe
##kk
##pse
apes
##ecy
earning
missed
succeeds
astrophys
punished
652
futur
bombers
inventors
twenty20
frederic
vertebrates
calculated
joyce
titanic
carpenter
hormone
wreck
876
945
etym
hanc
pony
##fur
##wy
twelf
crem
champagne
retro
##aneous
##601
357
obsc
satir
882
semif
affil
laurence
lionel
repeat
pleasant
##rupted
renewed
dawson
drainage
rutherford
ammunition
twelfth
636
cows
caf
hons
luch
pto
pash
rt
thal
beak
##aparte
augusta
amadeus
##annah
287
261
walked
avo
define
civic
359
robbery
bangkok
rubin
cowboy
gabrielle
hammond
zelda
consciousness
mvp
favourite
enrique
mozambique
renowned
presbyter
341
511
641
bates
gat
mito
anita
andalus
stabb
##ules
proclaimed
usher
##epants
booker
233
284
##boo
radi
masses
characterized
455
862
767
565
savo
hoped
1768
laser
freddy
manufactured
pomp
giorgio
confucian
omega
incorrect
498
842
828
919
jah
kats
luna
sis
wad
##aroo
##adier
##osi
scared
234
landmarks
waterfall
ideology
358
memor
colonists
darling
protective
emerged
lovers
promoting
hubert
omn
principality
chronicle
eclipse
776
aims
deng
##ruz
##atops
##sta
shrew
##ipur
webb
indicated
amn
304
277
farra
natives
458
605
mortal
accommod
customer
##claim
couples
sponsor
cheaper
tactics
predecessor
campeon
squarepants
dusseldorf
832
ips
rih
ull
##eet
##jak
incl
##rous
##reuth
peach
levi
##udh
##soon
contents
relax
supple
obe
villeneuve
##loe
extends
draws
katie
dirt
harmful
sophia
##recce
quartet
jenkins
atmospheric
692
998
fior
gis
kah
mating
yv
zap
##cie
thuring
##arina
##ieg
tej
##mental
##ritic
##mans
dozen
assets
metam
##uko
slayer
271
paolo
humanities
356
musicals
raph
887
451
371
bollywood
omaha
kashima
applies
fukushima
decrease
tubes
1840s
troms
asthma
sanfrecce
eukary
622
lays
pork
panch
panda
##gol
##roads
recept
##chat
unions
neust
##achim
warming
relating
preach
strang
274
319
goldwyn
324
murd
##parents
collector
boyd
571
immun
rodents
jonas
generated
alej
townships
sacrific
challenged
essayist
botanist
neighbourhood
helicop
vorarl
volunteers
outdoor
certificate
648
698
942
benson
dah
hilton
za
##rooms
##church
##emer
healing
canary
blaz
gob
regulation
deskt
23rd
263
bremen
##ophyll
taluk
##ijk
primaries
wilm
tarzan
1758
vaugh
##zyme
spinning
cathedr
extraord
venture
autobiographers
beetle
dixon
twilight
826
932
baz
burr
gus
kand
td
##rington
##fu
##enta
stunt
##esti
cone
excess
polym
1760
agnes
30th
sketch
myel
368
785
separately
rosario
bottle
hydroxide
unconscious
bugs
portraits
apparently
wireless
olivier
yadav
artemis
080
530
719
837
847
992
hr
hanna
kou
rides
sq
ال
##igl
##idy
chili
probe
mari
##oked
adds
1740
1598
minds
317
posit
hampton
889
nobleman
456
581
bosnian
nagasaki
dimension
locked
ensure
gathered
restrictions
vessel
prayers
discharge
telecommunications
948
korn
kik
oro
##rats
##rador
invert
alain
whilst
##umen
worcester
singular
coaster
howe
invisible
villains
##brian
##writing
camden
367
765
insult
dynasties
bhag
marriages
rumble
gathering
eisenh
procedure
skyscraper
050
739
846
cache
dend
hess
tara
yel
##fin
##eras
##thou
##adic
1492
syrac
##ulla
missiles
silv
argue
mcn
georgetown
786
1781
circuits
attempting
alexandre
ricky
swords
cineos
supercentenarian
comprehensive
burmese
vorarlberg
541
699
799
835
bisc
duc
fou
hs
mord
tired
##ng
reys
##chin
chung
fry
sche
genius
cron
helium
undergraduate
704
555
naj
banner
rescued
crystall
paleont
cosmic
consequences
iodine
midfielders
hancock
696
892
916
938
jov
jade
kuz
##oys
##oris
alma
##estrian
##illac
##ikes
1766
induct
phyll
genoa
archd
imdb
competitors
##ijn
faust
855
965
obituary
algorithms
norte
pietro
caucasus
judgment
393
cuc
hap
nah
##hak
##word
##rab
protons
enlight
newport
coburg
293
listening
daylight
varied
array
troll
mcg
787
661
##holder
galile
dunn
bitter
conventions
schizophrenia
syracuse
599
598
629
836
dic
##rage
##bys
##inh
##arat
##isan
##ionale
##ocated
##upe
indirect
279
extent
grandchild
arranger
407
latino
robb
383
facto
catholicism
987
independently
cheer
gabon
vasily
bertrand
aristot
intermediate
vissel
060
929
bench
##inga
stating
ori
conway
roe
recall
moder
294
locks
329
cardi
361
387
rounded
lowe
processors
858
##glom
funded
drops
reformation
conversation
natalie
421
dover
##bard
alam
##uti
##ikon
##endium
nationale
weas
265
soviets
ballets
squares
punch
388
behalf
866
##iyah
aquarium
controlling
cocon
##kirk
saxophone
vishnu
anjou
grampus
646
hig
nj
pius
##hang
thur
##uno
chew
##opy
##imoto
1730
twist
assam
##anka
309
carefully
majesty
354
708
gallen
985
666
darker
573
poker
narrative
subdivision
portsmouth
delegates
falcons
391
731
949
biss
teng
tcha
##enheim
##arck
##asan
##omed
##omiya
##irs
##utz
##akura
##ongo
1779
disks
desk
cray
apples
valais
##shan
##iewicz
revised
lighting
halo
##hao
369
collective
ruf
taxi
telugu
dolls
permanently
thunderstorm
poisonous
czechoslovak
consultant
higgins
metamorph
020
543
fert
mund
ucc
vass
##rish
##kl
uncom
enroll
adele
##techn
##etsk
casting
effectively
968
461
466
wilderness
bonaparte
puy
##rolog
reigning
interaction
witches
ferrari
##foot
dortmund
738
cis
dove
gaza
rational
##makers
##raf
##ieux
##ogl
webpage
proven
##grass
landkreis
myths
##ophil
avis
solving
godfather
downs
erich
freight
651
##steen
searching
anatolia
descended
clerk
substitute
caterpill
avalanche
sesame
tubercul
okinawa
032
394
lv
##mg
##arest
sts
##aden
chich
##opa
shia
##eart
dias
compass
##izations
stark
surge
289
jealous
##ckl
##brand
karab
865
developmental
liefering
gasoline
lambert
restricted
surrendered
witnesses
jurisdiction
efficiency
643
foll
nymph
rc
##lake
##code
##isition
isn
stup
##estown
linz
264
simmons
##boat
suv
intest
sometime
403
balk
equally
sunderland
duet
468
inhabited
379
commanders
hunted
dimensions
clarks
jennings
sulfate
wishes
rebuild
aluminum
outlaw
enzymes
helicopters
desktop
tchaikovsky
040
877
997
ceb
dord
pang
##inte
##atri
##ilion
whitt
unw
thatcher
fres
whenever
quarters
291
locally
##otting
remn
cataly
327
joseon
ballot
606
755
##adox
semic
orchestras
1765
falk
reveals
assassin
imaginary
teddy
michelangelo
carriers
concluded
kashiwa
030
397
627
dair
wacker
##far
##ан
##isle
##berra
frat
sheets
boo
brend
southampton
weaver
airs
404
sunni
gunn
potato
lucerne
venue
altar
protesters
protestants
owens
pupils
guyana
bryant
ghosts
anthropologist
deeper
dialogue
##through
vagina
lyricist
appropriate
334
bamb
cag
pistol
qin
rage
vad
##eson
##orio
alter
##andan
neuch
manning
1596
depicted
elig
quentin
##ssel
slalom
simone
remar
##maid
circles
institut
treatments
668
boxers
theatres
579
rolls
baha
freddie
diplomats
worshipped
discipline
andorra
mistress
raphael
cathedrals
eisenhower
527
cush
icc
jug
kish
vip
##rer
##gil
##ᅥᆫ
##iston
beard
tect
linds
##ffy
alba
makeup
##inka
associates
sixty
hoh
##evich
hillary
garage
psychologists
legislatures
synch
1755
bolt
fantastic
bacterial
giul
vacation
numerical
confederacy
cocaine
podcast
##ithmetic
hogan
nigel
kyrgyzstan
##employ
carnegie
willem
nguyen
neuchatel
010
633
bite
jou
lena
pts
##crap
toe
ching
##ieve
pras
arithmetic
diagram
##ifier
adul
1590
perce
mons
recr
slower
slope
invade
extract
takeoff
608
eighteen
kras
sequences
scratch
significantly
approximate
wolver
##music
hymn
##jatjara
botswana
477
821
fury
##vik
##kal
##zier
##zilla
##orc
fork
##agos
unemploy
spear
canberra
##izers
##erna
1592
1100
guid
##iera
24th
sonny
karate
955
962
988
anthology
machin
beatrice
claiming
speeches
sanga
integers
laurie
burgundy
treasures
distinctive
lecture
crocodile
attributed
variables
opportunities
597
cement
ding
ecc
fon
fond
kod
##beth
thistle
##orum
dece
condom
conclusion
pratt
tricks
boone
lax
amino
christie
antagonist
peterson
457
bayer
combine
479
theresa
commercials
humphrey
433
544
dumb
fulf
giro
kolk
ngc
pike
rai
##auc
##yst
##ocation
fey
##ibal
blamed
northum
elf
267
##ropods
rememb
reduction
trojan
602
inflamm
completing
582
polytechn
options
aerial
strengthened
concentrated
cordoba
reproduce
shadows
dodge
heinz
absorbed
cunning
skyscrap
##millan
rectang
honshu
090
733
922
cory
hai
rains
##bra
##asio
toads
stoke
shire
##ignan
ida
manor
clap
clade
clusters
trips
1745
paradox
weiss
##azzo
268
everg
email
ecological
silicon
halle
763
665
kilog
##ppard
lamborgh
segregation
licensed
temporarily
sabbath
skyscrapers
423
822
##los
##nitz
thie
ismail
hew
shrek
spd
laus
brenn
betray
noon
##ectal
26th
castel
colorectal
expelled
haitian
workshop
garrett
reads
browns
756
966
crafts
tellur
marsup
tehsils
pseudonym
daddy
bamboo
oracle
brilliant
trademark
etymology
634
jod
kant
kiev
nos
vort
vhs
##tail
##ipa
livest
##ensburg
deserts
countryside
##alya
tops
physi
errors
409
franconia
firefight
ferment
986
674
photographers
kathleen
841
cw
goss
mh
mour
mih
nath
pamp
uter
dexter
partition
##ikan
##auss
acknow
grades
smile
##eps
regionalliga
walks
vienne
capitalism
roberta
706
##baum
fauna
867
drac
667
bolsh
accessible
pathan
##books
benny
gateway
thermodyn
vastra
antibiotics
python
tuberculosis
497
521
dill
tes
zack
##post
##enant
##atz
##ocar
carved
1774
bran
##yss
stripe
##awat
attending
##inde
develops
volunt
mesopotam
honol
citation
958
koz
##aptor
fleming
gauge
constituent
hemings
dreamworks
flooded
granada
escapes
voyager
placing
isolation
recreation
volunteer
dudley
balochistan
344
514
cited
cody
gland
hue
pug
pots
wounds
wigg
##aid
##200
##pox
##itely
arter
exchang
##uco
bram
##obacter
##ports
braves
transpl
transmitted
##itsu
##ophys
##loy
halls
devot
garner
604
758
curved
788
celebrations
telenov
liquids
geneal
utility
specimens
saxophonist
lamborghini
honolulu
3ds
741
843
bree
lump
nay
paz
wagon
herbs
##qui
decimal
1566
drift
##ormal
slash
consent
##901
mcdon
353
astur
364
coastline
macmillan
656
mountainous
breakthrough
somali
bowie
banana
cdu
charleston
planetary
cooling
kerry
ssr
shelley
##birds
demonstration
guerrero
truly
babylon
disbanded
extraordinary
414
drom
lighth
muc
rp
##jack
##bold
##zone
##ædia
##isal
##amous
##emar
una
lea
1748
indeed
overl
highlight
barra
266
irreg
totally
descript
351
moselle
653
782
seminary
562
renov
673
poorly
dissolve
prevented
lavender
transformed
cpu
improvements
lazio
deposits
councillors
sanctuary
yourself
emblem
campeonato
413
429
713
bia
gamma
iro
oval
alicia
##rav
##pha
cola
1746
joao
assists
lateral
loth
balloon
568
574
jonkoping
dreaming
ipad
hellen
lizards
aluminium
reprint
aztec
multiplayer
aggregate
peppers
631
812
927
lc
nr
pens
tide
xii
##ech
##uana
carrie
parach
syph
avengers
flores
criteria
654
766
556
pascal
randolph
mutant
mckin
irregular
523
dive
rivals
sino
##dc
##frey
##mand
aside
shores
##estan
spinal
herod
1560
midway
williamson
maternal
fails
869
967
privy
ashes
predomin
bellmare
editorial
shaft
hobb
nutrition
odyssey
rajasthan
aristotle
012
529
eich
gle
io
kost
mug
##vist
relev
##chet
##opic
uncon
enzyme
##anson
1715
1749
miners
269
physically
troph
burt
smithson
conservatory
bombard
shootings
vault
morton
montev
pipes
mantle
simplified
exclusively
examination
consonant
##grove
sparrow
tattoo
hertfordshire
797
794
827
aro
dens
hats
stitch
shields
##illas
diag
apache
builder
stranger
transmit
seneca
malaria
entity
vez
50th
856
separates
373
burnt
kenyan
671
##guard
safely
mercia
carnival
clayton
serpent
lindsay
443
beds
hick
naut
nachi
rs
##iq
##fun
##prises
##xton
##leigh
1685
goose
##issions
lars
esk
grains
gotten
453
607
959
deadliest
781
nicola
touchdown
mystic
quantity
calculate
corey
deutsch
scattered
propaganda
reysol
fiber
wond
##rics
##etian
##andi
ars
##antly
exha
##ansen
harriet
##itsch
specially
##151
463
liberia
opposing
679
unlock
substant
wheeler
photosynth
hubble
patterson
rituals
jubilo
weiß
hastings
schneider
unfortunately
avispa
##cklenburg
444
594
644
791
714
991
cet
hath
j3
nets
##rise
##pard
stole
afro
carth
minas
lois
deliber
petrov
566
##iyama
medication
snowboard
alfredo
feminine
krakow
grandmaster
forgotten
marxist
fourteenth
prefix
cromwell
513
524
cf
geb
kuro
nil
sina
tz
tiff
##amel
##ombo
##adia
##ugawa
##anges
comprom
eli
subcontinent
bandy
28th
##inders
killers
imam
designing
willy
956
467
557
riverside
tablet
watches
chamberlain
rudolph
bucharest
lecturer
amphibians
lugano
procedures
renewable
hijack
trafficking
793
awa
cels
ebert
nolan
isis
##umed
pey
linn
clare
1040
buk
##ankton
christchurch
goldberg
morales
settings
config
battlefield
copied
884
703
658
662
shrubs
correspondent
nanjing
dynamic
gymnastics
hodg
scooby
sustainable
pilgrimage
katsuura
441
725
gull
nests
wand
zak
zip
##riz
##jud
##pot
##arine
##arius
##isk
hect
orion
prat
##orts
clocks
engel
agr
warwick
willing
##ollah
##aira
stealing
hyl
extend
##170
petit
petrol
881
##beat
bloody
combines
567
wilde
871
474
synonym
pyg
contracts
hansen
definitions
cumber
habsburg
theodor
russo
dolphin
specimen
697
dign
gilles
kow
##ml
##onov
stability
##irang
##raj
unst
##abria
compuls
1773
allig
perf
companions
myspace
##cca
colleg
authent
devast
mosques
857
553
374
ulster
boulev
crystals
##criptions
cryptography
recommend
hedgehog
crescent
##abulary
493
591
593
722
977
cyn
kro
lied
nij
vos
##geme
##may
##onen
##onte
##inge
adobe
ware
##awar
explored
frankie
389
torped
459
primetime
868
469
##daughter
baton
audition
##print
kanji
padd
resistant
drought
immigrant
grossing
ugly
thornton
fragments
byrne
neustadt
491
611
cen
pena
sins
##ratic
##nir
##hov
##inen
alison
chassis
##therland
clip
##ibilities
##ideo
goof
guam
##letter
invas
incorpor
volta
promises
samantha
woodland
859
julien
textile
pueb
staying
synag
padma
pupp
baked
botany
jacobs
thorough
adjacent
infinity
blessed
inquiry
bankruptcy
unhappy
831
824
kud
kins
penc
pants
sars
vander
xiii
##het
andrey
tope
##ulas
clients
1736
1680
gerhard
weird
##azu
sla
loch
everett
organize
cyt
labrador
melt
883
481
473
##backen
custody
nakamura
elimination
stevenson
remainder
consumption
encourage
cecilia
jumper
claudio
increasingly
carriage
##eboard
rwanda
eritrea
karabakh
025
943
924
poul
wester
##cence
##aram
##asco
##elic
strom
##ayana
##oved
unification
##uben
tric
scroll
mecklenburg
engagement
1720
acet
##lectric
basal
grants
##obar
simul
##aldo
##ippers
##liner
louisville
752
egyptians
558
1759
orchestral
abdel
appointment
pyotr
otis
marcello
heavier
lobby
nathaniel
destroys
mosquito
623
bump
cynth
sark
##vine
##mart
##zman
##atism
##elong
##stones
forcing
cheng
arv
exter
1747
disag
nationality
artif
barker
##lli
##ainty
treason
sutherland
developments
graff
episcop
509
restore
nobles
902
racecar
ethel
879
daniels
selen
addresses
neutron
demands
weighed
tickets
leopard
symmetry
niece
tudor
spherical
lust
lys
oasis
sich
ust
##tal
##won
##thor
forget
seym
plato
spiel
sparta
carb
mona
nationals
registry
mai
moose
obey
governmental
##ophone
irina
shortest
##370
veronica
firearms
709
holdings
pottery
methodist
bombay
namely
sculptors
strictly
sankt
innovation
dictatorship
convinced
cannabis
434
gong
pog
##aud
##lights
##nic
##mium
alley
neville
##eburg
clint
##iku
1732
##clair
swab
paler
goodman
parking
richter
billie
moreno
##vester
storyline
gotaland
raped
woodlands
989
planted
graduation
779
commercially
lyndon
pomer
brigadier
sutton
lexington
manganese
presbyterian
rihanna
624
aman
biel
homin
ness
vu
andhra
##unted
sele
##esta
neolithic
conse
##iale
1675
edible
regina
elsa
bare
modes
harass
olympia
builds
labyr
putin
davidson
cephal
informal
454
execut
861
982
nevertheless
552
hawkins
1754
huang
##wright
integration
demonstrations
1830s
skilled
biochemist
emphas
prostitution
anastasia
flexible
convection
nissan
glucose
dab
hm
rin
tc
##iem
##iast
##vant
##itr
##isto
##oding
nex
##ostic
1640
perkins
coch
gerry
##irex
edmond
airb
dividing
hoover
screens
tenure
keynes
952
plantation
rodney
49ers
velvet
gonna
phillies
troubles
chandler
eduard
infrared
homosexuality
##lifter
registration
026
424
cern
ego
zah
##vre
##hyn
##pit
##pel
##puts
##itory
##icity
##ansky
joachim
eddy
##ysburg
guided
apps
departure
sims
transpar
##aev
royals
freely
realizes
latitude
603
vanessa
802
painful
batista
privacy
chairperson
galicia
971
1757
gettysburg
moments
touching
salvation
burgess
poisoning
ingrid
telescopes
jubilee
viscount
upgraded
unexpected
hereditary
aq
aki
buc
jensen
##bot
##fields
##elope
##chool
shine
spices
peac
cannes
brune
reginal
medina
rows
careful
superstar
deborah
erup
activism
devi
melan
programmer
664
danielle
slee
randall
sinks
clinic
ichthy
##arnation
oxidizing
dynamite
peggy
montevideo
bould
hatt
kami
##kus
##emes
##aryn
regency
servers
mets
journals
distinction
convicts
657
969
combustion
medications
magnific
973
commands
difficulties
confirm
concerning
lizard
weighs
kabul
simpler
negotiations
khalifa
bmw
overdose
boulevard
677
691
833
lunch
lyd
##cell
##igraph
dei
spur
fright
exiled
adolph
1728
geo
assyr
terrain
golds
daup
crossover
954
objective
corners
hunts
archaeologist
buffy
unclear
chromosome
injection
lafay
anhalt
crosby
vulnerable
cynthia
823
933
931
dus
iq
nl
##ser
##pri
##aris
##isen
##urd
planc
prok
lean
fein
##aceut
##ansson
##clamation
blanc
blizz
elias
##urnal
gloss
##yna
midland
##psis
politically
occasion
##irol
turku
957
curitiba
464
762
racist
maxi
kinder
goalscor
sweat
reportedly
wyatt
mentor
italics
kensington
dairy
syphilis
lafayette
539
743
eleg
moul
np
tiber
##oes
##kowski
##stick
##ersch
shout
peck
aria
afl
boost
##izo
perception
grams
gew
poit
metac
composing
caste
needle
mrkos
753
551
669
josephine
682
originating
dubbed
ryuk
bunker
hazel
fibers
ponte
stretch
fertility
arrows
phylogen
kaiser
alejandro
092
535
614
834
934
boll
nail
roster
zw
##leine
##irts
chil
##agin
shake
shri
unix
plut
##itya
##abo
pollin
boiling
perp
backs
bandleader
angu
salis
malik
cease
damages
852
981
jericho
007
choices
semen
569
watts
identification
hopes
974
471
1658
exceptions
improving
cinder
photographic
respective
illnesses
butterflies
prelim
jewelry
rovers
acronym
wilmington
smithsonian
923
huss
nude
oj
##atl
chav
##opod
seville
prose
spies
aren
compat
##ibald
norwich
albirex
harlem
raul
avon
avant
handling
759
769
773
regardless
wurzburg
crustace
inaugurated
isotopes
##stroke
affiliated
seymour
726
vapor
zolt
##aul
##bee
##wat
tow
chau
diaries
sci
1710
1717
1725
modest
backwards
27th
rede
treating
##ometer
corpus
revived
505
cope
hostage
macc
754
864
559
486
investigate
illustrations
confederations
lantern
javier
cinematographer
fluoride
maltese
monetary
tajikistan
juvenile
mankind
reginald
bows
lumin
mey
##ск
##olome
##emont
##tera
enthus
1742
1595
amelia
karak
508
macbeth
784
563
564
cellular
drummers
tanaka
elderly
prospect
jumps
mentions
uniforms
bipolar
wanderers
remarkable
resurrection
thuringia
494
corro
cout
cah
fidel
gour
lening
rans
sot
##yin
##yang
##thys
##owitz
chong
##allo
leima
##arde
ariel
tres
palme
bushr
backup
sufficient
baller
609
761
insane
micron
561
1565
dissip
electorate
sioux
arrangements
mistakes
kangaroo
buchanan
guarant
yamagata
613
fencer
lille
##dn
##hou
##oja
##front
##atio
forts
sheldon
conferences
manfred
##achal
adel
1676
els
barrow
baritone
backed
##unga
merry
samar
aziz
santander
masks
privately
685
771
felipe
doris
axe
finishes
pushing
lodge
##build
snooker
hotspur
070
bunch
jing
nm
nank
oph
##frog
##wind
##alach
##aming
reop
examin
carmel
##unders
##leva
guys
endemic
filter
##berty
static
659
789
privile
1656
documented
##backs
hanged
##zzi
neutrons
focusing
occasional
jumbo
psychiatrist
pharmaceut
jasper
drowning
zombie
launches
northumbria
labyrinth
022
b2
dm
fus
fang
jurg
jiang
kc
nero
pint
tyson
yoga
##zens
##ст
##inished
##elas
##urities
chord
##occhio
spice
lethal
##onga
1735
1718
1723
decom
1599
##eco
reliable
madeleine
lix
establishing
snout
papal
akira
bolton
1769
##guer
ethnicity
integral
apostles
gavin
jakob
undertaker
saffron
cipher
triumph
leningrad
532
721
921
bells
coca
mous
pv
riz
tones
vet
viva
##yp
thou
togo
##entric
stems
##agher
##akis
playable
##pted
##qua
pert
##ologically
bela
creators
animators
walton
irrig
helpful
##loid
marking
clever
751
554
puberty
committees
orbiting
##rology
wingers
explosives
sorry
occurring
carnivore
installation
kumamoto
rivalry
kreis
pursuit
chopin
implementation
cinematic
livestock
533
734
894
auction
ditch
jockey
tain
woo
##gins
##orr
##alm
shat
shade
mecca
lao
lawn
buttons
pools
maure
palau
slender
olympian
defines
damasc
caul
curs
boarding
chooses
kohl
reactor
galactic
1655
1764
pinocchio
unders
gorbach
##chenko
##walk
gibral
linguistic
dramas
shifted
antiquity
turkmenistan
apprentice
loosely
829
bd
dorn
##power
##alysis
whip
coma
##rak
##endale
1719
1714
indy
bloss
1536
barrett
irrit
midwest
##rico
681
##erback
furthermore
scripts
embedd
frequencies
gambling
disappoint
pentec
tumor
andersen
councillor
gloucester
reorganisation
overthrow
groningen
joaquin
914
damp
gaining
viz
##hat
##wagen
##arna
alvin
##irk
chill
##iances
prints
1738
1726
hades
minsk
apprec
##iero
belfort
everton
heading
solved
militant
greenhouse
karls
traders
inflation
951
984
collar
663
choosing
483
payne
5000
saddam
touched
##wski
levant
theorist
striking
improvement
ultrav
spawn
guerrilla
mussolini
suriname
grandchildren
eccentric
538
744
cough
fuck
jedi
nast
##lass
##jas
##wo
tos
ono
lai
1632
1648
coinc
amin
trauma
##indy
epstein
realm
506
charted
961
963
964
springsteen
485
strain
zhou
licence
tatar
mansfield
ichihara
tokugawa
helmut
intercourse
poseidon
topeka
895
993
bount
pact
##enau
##atum
##asian
stella
whal
##ulates
##odo
##athlon
clive
mei
norris
acre
##ankar
canadians
rowing
valve
popularly
jewell
nightmare
olm
prototype
hungry
863
983
modeling
873
874
meetei
585
mandal
matthews
mackenzie
analyst
siberian
staffordshire
toilet
dundee
fertile
damascus
011
694
844
944
euth
nk
sj
wires
yash
##ajo
##mant
##irn
##ogens
trend
lact
##quil
monts
##icki
greet
charente
##obic
##sses
simulation
sonata
natasha
grape
khor
urb
sniper
knowles
introduce
eighty
microbi
587
walters
kerr
pollen
bouches
awak
ghanaian
nouns
petty
neighbors
erosion
kolkata
disagree
pharmaceutical
pentecost
728
815
899
cain
ks
kyl
rama
rover
uci
vaux
thesis
##itate
heis
seki
leis
birch
herd
ada
colts
scho
salad
bias
severely
wrestled
507
robbie
juno
##verse
citizendium
979
kimber
bahia
katrina
bags
sickness
demanded
mistaken
considerable
apostolic
repeatedly
malayalam
phosphorus
mongolian
folded
atheists
intervention
oscars
621
811
faw
hild
hoss
tant
##nay
##para
tha
##anza
toh
##thouse
##chev
stake
wasps
forrest
chok
##estr
lech
##assa
1739
1670
augustine
brooke
livingstone
sob
##onshire
desper
famine
busiest
emile
##coe
granddaughter
socialite
##470
henrik
protoc
vanu
764
##roscop
attractive
laurel
baptiste
mimic
fascist
unsuccessfully
fyodor
coconut
913
ping
##cover
##yder
##alist
##urav
spac
manson
clone
1712
1070
dole
livingston
trails
smur
barney
thirds
mermaid
enterprises
entries
melting
808
combining
488
certainly
controversies
nitrate
supervis
jakarta
##ablanca
demolished
murdoch
palermo
salisbury
693
891
haus
yuc
##tics
##haven
##words
##omans
alten
##adena
##antan
abram
apolog
1630
##itters
moths
interfer
accus
##shore
glow
pauline
socialists
equil
953
perseus
potatoes
ibm
gangster
owls
duran
calculus
expanding
yugoslavian
pontiac
hazard
tulsa
qaeda
shonan
condemned
817
896
bony
sb
saus
yen
yere
##oot
##blad
##pen
##enment
##iona
##uran
##race
prisons
simult
##shi
villers
magdal
##brunn
##look
##uckle
verlag
##ijah
bali
##iros
##afi
destinations
853
costumes
narc
murderers
inventions
1762
polymer
transformation
napoleonic
goaltenders
saurop
endorsed
##byshire
893
941
gok
nood
rb
trit
tire
xl
##dh
##lang
##lund
##vd
##fal
##orca
##igious
##cheng
shades
bye
lec
1771
alla
flown
1660
1688
1550
wario
deploy
pooh
##intosh
##onyms
competes
punct
ruff
juniors
letting
confederates
massacres
sulfide
gothenburg
anglia
reeves
hoffman
gdp
annexed
sedimentary
abundant
iau
mersey
sights
##sm
##uis
##kick
##went
alert
##osha
shrop
##oden
cane
boyle
php
1642
decis
grind
recipe
##onson
strips
slopes
godzilla
##109
actively
refuses
##yrus
toro
furious
derbyshire
baja
influenza
774
jesuit
touches
detected
##iggs
resorts
cliffs
peasants
inheritance
slaughter
537
dand
dillon
mound
sien
tips
yakov
##zes
##anese
stack
##ulam
spro
adr
rooney
brag
minh
warrant
##iversity
guiller
append
themed
tyne
##sheim
gloves
fars
##321
504
athena
convict
482
484
##ihad
683
mariah
monarchies
vasco
steelers
toni
nomadic
treasurer
patriot
valentin
refuge
lectures
claudius
inaugural
pursue
excellence
crocodiles
drowned
impeachment
pravec
coventry
ptolemy
enlightenment
shropshire
rij
yaz
zag
##women
##arity
##allgau
##antis
colt
1743
flux
##tex
##ulton
dru
palaces
attitude
subd
29th
interval
irwin
##heads
billi
##eshi
alexis
melanie
torah
penet
glasses
fraction
transformers
knocked
bamberg
##garten
stirling
nielsen
mormon
landslide
ulysses
executives
ultraviolet
819
898
cakes
duel
tuv
tidal
##tel
##mia
##kill
##web
##ilation
beir
##osity
proton
enjo
##abar
newborn
scha
##rops
loir
##heit
greenville
halluc
madras
technological
851
networking
##oshima
dominic
1767
lamar
cordill
beside
cousins
kidnapping
reunited
nineteen
unfair
semifinals
dracula
celsius
embedded
vanuatu
yerevan
eury
hux
lom
lans
taek
xp
thall
anonymous
##lefeld
##amar
alarm
stiff
sepsis
##umar
##site
mayo
blanch
amos
guides
surpr
surpass
rower
intention
vegal
horr
horace
mustafa
macro
multic
783
conservatives
589
082
axel
nichol
corresponding
advantages
methane
responded
chimpan
gloucestershire
cunningham
vegalta
027
994
ao
cbc
kard
kris
mok
pim
pace
u2
##iol
##nor
##ska
##bat
##°c
##inating
##aret
##igue
##omial
chik
chatt
##mere
##akawa
mariana
exceed
claws
compens
1042
1672
amal
foundations
##oughton
liam
crete
quotes
consado
emerson
arche
occult
camille
limbs
torre
macau
sharif
##theim
tablets
ordained
absent
katy
accounting
bearing
dimit
cooler
filling
winslow
sultanate
landscapes
cordillera
consadole
cindy
ket
mj
mister
##pop
##thest
stanton
##add
idi
##acular
energ
##oken
twain
1048
1638
schon
amir
caled
airplay
301
throws
consens
reduces
##bris
henriet
502
washing
resting
finalist
newsletter
translates
489
wwii
captivity
logar
cookie
guardians
elevated
encyclopædia
constellations
gelderland
marquis
hulk
yamaguchi
mauritania
dmitri
posthumously
mesopotamia
iroqu
gibraltar
072
813
bain
##tains
##sf
##jana
##joki
thel
##icist
##oufl
unn
unrel
##estar
plast
canoe
compose
compression
scouts
adoles
1046
1649
1692
1621
guilla
workplace
helene
transf
smallpox
portions
operators
covenant
patton
urine
##umba
##123
confident
503
critically
##after
poster
003
translators
tarant
689
081
##atiya
chapelle
huff
grasslands
faithful
dyke
bohem
hiroshi
decorations
auburn
mitsub
dorset
himalayas
uccle
534
emanuel
eucl
kall
lol
lange
tand
xena
##lat
##geb
##wicks
##ен
##inov
##iae
argy
trim
polk
compare
meals
1716
1045
bloc
1519
coel
monty
saud
regen
weaker
elaine
lawson
slot
harps
eccles
operational
donau
boycott
ghaz
mahab
dunham
promotional
jamestown
reveal
pompe
allegedly
zarago
coyotes
bismarck
nieder
satirical
orioles
asturias
planck
preliminary
beirut
814
##mila
##asim
androm
##leep
##ivism
##ayy
plenty
enorm
##uble
##ateral
##ensky
acclaimed
1540
##uala
recycl
elastic
noir
module
skyl
retain
olympiad
##atorial
pais
farn
superst
antis
##107
hooker
courtney
wilder
909
paso
taxon
rodgers
##utenberg
ratified
gilmore
zhurav
aeros
ladder
dickinson
amendments
hammers
framework
denominations
borrowed
eligible
brunei
816
cv
dahl
hated
kj
##iqu
##icy
##icide
##ilies
##iped
exeter
becker
mez
##obo
##plus
harald
garrison
distur
907
shoe
806
rainy
cycles
686
occupy
1689
feared
cummings
approaches
cruiser
arsenic
withdraw
##iciary
nirvana
reddish
encryption
lausanne
metacritic
mitsubishi
zaragoza
031
536
724
ave
bans
fats
tach
yer
##dar
##lace
##ın
ante
##opatra
##alling
nect
notorious
##ysh
##aleigh
elbow
euros
specified
consolid
31st
seasonal
hyogo
rhy
##102
##125
realize
snyder
##utsu
854
vocabulary
microp
baum
naruto
agreements
deeply
fuels
consistent
autonomy
trinita
senses
chandra
necessarily
claudia
psychiatric
rupert
phenomena
phylum
equatorial
dismissed
cebu
ett
hach
mens
sint
zepp
##oge
##bas
##zia
##enk
tome
##ayat
##iao
##iege
abused
flip
flick
blades
evelyn
loans
camoufl
entities
805
004
savannah
583
shrub
essen
kyushu
1568
investigations
quarterf
austro
exhibit
precious
nichols
keyboardist
ursula
gwen
beech
tyrann
##girl
fowler
surprised
016
531
cid
foul
hire
kass
lengths
mw
maus
samb
##now
##pal
##oplan
prost
##ichord
tristan
meps
aden
1713
1616
bricks
brenda
upps
geologist
discs
##ijuana
handel
judah
eta
failing
primates
panels
gunther
candle
cornish
1756
paths
ancestral
compiled
pioneers
##ulsion
chalk
dalmatia
ipswich
acknowled
gorbachev
cary
dl
ike
rue
sans
##listed
##oum
tosu
##omic
marguer
lineback
clans
clips
##pherson
reson
gertr
genev
castell
tito
malawi
##103
specials
##uela
climates
stadt
061
interviewed
pulp
weightlifter
lifted
weakness
dolly
jessie
ignored
questioned
interactions
reserved
wetlands
pamela
memoirs
dewey
alessandro
bielefeld
caracas
euthan
uppsala
014
gaut
hicks
lenses
uv
ufc
##jav
##buch
##ор
thess
##opia
##ornis
##upo
exo
hasan
##ibar
1612
minus
moirang
barre
##ukawa
magician
greenwood
garland
905
gallagher
catalogue
breakdown
688
687
588
##oulos
1751
quarks
generate
gorge
shaun
hypn
suzanne
habits
cobalt
superheroes
requested
digestive
moody
epidemic
navarre
yevgeny
024
ij
lama
sos
sart
tau
wanna
##dor
##nav
##hes
##jord
##bh
##itative
anand
##reated
##oti
##ithec
roche
disqual
1072
guj
barons
metric
skat
keen
##inkle
justices
goldman
passer
##108
##104
haley
handled
benoit
##afar
macos
803
bullying
distributions
psyched
pasadena
completion
lorenz
strokes
missionaries
siem
oaks
defendant
gustaf
reflected
neurosc
absorb
eruptions
implemented
burials
volkswagen
lighthouse
collegiate
guillaume
042
897
ct
hound
niz
pg
pins
zod
##bol
##bet
##pd
##pow
##yana
##zai
##onies
##etia
hepat
##umo
maroon
##elland
scann
scler
1741
1049
1530
syed
estates
traps
slogan
##riers
##ossa
magistr
varese
##199
##159
montp
##701
petition
hawth
083
laboratories
alec
reigned
nagano
weightlift
lincolnshire
witchcraft
targeted
cortex
reefs
cholera
cumberland
protocols
##wickshire
bose
sver
##lop
##jant
thoibi
##ilon
##chuk
styr
##idis
##agger
##ulating
##odus
norr
##ouss
##unde
##ultural
warned
##ahr
poe
careers
##shot
filmfare
castillo
vijay
occident
##129
troop
explicit
##179
##183
santana
libyan
baxter
crabs
487
naomi
carlisle
##emption
dealer
bubbles
alvarez
emilio
mollusc
tiffany
huxley
a2
aig
eus
lapt
lakers
nakh
rack
##nings
##hoff
##hoven
##pian
##eratops
stain
##opf
orator
##avers
marge
clair
mein
1076
1610
goa
doyle
auguste
amus
guiana
numbering
##heed
malone
##121
##122
romero
sunk
osman
observe
similarities
findings
809
##iscus
corporations
billionaire
zhong
ayat
dalton
pearson
doubled
adviser
patty
bentley
franks
transplant
goofy
cinderella
021
023
818
bai
benton
eck
rss
rott
##dr
thang
##iton
aly
stats
unrest
##asta
##ellers
scro
##erno
paren
warmer
prejud
helmet
##shaw
kitty
soloth
louie
academie
antimony
haunted
##128
##124
##154
burst
burundi
##173
904
##ihan
684
nuclei
4000
scorers
##metics
tololo
domesticated
gambia
recreational
collaborated
cultivated
tackle
savoie
stupid
solothurn
boun
dye
ea
eust
eman
igu
nod
seng
yeast
##vinsky
##will
##zac
toch
stamps
##osse
##acia
##abh
##udo
teens
##angi
scal
1729
1047
minnie
winnie
##ileen
angus
hume
olympique
epoch
actresses
constance
sued
solanum
mora
debates
##105
verbs
luft
908
citrus
galleries
sandstone
thrust
##orax
pitjant
spray
pinto
zhu
dissolves
ernie
nicknames
preparing
vinci
quantities
pulling
granite
emotion
caucus
crushed
pixar
hainaut
deportivo
##iculum
myself
oblig
ejac
siegfried
mcdonnell
bae
dfb
fulton
gom
wage
##link
##got
##jal
##inomiya
##aten
##ouk
##olving
##thel
reiss
reformer
##eters
heel
##owe
##rae
levin
##abor
1724
allerg
##adec
centaur
1619
1690
1628
1520
permitted
mint
##irez
##nev
outcome
ella
formations
##aneously
intens
sonn
australians
##106
believing
cleared
903
dynamo
crimean
frontale
qualities
084
casa
abdomen
kanye
lask
resigns
fluids
concertos
maximilian
shelby
1820s
ribbon
updates
talented
metallica
adoption
boogie
invertebrates
bounty
028
041
091
013
h2
pence
pesh
rca
yon
##houses
##wl
##ер
##aring
##itism
##thitta
stun
##oplast
enab
##iche
fron
##osto
##ikk
##acey
hera
1075
1618
1695
##urya
suborder
breton
##ophage
##retto
governorates
##152
cleopatra
institutes
##iosis
586
kurds
challenger
supplied
circumc
thirteenth
fishermen
merchand
anarchist
plummer
madhya
advertisements
immortal
bolshev
blizzard
nicholson
019
auf
dental
faz
kes
kep
mata
rer
renn
rms
womb
##aute
##croft
##fold
##mens
##aty
##oue
neander
##aci
arid
linden
claw
polls
##iker
engra
1526
gotha
bett
landes
humbold
salary
salts
inca
##otherapy
batters
khar
##177
organizing
caec
009
##uxe
bernstein
disneyland
051
bombed
ramirez
mechanisms
gilgit
pedal
preventing
catching
sylvester
jinja
fungus
allegations
cottage
uterus
bok
kaf
raleigh
seller
##food
##kie
##yi
##anus
##arro
##alon
aneur
##oule
##ouard
heian
socrates
mep
##ernity
gerais
universidad
smirn
##vez
##gram
accum
olympus
avignon
tempo
gravel
##155
washed
harding
##181
judiciary
sounded
rapt
ceramic
tamara
emerald
risks
nagorno
investigated
dvds
threatening
##uyama
sticky
pentagon
gnu
stratford
bismuth
celestial
antigua
hispani
evergreen
spielberg
pitjantjatjara
729
mott
oste
ried
##hey
##making
##ᅡᆼ
##anova
##ischer
##uration
whedon
##igned
##estes
##usted
sheppard
##ikal
herak
1711
allmusic
aguil
1686
novara
recon
albion
supers
subc
loaded
archibald
michele
titus
cypri
verc
##156
##182
athen
disturb
006
semitic
inhib
odi
wikimedia
jointly
hendrix
marathi
merchants
nerves
bromide
spaniel
oliveira
##arthur
ultram
bianca
wavelength
affiliate
recruit
domen
doping
gug
joker
nell
tm
tung
viper
wahl
##pad
##lewood
##usz
##utors
byrd
atoll
prol
leah
##ongs
polling
countdown
norma
engage
1625
footnotes
##uchs
depot
deposed
guern
quinc
##ismo
steady
blackpool
salle
grandparents
donetsk
##203
##198
##176
##162
nightclub
finalists
processed
ivy
stravinsky
injuring
yamamoto
addressed
subdivided
prophecy
rhein
laksh
turbine
dorsal
aesth
aviator
jokes
defencemen
ningthou
semiconduct
trophies
guillermo
thallium
##powder
035
bauer
fanny
gt
hahn
kis
tilt
##nake
##qi
sten
sew
playboy
##leville
coats
schal
schul
saur
meditation
quin
quoted
internaz
skaters
submitted
interference
##ungen
raff
discipl
operative
censorship
##184
samson
mirrors
minorities
welcom
ottomans
dropping
yamato
burger
##urasian
nihon
hutchinson
hydraul
017
arom
cds
fist
fals
gama
jain
yield
##cin
##hm
##olly
alonso
stig
##agra
##anders
##aky
1722
agust
flats
1078
mina
minaj
##actyl
northampton
guill
##ebrate
elijah
skane
##aean
meridian
100th
##207
##126
##158
burlington
##161
##166
##111
administrators
gunpowder
##opsis
renee
princely
policeman
responses
pinned
exploring
gorilla
1603
refugee
encounter
unemployment
unstable
iroquois
marguerite
internazionale
aosta
hary
hib
m1
##botten
##inational
##entina
deux
debris
##agong
seism
##ieur
leuc
##icher
phases
1637
genetically
impressed
instinct
suarez
salon
deluxe
exploded
##188
copp
##rode
certification
mountaineer
avery
cornelius
bangal
audrey
probable
metropolis
pigment
catches
llc
tonga
attendance
rasp
sustained
acceleration
electroly
subprefectures
mauritius
eurasia
neurons
lagoon
kollam
humboldt
076
bike
catt
dop
kuk
mla
pemb
pino
veto
##ße
theological
##esy
##overed
##agara
##iak
comets
conan
enlar
leiden
flank
1678
reck
traces
beloved
quito
obstr
busan
transist
archdi
##ometric
sumatra
default
##hampton
royale
lineage
martini
##153
##186
##165
##irov
##113
torch
##bao
##ariat
kramer
ambros
affecting
pinyin
04°
mp3
umbre
nevis
converts
flavour
anchors
constructors
skeletons
##pcion
supplement
consensus
psychedelic
099
bison
dice
puck
##dog
##base
##zed
##ος
##isuke
##itated
##lea
##ented
##adle
hep
##otive
##optery
conj
phel
decree
buie
smugg
overcome
provider
longtime
##areth
solids
##202
##208
antique
competitor
frey
##127
authorized
##189
badge
territoire
906
papa
eighteenth
payments
audi
reno
ambush
584
danced
071
iconic
shocked
complain
abbottabad
microscope
ezra
assessment
wrapped
nocturnal
brendan
thermodynamics
photosynthesis
723
eel
gai
ginger
nand
vl
wir
##dong
##cas
##cats
##jah
##fires
##wolf
##zk
##ин
##ingh
##amthitta
##omac
##chlor
##imeter
##aghan
comeback
##ulous
lept
marm
##ubb
##endish
nora
joanna
britten
communaute
##annes
##airn
biod
downhill
##205
##206
401
##197
##175
##174
snap
##185
##169
osborne
fishes
ruiz
##untu
warships
broncos
graduates
puff
coldplay
bahad
singaporean
ruben
contribute
chromium
cobra
fontaine
vectors
overturn
concepcion
binding
mushroom
corinthians
machinery
thieves
pathanamthitta
jurgen
033
picks
turing
##iw
##gger
##park
##oring
##oram
##amon
##ayn
##ritis
canals
newest
1646
1542
syrup
campuses
visa
visitor
float
condens
##195
##196
balkan
##171
804
dogg
lucius
garde
ulrich
elevator
complexity
dhabi
calculations
approached
neurolog
grenada
loyalty
antioch
relevant
magnificent
archdiocese
046
dump
hides
pisa
wanda
##bull
##prising
thier
##anim
ingen
##ersion
chey
asleep
unite
##akar
peel
##acao
trams
deciding
1521
perennial
coined
dozens
genn
##obal
palma
munster
batting
grapes
##usha
##194
##167
horst
premium
olaf
considers
sands
fielding
introducing
investors
1652
atlantis
chaplin
1708
protested
sabres
illustrative
mutiny
precision
rudd
jordanian
rabbits
scarlet
vulcan
gentleman
monasteries
kendall
caldwell
enormous
aneurys
bum
dach
duct
riga
rejo
alad
##chu
heil
##umoto
##ichiro
##erney
marching
edouard
crude
impl
jeop
##indi
##192
francaise
tombs
##163
mascul
faction
wilts
bayreuth
005
008
sorts
coul
nasal
073
succeeding
patriotic
##rophic
gotham
glaciers
nurses
##patrick
algebraic
dmitry
vaughan
robbins
zeppelin
boca
bucks
cact
gyeong
henson
kip
lour
pott
sage
##pu
##aline
reind
alias
##emed
chis
chia
##estra
plankton
##sohn
joints
perd
supp
terrier
transm
sumo
##hea
##193
##ijo
##157
##pora
##172
benito
alexei
replaces
psychoan
celebrating
contrad
1683
remixes
ventura
carnivorous
dramatist
kangle
##otypes
essayists
dynamics
beaumont
gazette
mclaren
uncertain
hitchcock
compromise
leisure
039
euc
null
rae
siv
yves
##usions
chloe
whist
sek
sealed
##ulo
##este
platt
neum
##orted
##iks
carver
carinth
1066
##obile
##olla
munch
instagram
steele
sufi
imphal
##209
##308
cambrian
haifa
explodes
##187
##164
denise
projection
cables
069
saxons
tallinn
trumpeter
dealt
##hoe
expressions
heming
sevilla
warmest
tokushima
mixtape
cobb
rodrigo
destructive
descendant
stretched
##group
isotope
emigrated
espana
artifacts
taekw
gertrude
amusement
quincy
075
buster
fia
giles
oils
ries
##sar
##jit
##enay
rebo
triv
##endi
##icting
1727
1721
##quist
dispos
butch
1635
1547
1597
mono
saunders
finest
##etting
##grad
loz
romani
professors
suce
addison
imported
##yler
extending
##204
colorless
unionist
erie
romney
survives
multimedia
##garh
duff
carlton
miriam
therap
seventy
##ranos
cavendish
anatoly
shirts
soda
bergman
##jarvi
sapph
cristina
conventional
proportion
##apuram
rattles
revelation
dordogne
descriptions
047
036
077
ei
eurasian
pern
tigr
uph
waff
##uence
##cad
##jid
##xy
##ilin
##amatsu
stair
hass
seren
serbs
bluff
geisei
munchen
skip
divides
sumer
intra
malaga
taisha
histories
realistic
##178
squash
holders
807
saras
semin
bernardo
062
bordering
1659
1405
generator
1567
dissolution
exhibited
sedan
cortez
announce
aspx
##iability
boomer
prosecutor
meadows
brewster
shogunate
maldives
intersection
shrews
bissau
synagogue
irrigation
wiltshire
037
049
ler
mendo
naur
rath
tender
##buh
##kim
##anium
##atre
##omera
alike
shelf
neon
spends
connie
##uger
##ichte
##ifers
carbo
colombo
1647
1639
1626
1623
evalu
creole
bests
retained
housew
paterson
advances
murcia
snack
judoka
banjo
087
heroin
lovely
generic
otter
omiya
solidarity
lockheed
imagination
counterpart
migrated
consumers
fayette
metallic
federico
armoured
adjective
voluntary
episcopal
boulder
zhuravleva
093
029
aort
sip
sinn
##rada
##edias
##ouch
##amus
##ianus
##ocial
seized
comun
feeds
trends
bresc
goats
baseman
geographer
medley
arturo
##flight
taft
40th
##328
karn
montre
freezing
multinational
wilbur
libre
halfway
brotherhood
transported
cartridge
054
bronch
1752
eliza
mccain
exciting
grasses
ryu
containers
pitched
bridget
##iferous
meteorological
emphasis
scandinavia
devotion
torpedo
015
098
034
bop
bere
siam
vita
yur
##nard
##game
##eau
##cery
##held
##journ
##mother
##kha
##zee
##reich
##owed
chances
##opolis
##utta
##ishing
exams
clues
trash
cara
##ansa
indre
induced
basement
rely
gubern
palazzo
##araja
menu
erd
verdi
##325
##323
equity
##168
garbage
ethical
bulk
rosem
##ydon
diploma
brightest
numerals
recipes
continuously
steinburg
ampl
instructor
gifu
amphibia
##ilisi
yukon
sinking
adriatic
##jevo
congregation
metabolism
sichuan
zodiac
##ophageal
048
043
b1
corm
cfb
mup
mered
oth
tash
##iene
##fax
##wered
##ask
##reck
ito
hears
##avis
frames
##ellen
complement
adler
1645
groove
1535
perug
monsoon
1485
gras
##leased
maintains
biographies
sanam
##zej
massif
antilles
##302
##306
needville
argues
##191
koreans
##322
##355
mcco
athel
tribun
lowell
002
persist
declare
067
mythical
1555
vascular
fears
installment
##street
sensory
kicked
bloggers
brahm
wizards
##hofen
kofu
derivative
incomple
andalusia
inductees
thunderstorms
synchron
andromeda
aguilera
jeopardy
taekwondo
bakh
hott
jy
kosh
tolk
tends
tnt
##hock
##moke
##yas
##inium
##etten
sper
##abs
##ugs
dieter
##very
##002
1644
janata
##weiler
marche
schwart
recru
terence
##ophobia
##bride
solvent
colleagues
berber
advanc
##309
##307
arriving
fireworks
robson
damaging
curious
viewing
practition
accepts
bottles
hayden
shining
svens
virtue
adaptive
syndicated
##lemagne
masturb
psychiatry
resembles
proportional
determination
venomous
aphrod
advertisement
frisian
balkans
guidance
equilibr
reindeer
hemingway
suceava
038
bair
cim
cey
fiat
gutenberg
kuala
mupp
ritch
rishi
sammy
tires
wig
wim
##rays
##vig
##vard
##uw
##mati
##zza
##ᅡᆫ
##oros
##sty
reza
##advant
##iste
##opoulos
ascle
##imus
unve
arbor
tec
abn
sheila
scrap
coloss
thereafter
twisted
1698
periph
warwickshire
preacher
finch
gek
smol
wouldn
subgen
myc
croix
magma
magnes
currents
extr
##305
luiz
reflex
convince
climbed
ghetto
beginnings
##islava
chairs
##otechn
085
068
066
##rosse
contested
hui
sheridan
industrialist
frauen
employers
enslav
megal
sellers
cosmonaut
geometric
cameroonian
styled
biochemistry
unicameral
clifton
comfortable
caliphate
centimeters
##worms
incredible
persecution
galileo
sinai
mendoza
045
feb
fuz
gund
ksh
mbe
oll
pus
ponds
rana
yates
##giving
##arie
##unya
ats
env
prud
##gean
friction
clad
##lander
##anski
1744
lauder
1250
octopus
##aille
weaving
lara
belmont
elle
invaders
archived
brewer
magellan
illusion
titular
mercer
erwin
##329
karel
##evsky
screw
ballroom
tracking
insulin
ceramics
052
064
cubic
messier
billionaires
haydn
hartley
striped
bathroom
zoology
coordinate
coden
ascension
unfinished
horton
pfaff
kernel
prestigious
ammonia
nudity
buckinghamshire
evacuated
prasad
gubernatorial
018
044
bov
caffe
nate
pank
ramb
tern
uae
yuki
##rio
##houn
##witz
##whe
##ик
stellar
##oway
deuter
##aved
##odian
spill
ench
enrico
scary
meade
##class
1615
1622
songwriting
1450
##ysz
esta
universite
traced
communion
suits
operatic
nowhere
volga
extens
richie
##303
urinary
##327
equals
mustard
colonization
##como
055
057
captive
065
foreigners
stepped
taller
1761
1701
rotating
calendars
subscrib
discussions
wonderland
tortured
tetrap
schmadel
theologians
reyes
accuracy
##american
tbilisi
crustaceans
yucatan
tochigi
umbrella
095
kwan
nantes
ruk
tard
uber
wb
##nau
##nius
##heart
##bear
##enthal
##stag
seych
##acus
leaven
##athe
teatro
##ograd
apert
##iken
##007
admission
musket
repos
1516
genital
traum
opium
skins
vald
bravo
profits
corrid
sala
paternal
silly
khuman
handbook
##456
##351
##366
frankenstein
closure
bernhard
reviewed
symbolic
captures
criticised
##colo
promotions
huntington
mandate
kazan
lifes
acquisition
gibbs
##birth
minimal
vaccines
##keeping
rashid
thyroid
mahmud
huston
enrolled
carthage
alligator
bahadur
aladdin
meredith
097
2d
jog
jared
sall
wow
##fol
##willer
##arb
##ivka
##unton
##ulum
##itha
serra
##004
roast
disadvant
1470
grizz
wink
secured
britney
##uctions
surprising
valpara
sportswomen
##alypse
anyway
##304
##406
caes
behave
mosaic
referees
baj
printer
recognizes
086
spreads
categor
oxfordshire
locke
kitts
pavlov
baroness
absolut
sarajevo
aurel
euler
tolerance
reelection
takahashi
mckinley
skateboard
muppets
valparaiso
078
celle
kli
lilly
rie
ump
yum
##anity
##atov
##icion
##rots
reims
##emin
shand
leb
societ
##ifs
boer
##avez
##005
##008
blonde
goeth
safer
albat
geograph
impair
sura
##forms
sket
valenc
##encers
blackburn
midi
##istano
daim
extrat
presenting
angelica
conde
##374
romagna
##114
damon
memes
##bonne
shrimp
taxation
abbot
ramos
abdicated
1709
cosmetics
algiers
celine
celtics
mutation
excited
jenner
buddhists
baking
ronaldo
environmentalists
tatyana
fukui
reflection
behaviors
maintaining
terminus
gladbach
discoverer
rainforests
commodore
##stedt
neighbours
bolivian
nilsson
stabbed
seleuc
hepatitis
haryana
extratropical
bains
eind
leroy
ooh
oax
sake
##nock
##gage
##vili
##combe
##wala
##aluation
ansel
degen
shab
nebul
propr
arun
marijuana
polly
commuter
scare
megan
blown
desmond
willow
imposed
consc
looney
croydon
raids
magenta
composite
##405
civilizations
burbank
##458
equestrian
shoulders
gunter
venetian
088
056
caspian
participant
commanding
mythological
mccall
079
kalam
sinatra
pigeon
vertebra
umberto
alcoholism
rebellions
miyamoto
gastro
consulting
harmonica
##bridg
pyramids
redskins
sassari
iberian
bolivar
hectares
nexus
gewog
biodiversity
aneurysm
aero
mural
vans
vaster
xxx
zer
zed
##tas
##ufer
##eran
##esth
##stage
##staff
##adio
atp
##akin
##odz
envelop
##abilities
##ogly
canvas
##endon
lazy
##aterina
1699
1696
1290
1517
1185
upside
augusto
reconc
greco
bari
myr
##urga
irvine
statute
salman
##404
cambridg
##382
tense
pointing
inscription
darren
mirza
maharaj
automotive
akbar
yellowstone
1753
printers
acceptance
saharan
coco
cadmium
prelude
cortes
brahms
##umberland
conqueror
clergyman
squirrel
bohemian
hispaniola
cambridgeshire
096
094
fiona
hiber
niet
rfc
ure
vh
##vill
##jong
##bred
##puff
##erick
##enland
##amins
stairs
forens
##imat
##osuke
##iaceae
sph
##ellier
##okes
##eyron
##outi
blunt
blanco
grip
nationalists
##attini
opus
arminia
intercept
anno
romanized
vargas
##hev
camping
lineup
##379
##324
##425
karim
##451
##453
##359
##489
##361
##399
##395
lesson
##414
panor
venge
veneto
darm
figur
058
nikita
reigns
diplomacy
bacterium
pushes
lavigne
jaime
fleetwood
woj
parasitic
essentially
complained
fragment
gladys
differs
sacked
blacksmith
cascade
inflammation
zoltowski
quarterfinals
herakles
carbohyd
eindhoven
coss
ged
jae
kicks
oed
pile
zan
£1
##lene
##hole
##esville
##arg
##etus
##otrop
comuni
liner
##003
colder
##adeh
brug
acclaim
regensburg
swamps
##obu
guido
strata
##ancourt
sledge
brains
inverse
epile
romano
downloaded
grands
##meister
##421
##352
##356
##365
##363
criter
##otho
prevents
coasts
sorted
reactive
##married
platy
063
mastering
ramsey
exceptional
##canal
1406
paddy
svet
anatom
squadron
geneticist
comparative
pereira
sponsorship
tasmanian
gaston
vilnius
unpop
yahoo
defenceman
uncert
spokesperson
fierce
clarkson
airbender
goldsmith
mahabhar
muppet
arose
bion
bint
cuck
pesc
tichy
wadi
zd
##idas
atari
##ifiers
##achen
muscular
1643
1697
evolve
securities
legitimate
corre
fargo
##owska
delph
colorful
khmer
jackets
franconian
##foret
##369
##386
replay
meme
ruined
persians
rosie
luciano
089
053
splash
fulk
emerging
dolj
trustees
cooperative
reflects
##kirch
feedback
stefani
woomera
carpent
withdrawn
pilgrims
prohibition
kannada
jaguar
guadalcanal
consecr
lydia
camouflage
bangalore
recruited
bala
dn
fok
hua
maver
rolf
rios
vod
vida
##eers
##cam
##comb
##mie
##alent
##ilov
##ento
ung
artery
linking
frie
exotic
##mani
firms
carla
##006
1515
##isson
charlemagne
guaya
##letic
remade
eastwood
##ynski
esch
millionaire
##2012
royce
humanist
##377
verona
##326
explaining
##354
hardly
ceiling
olsen
browne
furukawa
considering
potomac
luca
coupe
059
dominique
tsuk
flagship
074
alternating
suffix
sensation
hypert
mendel
gwyn
spaceship
batsman
marianne
aegean
warnings
sectors
aleksey
substantial
ryukyu
ballerina
nectar
daph
mere
neder
pension
rory
sided
taz
tutt
zor
##hus
##oin
##ев
##erton
##oride
##icill
toby
reut
stade
stabil
waseda
chiang
chatham
##ignac
##acaf
ares
##antine
diarr
##ubo
excer
clot
##clan
1510
perl
monop
reconna
appalach
surreal
undergo
valerie
transylvania
invading
killings
intr
menstr
##375
##423
madness
tomato
##362
##368
luisa
ceased
pressed
lowered
combinations
##iyan
auditor
facial
concacaf
shotgun
blockade
rhinoc
unlik
innoc
djs
ellipt
##slow
perfectly
breasts
lindsey
portrayal
crowded
dixie
kusnir
kronos
disagreed
baltistan
##glomeration
mourning
transparent
phelps
reconnaissance
kusnirak
bly
fag
jang
jinn
kahn
lumber
mab
nurn
pasha
##hari
##ар
##ич
##arak
##asaurus
##oura
##omir
alta
staged
##iris
##urian
##ocytes
peps
mani
boch
##asser
laut
preschool
1525
1328
finned
distress
overij
##awks
##awesi
showa
metz
##ukov
bandico
stead
##ylene
virgil
##373
##358
##397
##394
suns
##388
southernmost
matte
bluegrass
texture
privat
doctoral
dominion
ashton
messiah
barbie
akron
mccorm
1703
mandatory
sinclair
manufacture
##moor
tonnes
sulawesi
interpol
bergisch
regulate
kidneys
atheist
checks
caucasian
inferior
posthumous
carcin
scandinavian
schumann
grunge
supermarket
tejano
diaspora
wonders
ransom
reopened
oaxaca
bland
fd
gud
jem
nana
ropes
sasha
##lach
##vara
##sim
##orp
##owell
chuk
pele
pry
##oges
trenton
comprises
foley
disrupt
1537
1392
teamed
trait
elabor
mainz
banda
interl
interst
##urgy
donovan
freem
balanced
##429
##428
##353
##364
##393
##389
##bez
conviction
bangla
brandy
wrist
1657
welch
promotes
mccle
quarry
1706
acidic
strengthen
##emiah
wolfe
##asmus
apostle
koln
rhea
hilary
multiplication
rigid
timberlake
nhc
nsw
dharma
maureen
vercelli
bary
kite
nails
##bad
##enia
wasp
##ococ
spit
peab
##ellular
##oreg
caret
carpet
parv
underwent
##plays
transact
##cki
merrill
trout
##427
##426
##424
explode
##457
##385
##461
oxides
garry
coasters
olig
##413
citations
rosal
approve
travelers
bowler
prediction
barbadian
nazism
skinner
pandora
1705
splits
1569
encount
nikki
surroundings
ibar
polyph
graphical
1687
matthias
spectroscop
employer
varying
supernova
quartz
thanksgiving
ciud
prosperity
genealogy
harpsichord
overijssel
aichi
bites
cale
gs
rko
uch
zulu
##tc
##litz
##non
##nick
##uver
##bil
##fors
##erk
stub
deform
shink
spouse
ariege
agglomeration
brest
1549
1539
##undai
##ahua
1180
marched
upaz
chargers
guan
##coon
builders
##402
honore
rhet
##378
##376
snails
##496
##381
readings
wilkinson
##431
kinetic
destroyer
waist
commissioners
neglect
cartoonists
cassidy
exhibits
1682
alphabetical
hurd
linguists
smartphones
yankee
iodide
epidem
enhanced
dromae
siena
disciplines
carinthia
equilibrium
peabody
encounters
bucc
dots
keb
kup
keller
kagawa
lamps
natch
uy
##zie
##iten
##itat
chavez
delet
seah
shed
enact
boattini
##izen
##eys
##009
parap
schro
popp
finite
johansson
##awan
skirt
transcription
everest
textil
farrell
passport
famously
honest
paulista
jacket
verst
##472
##473
buren
##459
##452
##357
##482
##392
hamid
astro
ferm
faul
okayama
violations
timb
introduces
travelcard
##uhrer
galap
##zyg
documentaries
initiated
confluence
sidd
reservation
liszt
comparing
struggles
tapes
portraying
demonstrated
javelin
sopranos
ernesto
gospels
strategies
dionys
evacuation
chittagong
seizures
friesland
fresno
decisive
euthanasia
uncertainty
guayaquil
cgi
gupta
rite
rift
senn
##law
##vier
##eze
##anj
##alven
##algo
##ovas
##imid
conjun
canaan
tragic
1617
bla
blame
blond
1545
permit
1460
northumberland
##alsa
personally
westward
##grin
valer
##etsu
angular
redemption
villiers
raion
discus
biosphere
farr
farthest
hyundai
##507
##407
labs
##372
socially
32nd
successes
veins
##367
##494
##391
cao
plantations
cannons
islamabad
commitment
ringo
splitting
winged
mortimer
duration
zoos
colonialism
mallorca
##uilder
aubin
interpreted
kristen
marginal
kemp
coordinator
corbyn
bratislava
##gorod
template
exploitation
vomiting
rectangular
kilograms
deliberately
merchandise
incomplete
ritchie
albatross
excerpt
unlikely
dian
dolor
dare
eileen
ia
kato
nae
nhs
senna
vold
thurg
##olus
##ilus
##amu
chet
##utch
seap
socio
socks
abig
borneo
##ibles
offshore
##ffen
prequel
estuary
terti
##intra
milo
armored
childbirth
##inox
epist
voic
voicing
##kyl
farpoint
bering
##409
##403
##484
starship
luz
##387
astros
##434
##oyama
babergh
watkins
fairfield
bhatt
##rosis
mandy
memorials
precise
ventforet
databases
archbish
hatred
cocoa
pleist
eisen
supervill
amphibian
delegate
stylized
relegation
admira
crucial
monitoring
schumacher
lumpur
tohoku
tertiary
bau
fitted
gf
mala
nodes
rend
rani
tiles
##nica
##vale
##yz
ino
##icio
toto
forsy
asi
shame
unmarried
ors
##illi
##ellin
exits
##endent
blink
1532
ministr
1498
poppy
amid
albu
governance
ska
submission
locals
transcript
demig
corv
esophageal
debbie
khark
##371
martins
handic
##477
##483
##398
##383
##465
africans
refr
photon
fortuna
liberals
koji
investments
wikid
brighter
molina
palestinians
kathy
cadet
coordination
dwarfs
##fsr
fifteenth
gottfried
rhodesia
humidity
salamanders
prohibited
##querque
ankara
guangzhou
protectorate
scorpion
reversed
lepid
tekken
bickel
jovi
vezina
unnamed
styria
prejudice
cypriot
asclep
unpopular
archbishops
aang
dok
ratch
tess
##nett
##sium
##ии
##atile
##edin
ishi
##stani
reilly
##adas
##ayo
##emouth
asch
##osia
shay
aligned
spat
##acional
boz
carly
blum
brie
bruck
dray
evaluation
strath
prodig
##appen
constable
corr
curriculum
openings
attacker
merge
##509
##503
##504
berries
catast
##408
##479
##474
##486
##499
##492
##396
##384
##468
##464
postp
woodward
browning
##433
##banks
choi
vener
##ievre
lyud
victorious
brightness
djib
suffers
picasso
pupil
switching
hydrocar
bosses
coding
regulated
simplest
disappearance
kotkova
##thrown
daytona
patches
mittelland
choral
impressive
deceased
tiberius
welcomed
raspberry
eucalypt
fiance
vais
wight
##vere
##busters
##mass
##pw
##xia
##inette
##itra
##olta
##eles
peers
encom
##uban
playhouse
boise
megh
herring
flamm
1270
1490
1495
relocated
upgrade
nationally
broom
charm
alban
elk
busch
watertown
solv
hymen
rhymes
##422
mcgu
mclean
##463
##467
technically
macarthur
vanilla
curie
bulb
viewer
straits
branded
##viol
commented
subscription
vegetarian
virtually
occurrence
viceroy
hidalgo
rhythmic
respiration
ardern
aubrey
cayman
aviators
syllable
impressionist
inequ
penalties
##golese
caterpillar
predominantly
molluscs
darmstadt
pleistocene
refriger
c1
dx
dard
fid
feng
ging
nach
ngo
ucla
woll
yvel
zac
##e6
##wu
##orous
##isp
alve
##etah
sey
##ulmonary
##akan
frustr
exodus
trich
##eya
prescription
##activity
calabria
quiz
spaceflight
departmental
glover
ema
villagers
correl
bij
vars
patents
##minton
natalya
exponent
visions
##469
##466
carolyn
libretto
affir
capturing
dominica
marketed
charlton
accessories
##abbat
crimson
hemp
mercen
konrad
answered
fernand
nelly
columnists
salvia
conditioning
symphonies
icons
allegh
rumors
supposedly
barnard
yankovic
sixteenth
hoffmann
sgt
unreleased
reverend
lillian
eureka
confucianism
krasn
mhz
etern
fina
gail
muz
rites
tides
##eav
##hun
##bay
##builder
theo
##arf
toon
##emort
##otine
##ags
##isham
##avar
neoc
##ipak
lined
boiled
##ached
hermes
1731
blas
1272
relate
upright
edison
##ughty
desired
##505
##506
tempt
##471
##475
##487
equipped
equinox
authored
judas
dani
screenplays
jimenez
gardening
burnett
darfur
coupl
cellist
cheetah
bonif
deepest
kirib
sabah
rudy
illegally
shelters
kathryn
anthropologists
msn
muddy
emirate
valentina
barnum
mysteries
evangelist
bulletin
pistons
sikkim
brewery
##oplasm
strawberry
synthesizer
accomplishments
schubert
peanuts
##film
tectonic
kepler
wikidata
aeg
gina
houghton
iff
lula
sly
ting
vogue
xd
zig
##gle
##gos
##kell
##400
##ол
##onal
##alk
pee
ariana
ape
##iked
##ibus
##iburg
parrot
##tech
1627
1666
1546
applying
providers
glarus
sule
staten
##loads
##508
seafood
handheld
##476
##493
##462
cardiop
curtain
##agonal
1653
motorcycl
##richt
rajput
1558
liberalism
apartments
indicating
pulls
prophets
ritter
lacrosse
ingredient
explanations
premiership
alderman
perpetr
tellurium
simultaneously
textiles
abigail
albuquerque
cess
glee
hing
kac
ld
lur
vuel
##how
##hops
##bos
##fre
##fell
##inky
##alaya
isid
##otus
##owl
chie
chords
##utter
##ocy
shiv
univ
##estro
spines
##illation
serena
phar
1636
repet
travers
slate
##enco
couldn
mesozoic
##eshoe
arguing
##454
badminton
##497
judd
scotts
selective
costello
1651
tanya
kamakura
optics
contributing
##walker
vikram
bartlett
reiner
krai
journeys
poisoned
bogota
laguna
moldovan
advocates
francoise
exposition
rehears
submarines
annexation
moisture
burrows
andrzej
proceedings
metaphor
##cephalus
polytechnic
arteries
nanking
sclerosis
montpellier
yvelines
kiribati
cardiopulmonary
dann
ffe
gue
jt
jard
mates
tae
##range
##jer
##atos
##sticks
##ersen
forster
chihu
##ugi
##icht
worry
colbert
##pei
##ensch
1512
1528
1170
schaff
gregg
charities
moreover
outfielder
##cessors
interrupted
##ushan
chicks
##455
##491
35th
mixes
reporters
panth
shipw
treehouse
34th
requiring
barbuda
sawyer
heroic
##whel
##ridges
occupies
pickup
printmaker
napoli
namur
1609
cavity
environmentalist
behavioral
dietrich
igne
sponsors
possessed
1810s
accurately
antibodies
delegation
sociologists
pistols
nasser
dessert
kagoshima
excluded
tromsø
kylie
schalke
ministries
inequality
b0
dina
ee
hinter
joss
lop
laps
mould
ocl
pid
pune
publ
rude
rye
umar
zhao
##von
##electric
##moon
##kom
##yk
##isław
##igu
altered
##aday
##adish
##adze
chico
##agana
compton
##aked
spine
##ipes
##esses
fresco
##ogene
carole
bask
##ucher
albrecht
##ologic
overwhel
johor
terre
barely
obes
aven
##502
academia
realism
##478
##488
##495
sunrise
freeze
infamous
panthe
bananas
celebrates
cooled
ivanov
zoologist
revolver
hyperb
kickbox
bilbao
wicked
resemble
##garden
disciples
boulogne
bieber
defects
peanut
hydraulic
magnesium
goethe
galapagos
lyudmila
ather
dane
gry
kale
kaly
m2
pors
sween
yol
##jiro
##path
stacy
pluck
##acha
scan
caring
mek
drill
edd
edna
calhoun
##insk
redes
avril
##485
##498
robber
believers
tener
38th
execute
panam
hospice
digging
insurg
foxes
miracles
doming
magnets
kidd
ahir
1562
nikola
kalmar
zheng
packages
attorneys
ipc
scriptures
pavilion
ignacio
vitoria
mariners
chronology
##graw
tombelli
stimulus
cinematography
stallone
cultivation
beauv
bharatiya
corsica
apocalypse
lviv
remnants
parachute
schwartz
ciudad
ayr
aaa
cima
hairs
hagen
js
jays
kors
kib
nz
##eous
##hay
##mot
##wulf
##erre
##aney
##inz
##eded
##amt
##omas
ston
##raz
##icha
abby
compress
ads
knot
butcher
presum
1280
novgorod
moncheng
airliner
internacional
skate
##letta
remind
welles
emissions
suf
##inker
##lof
lightweight
##603
##607
##481
coptic
borg
##ladbach
requiem
mahal
microorgan
investor
stephens
cosby
hartman
venezia
catcher
scenic
mozilla
ichinomiya
tango
clermont
antoinette
altogether
browsers
rehabil
peasant
barbera
hiking
monterey
giacomo
farewell
reboot
brescia
seychelles
bandicoot
monchengladbach
bourn
ery
grit
ith
kame
kauf
mest
naka
nany
rpm
wulf
##fest
##ythe
##zs
##천
##itious
##elis
##entes
stav
##ayam
pegas
arj
marquez
dio
##ogram
fees
shepard
lau
1533
##ultz
amour
amman
weights
traction
internationale
##ophus
keane
donnell
superint
northernmost
papyrus
boyer
paints
##iyev
paste
galv
cookies
crying
hygiene
definite
dresses
bernardino
requirement
clockwise
nominees
mysterio
deposit
lesbians
##uccio
1700s
sprinters
yusuf
compatible
guarantee
desperate
noodles
scrooge
pembro
perugia
ceylon
gekko
enslaved
mahabharata
dit
dang
dros
g8
gide
kuh
keeper
rall
tint
tensions
ural
vav
vint
verne
##riv
##names
##arc
alber
heidi
##ighton
bypass
proclamation
cong
##anty
abus
trigg
flush
resin
##ahara
1472
1475
overthrown
##azquez
subcom
braille
philips
##flow
daven
##807
##606
confron
confront
refuse
ballard
macon
translate
cellul
tuna
therese
sudbury
packaging
##worthy
miocene
vacant
spectacular
admirals
joanne
unusually
triangles
csi
mendes
vaudois
advocacy
marxism
chopra
heathrow
trombone
puzzles
dalmatian
ehime
enclosed
gentlemen
coefficient
perceived
unrelated
kangleipak
encompass
tenerife
bp
buss
daly
fence
kast
lh
nf
piers
sine
soto
tull
##lana
##nov
##sberg
##olev
thun
##alin
##rou
stard
##imura
shun
##rack
spite
1733
alloy
1216
novak
1499
maast
moines
rowan
radcliffe
astrolog
nonstop
discovering
##444
violation
##cao
psycho
bowen
escal
forestry
picking
sweep
signifies
bedroom
miser
soloist
illustration
yaman
anatol
calculation
##kovic
triangular
miniature
ardennes
parasite
aspir
cristobal
cheval
holloway
dansband
alessand
leaked
knoxville
saarland
parsons
wartime
extermin
graffiti
hussain
bowser
reruns
rosemary
extrater
transactions
davenport
cove
gass
gaw
jaff
kits
lg
litt
mow
nib
uri
wn
zoro
zeta
##rush
##jam
##ᅵᆫ
##anilla
##aras
##ischen
##leod
##enti
##statt
##ulse
spurs
pept
diz
knut
1016
1265
drone
##econom
1135
1370
greta
wills
willard
##azon
quote
starter
humming
italiana
revision
delg
capitalist
url
##609
##605
##602
promo
cirsium
astrid
nonpro
##999
derives
##adores
ambrose
rogue
selfish
1553
litter
mutations
rossi
bounded
toyama
vitamins
migrate
lanar
marrying
ardija
grenade
pursued
##childnames
dysfun
unicode
melodies
antibiotic
reinforced
bocc
embryo
ecosystems
cigarettes
bulldogs
pompey
marsupials
subscribers
igneous
aeth
eil
ether
fade
fife
gory
hates
jens
ode
zem
zub
##try
##pack
##atia
##alov
itanium
##idia
##idium
##opo
asex
##aggio
uninh
ory
ari
##essy
usc
afterlife
hadith
grin
doha
amrit
cradle
teammate
##ophiles
runaway
saldiv
intensive
##803
##608
astra
hostile
hostages
torino
##313
lesotho
nicki
baud
##viewed
cantonese
hanja
hayward
1605
mortar
##ogenic
chancellors
hirsch
rahul
hamburger
dustin
cockato
hutton
verbal
mentally
casualty
phonetic
tavern
unreviewed
##accio
tlc
tucson
dengue
uncommon
guernsey
boomerang
extensively
buccane
verstappen
voldemort
saldivar
bung
boud
bingham
eject
fuchs
nade
pich
tis
wain
##cito
##was
##orch
##olod
token
##irds
##oped
##berries
##andar
sei
##arten
spont
##oglu
##upa
##quim
parano
agra
1634
1190
schuster
televised
capita
spacex
valery
rockford
emmer
arches
villar
romana
addams
passive
marker
##802
cathy
haem
jude
prompt
##othe
nonviol
##baugh
institutional
babe
ulm
originates
moonlight
tamar
ordin
freedoms
blocking
polygon
1556
surveyor
lynne
definitely
dickens
repeating
pelican
thicker
lombard
miyagi
carrion
abandon
pamph
ubuntu
aggression
erected
nottinghamshire
mahmoud
convenience
seizure
filippini
dignity
harassment
enjoys
logarithm
cheyenne
bale
ease
gau
lash
nw
sana
##vall
##jm
##fan
##inius
##aray
##oug
##overs
hee
chased
dehyd
sein
byte
ork
spess
trier
boar
##izi
##ideae
knives
maynard
1694
octave
grub
reluct
##amesh
medusa
maize
##etty
surve
##llan
modena
bravery
##cke
aveyron
##anished
topology
vols
mcgraw
trades
informed
ferre
lowland
watford
##akhand
lori
yeh
fredrik
litoria
attracts
defining
jumped
##warts
gersh
##aphyl
watershed
rhythms
paired
##clusive
gyor
mckenzie
hobby
euph
stretching
exports
innovative
mummy
razor
zombies
rousse
nueva
archduke
transmitter
dauphin
nauru
peripheral
caffeine
lanarkshire
4x
aura
bays
eels
fide
jasm
kans
lm
lana
lrt
pelle
qi
sse
tf
wey
xu
zyg
##tok
##gara
##hito
##farl
##wash
##pas
##ان
##edal
alas
##otan
behead
asym
##imental
##avo
##endar
##eye
meuse
joze
1225
##pert
1480
implies
subord
walden
extras
##604
zeit
##onauts
benf
petra
detention
collectively
##working
photons
distract
##331
##334
##unting
collide
##agonists
naughty
##uhan
odisha
galician
ashik
orchid
barbar
akita
1702
##zhen
sadie
saddle
hornets
coolest
ferns
c2e0
baptized
ravi
revolutions
blogger
##gregor
##stitutional
sparks
fascism
consequence
flamengo
desserts
suspects
##horse
persuaded
manchu
cullen
avoiding
linebacker
sketches
vengeance
caretaker
maastricht
##farlane
c2e0ff
bf
banco
cue
cair
hens
jap
tug
vign
wiley
zhe
##bill
##four
##olles
reinc
##cea
##imited
shal
##rax
##isho
marjor
frs
##ellum
mania
manny
paran
flug
1629
1240
1296
##tsch
amher
swear
buena
weis
weil
impr
starch
harb
wally
villars
discrete
extensions
##hammer
storyt
trol
jewels
hohen
osbourne
punt
infancy
##gaard
##autus
inscriptions
bernad
leonese
reactors
grammat
promoter
lyons
removes
mandel
surrounds
##ranes
hollyhock
dispatch
licenses
herschel
salvatore
salesman
mackay
guerra
macedon
entrants
decorative
anarchism
brasil
taxonomic
feudal
terrace
aztecs
fluorine
hesper
syllables
configuration
##igraphy
corridor
absolutely
vertebrae
hypertension
chihuahua
obesity
aix
gems
kitz
vt
vard
wemb
zab
##tl
##uire
##hir
##juk
thres
##rova
##lein
##omers
rector
##opithec
##uld
##ithe
oristano
spores
playback
##orean
abyss
trillion
##phen
##aching
##endron
roo
roque
aging
centr
1266
1478
evapor
##oble
weed
subm
##ulli
##apple
portfol
##ophile
##ometry
kea
holm
merely
morse
grac
condorc
burgh
monta
snail
stationed
##giant
poetic
microw
cornufer
globally
antonia
housed
##holders
##iatus
emergencies
margarita
tobias
1661
gypsy
enforce
fibres
miyazaki
anchorage
##iciency
alvaro
confession
reprise
nuevo
yvonne
##mandu
ceasefire
smirnova
oohira
monopoly
benfica
condorcet
fonda
hana
jed
mard
pals
render
subl
tatsu
upt
##buster
##yama
##ır
##oral
##robe
##leaf
##olm
##elman
##stat
##ayi
shag
spanning
##illance
##antz
worcestershire
abkh
1734
1215
1198
grange
marches
1378
depress
mauna
highlights
##amax
barrels
slipper
##atsuki
##encio
afrika
comedienne
salty
##mei
##806
seeks
judo
refin
fallout
woodpe
wilkes
fortified
commandments
kelley
phoebe
controllers
polyg
oakley
coolidge
friedman
nyon
nominal
illegitimate
sahib
sulz
igles
flavors
mariner
storing
gyps
hobart
weddings
dusty
##govern
forgiveness
gemini
assumption
multiply
blessing
plaque
##obacteria
barracks
whalers
caledonia
mausole
rsssf
tolkien
advancement
lauderdale
asclepias
sweeney
amherst
bs
gaku
jai
jihad
lola
oven
rn
sia
wakes
xona
zwe
##aar
##vol
##parts
##ᅩᆼ
thi
##anos
##esque
toast
##iliation
##irl
heck
unfor
spare
lez
##athlete
frig
abdom
webbed
##izia
musa
indigo
1276
1548
1594
1476
overhead
##azawa
pooja
submit
divis
steals
voor
london2012
addicted
markings
natalia
##808
freak
##linary
karma
railroads
naturalised
melvin
preview
woodstock
garlic
executions
##333
faisal
springer
korf
##zoa
managerial
rainer
pacif
mahler
odin
messaging
1408
embarr
fatima
unlimited
##brough
switches
herbivores
cambodian
matsumoto
paradig
exercises
glacial
##itarianism
pharmacy
blowing
phosphate
vigil
outdoors
polynesia
disagreement
fetus
leverkus
crayola
unconstitutional
dissipated
magistrate
hepburn
surveillance
abkhaz
70s
db
ekar
fn
nid
nave
pinn
sash
vc
yats
##vation
##fox
##ᅧᆼ
thalia
thee
##edio
##icates
alchem
##ovis
##oton
chasing
##acoph
leib
prc
mara
##ogg
cans
foil
roz
1035
1077
1220
1226
1199
1125
contamin
1390
sails
outlets
belts
elmer
assume
transc
invitation
glaz
sonia
billed
debian
##809
##805
talents
trous
circa
36th
frankish
separating
drey
odor
##prints
theropod
slowed
marshes
kamal
hershey
sulph
migraine
kathmandu
lanes
chandr
weighing
kazakhstani
tendency
sponge
vampires
tyrone
reptile
gustavo
hil3
werder
heterosexual
checked
##ierrez
pronouns
bantu
amnesty
erupted
##mantle
domenico
tribunal
aphrodite
##otechnology
dolores
djibouti
oclc
superintendent
cil
cfa
dangers
fencers
jat
pw
siss
wages
yomi
##lus
##nec
##он
##anid
##anks
anus
##icom
##icides
##amis
##eler
algar
fores
##unov
##unks
shankar
unse
atten
indoch
16v
1673
repairs
##undra
monoxide
1126
1375
assim
##rij
steg
##elsen
trey
##flin
sumner
solst
malware
malmo
publicity
##ipps
bertha
erm
catarina
501
robbed
satire
paperback
drav
requests
steppe
documentation
otomo
ansbach
ellie
ryo
levine
calculator
##organic
honoured
photojourn
chatter
uttarakhand
montene
beaufort
bracket
dormouse
docklands
tacoma
soyuz
encountered
disguise
supermarkets
bambi
tesla
micronesia
peshawar
masculine
iffhs
uninhabited
korfball
leverkusen
fx
gauss
hald
meng
##01
##qing
thebes
##isans
##illet
##step
##cted
##etano
##owicz
asper
##iese
orson
##acs
arjun
tee
##ogues
clover
##ibur
footh
phob
flair
1012
blanche
1230
1591
regained
amen
##tened
palo
underwood
##plan
valence
valois
retreated
glove
gladi
takeshi
##ricks
anticip
##804
realms
handles
restart
replied
middleton
prefectural
nicky
bully
darius
##market
predictions
routine
laying
1506
1552
instrumentation
frederik
suffrage
precurs
tripoli
baths
niagara
subtract
meteorology
riviere
vivian
summerslam
##ebook
##missions
gcmg
intervals
fugitive
herrera
residences
avoided
receptors
telenovela
reprinted
accusations
rhyme
ultraman
ashikaga
gma
kia
m3
pess
psy
pests
samm
uma
##rone
##nom
##city
##kvist
##zky
##arno
##oting
##opal
seag
##sef
##ogi
mango
meur
collo
1096
1633
1677
1679
1336
1326
intro
biella
powerpuff
password
historia
bodybuilder
##position
pakhang
copd
voter
fisheries
pressing
##314
##atoire
ghar
33rd
islamist
brandt
casablanca
cabbage
practicing
42nd
kyo
culturally
responsibilities
packed
gangs
axes
1453
liquor
##walt
pokal
crowley
detection
acquitted
hydroelectric
katharine
cereal
pipeline
terminator
stefano
narrowly
correspondence
verbano
examined
shivaji
gutierrez
ossola
alsace
gimn
himalayan
jellyfish
tastes
blossom
compensation
hottest
leavenworth
spectroscopy
voiceless
triggered
spessart
coke
eocene
kali
morrow
yew
##tori
##rens
##dl
##gence
##jang
##kr
##ᅥᆼ
##itos
##ingual
##ovia
##imm
seated
shipped
shabbat
##arton
righteous
##illan
##iek
tramp
apulia
knees
butte
1015
1611
decid
coffin
1130
1118
##ireann
##uche
schemes
1368
broye
guzman
strangers
starvation
oppose
backl
brace
philologist
remin
annot
magna
corp
midwestern
takashi
kei
merida
davy
moran
markus
cyril
honig
karach
montal
cantor
##tax
701
testicles
climber
drains
insight
##iffs
principe
navajo
eyew
bullfrog
1704
generating
reasonable
safari
pediat
shiny
brunn
##anteed
approaching
ogden
awake
grossed
ferrer
faye
guaranteed
andersson
quintanilla
admired
prostitutes
dormant
phyllis
hathaway
invasive
##building
punctuation
shrewsbury
unveiled
varsity
embarrass
nis
pats
sond
yin
##das
##waffe
##lew
##amir
##omori
whistle
spans
spelt
marley
truss
##ryl
roan
blows
bres
branco
decent
1295
1538
1192
1430
1332
1325
sauber
preference
guil
##ierz
capp
palms
moe
##anned
##shahi
systematic
archiv
##written
economies
zeph
luzon
horatio
45th
transliter
sirius
captains
heroine
1505
1564
unitary
sundays
fixing
spectators
faculties
horseshoe
thickness
suspicious
cosmology
mazur
reichstag
piazza
staple
skept
weasel
remembers
micropro
genevieve
occidental
propriet
daphne
80s
jad
nino
vance
##bling
stero
chas
##aglia
##acies
pritz
##ebol
bohr
mezzo
1030
1691
1260
1238
1572
1165
1440
##weg
saito
doi
madeira
overland
##enny
landau
georgy
irc
comedies
corona
midd
membranes
campos
economically
haar
francais
hardin
sidekick
alexey
prometh
postage
accordance
breakup
timing
gardiner
cabr
routledge
automated
reasoning
##ships
symptom
mongols
imaging
attachment
challenging
struggled
rejects
sibling
sudanese
brasile
sikhs
tramway
denomination
aguilar
apocalypt
australopithec
ljubl
ethanol
touchdowns
paddington
puppets
pencil
billiards
luftwaffe
mccoy
microorganisms
mausoleum
dwell
faint
hays
kiel
nutt
sama
vive
weld
##uine
##cem
##jad
##oos
##ра
##enka
##itel
##reb
##ionage
##aller
proxim
##iez
conform
##ipation
prisc
arne
##ichael
comprising
commut
sciss
##ibes
##izable
1285
##perms
resolved
1320
1330
1399
northam
stripped
airstr
assad
moy
slater
thrower
stew
waldo
blackwell
anybody
incarnation
classroom
hyun
sanctions
louvre
##alajara
expo
stiller
louisa
verac
montes
mcpherson
zeeland
etrus
mathew
masked
wallis
penelope
stanisl
conservatism
eaton
hawke
facil
facade
fairbanks
escort
rolled
johanna
kaj
bagmati
knighted
srin
dressing
rushed
heavenly
hiragana
maze
minecraft
escaping
sigmund
nemo
decreases
chestnut
chefs
salamander
cinematographers
guadalajara
##straße
##anguard
ilya
##felden
andrade
cusio
firefighters
highlighted
assyrian
gaius
aortic
appalachian
bk
caz
eintra
mls
tula
xuan
##tus
##ride
##onite
##ascript
##ilio
##omys
##chichte
stained
onion
##idze
##agle
seating
##aina
marrow
##ritical
truj
##quette
twitch
disob
decker
1249
peron
crumb
##obyl
geisha
capcom
##ietta
endeav
longitude
skies
interrog
jeong
internationals
##inoff
holby
patel
##lois
donat
erika
verified
karam
copeland
robust
woodrow
gunman
gunnar
junta
separatist
1503
1204
finnmark
##sexual
gregor
vasili
conquist
cassini
labeled
sorcer
gravey
pelop
ribe
prominence
javascript
recreated
rancho
paraguayan
announcing
a320
bedfordshire
senegalese
quotation
herzog
manifesto
diagrams
linnaeus
agripp
surpassed
kardash
plastics
cuckoo
nonprofit
pritzker
eintracht
apt
fancy
fatty
mapping
nairo
vain
##name
##faces
##mak
##zu
##orak
inmates
anac
##omal
stab
stocks
atch
sheen
compost
alloys
lively
thereby
##iob
1292
##ecrow
co2
1466
conti
contests
##ucho
1360
1337
regiments
swelling
poz
airfield
loads
jeann
##enga
##rones
##boa
epith
defences
godfrey
courthouse
volvo
mesh
loser
murad
termed
hooks
masc
sharia
##udeau
candles
closes
sarg
sarc
textbook
##ropolis
tuning
kimono
wikis
spokane
affection
cinnam
##nelly
51°
hanks
grayish
remixed
concentr
scarecrow
punishments
toxins
##rophe
reyk
seaside
stampede
##runner
polynomial
verdict
maneuver
skelet
wavelengths
simeis
eukaryotes
corros
kimberly
sausage
narciss
hammersmith
carbohydrates
gideon
solstice
diac
node
pico
pills
xiz
yester
zanz
##rama
##vil
##kur
##wati
##eln
##elan
##elos
##imos
shack
orte
pri
mariano
marlon
##ubers
excommun
noting
parc
blend
1522
1496
evgen
1380
swat
pala
stargate
surah
barcl
barred
interrupt
raises
pao
suited
sanford
continuation
burd
karan
##907
museo
middleweight
georgi
gunshot
jeremiah
savanna
chechen
##burne
tsub
cutter
##knot
alternatively
slavs
katz
sherwood
conceptual
hangs
oblasts
wagr
zoological
carnivores
##friends
ricci
grenad
enforced
hacker
roofs
ocasio
humorous
pixel
excluding
ortiz
inclination
mcgill
indirectly
surgeons
bukit
mimicry
complaints
traumatic
forensic
diarrhea
upazila
vuelta
chieft
marjorie
portfolio
etruscan
90s
cate
caine
dull
fum
hench
iee
lute
vanguard
wigan
zay
##ruck
##fact
##mies
##yev
##yamba
##orhyn
##lehem
##ilians
##irth
whl
##ested
plc
##illard
##ainen
newcom
newbery
afi
abort
trivia
##iffer
herault
##ictive
musee
knicks
##enskan
1010
briggs
1445
##week
1316
depressed
craters
outfit
palisa
##annis
metcal
slade
##ontas
summon
currencies
delight
argus
entre
entom
azores
climbers
climax
walloon
##woods
junk
##iscard
eaters
domes
cabaret
kongyamba
acceptable
1561
##hoek
analys
contributor
dispers
espionage
baptism
##e0e6
kiwi
bromine
bethlehem
guatemalan
quadrup
orebro
slovakian
solely
##hopper
permian
sokol
xinjiang
slipknot
falkland
fermentation
pygmy
pueblo
parenth
semiconductor
panthoibi
b0e0e6
alessandria
extraterrestrial
cured
ew
fielder
mx
sakh
taw
uday
##lau
##good
##bah
##fle
##enham
##roth
andaman
##igon
toed
##emus
hebe
##unas
beams
cheryl
deacon
withers
spells
cones
lease
##orte
exoplan
##acken
cared
adver
afterward
acanth
grocery
1449
1385
ames
electors
guantan
poisons
maas
numeral
yorker
meta
interling
glendale
crows
irons
holvor
thiruv
louder
patr
donations
silesian
matching
freiburg
workshops
youngstown
trois
montedio
trader
promising
ruhr
##uhle
cartridges
dining
escobar
syntax
tuned
shooters
##paa
1402
kelvin
accepting
packs
mattel
investigating
ayers
kerou
strengthening
umayy
dirk
kisses
dodd
smartphone
dystop
tortoise
hannover
conversations
psv
nuoro
supervision
##ilingual
nursery
confessions
vedic
evanston
snoop
instantly
bharat
brutal
##svenskan
satisfied
screaming
nomencl
astrophysics
lucha
giselle
rufus
cagli
brennan
peacock
karakoram
jozef
ljubljana
nairobi
holvorcem
ait
eid
gps
hv
hord
miley
ragn
xian
##tun
##gles
##cony
##oya
##bam
##mount
##yat
##arre
##oupe
##elids
chab
##ulator
##ifolia
##ibor
herds
livorno
pha
##tee
##enshire
1693
##lesford
1398
wines
statehood
##ysema
depths
buys
weir
superson
moors
endless
baran
underwear
steering
##boats
defenses
rhod
streak
##906
mcgr
israelites
similarity
prevail
caud
lowlands
panzer
assembled
availability
aquino
vaj
vaish
clearing
quarterly
elek
##breaker
ryder
transitional
ventric
favorable
##enoord
barrymore
paleolithic
comparable
mateo
gymnas
loaned
motorsports
skulls
instrumentalist
crusaders
pillar
displac
swansea
emphysema
quarterbacks
tropics
vittorio
pocah
incorrectly
fiorentina
myeloma
unwanted
remembrance
goalscorers
palmeiras
abnormal
wembley
a4
aachen
baut
eber
hk
hov
kau
lakh
nub
tars
tammy
yous
##aq
##aedia
##uks
##zb
##zko
##eret
##arist
##alone
##leon
##elm
##chl
chh
##opath
##oscop
orr
##avid
##illand
##udy
##verde
actin
##endicular
##0000
##tea
1095
1671
1246
1275
1486
relates
schn
regier
soils
geophys
##eport
##ussen
endoc
armand
hari
valued
landforms
millimet
##erta
archery
solitary
signatures
advised
specialty
quezon
karol
##909
##903
##904
restless
arachn
melville
masah
macqu
rounding
crossroads
ferenc
cartil
librarian
identities
antonov
arthropods
stepan
corporal
fundra
embra
franchises
##iotto
searches
horned
1606
youtubers
hangul
cleaner
achieving
rouen
gustave
cruze
kaye
kreuz
adolfo
ninety
bloomberg
displaced
rochelle
tentacles
sachs
fujiwara
sympath
fahren
selenium
acknowledged
elliptical
elaborate
interstellar
buccaneers
dreyf
trujillo
pocahontas
bival
boles
cud
gins
ipa
lore
lulu
monde
nol
nune
pae
rd
sog
##gett
##mc
##with
##yre
##oru
##icourt
##stetten
recess
chl
chiy
##osato
spoon
##acca
enlisted
##ipar
##ritt
##aston
##ellation
apr
1219
1527
1513
monophy
1137
televisa
ame
helper
larsen
##oodoo
barg
rowland
recorder
listened
legit
##elsdorf
##ophytes
paige
richer
martian
verm
##908
mcbride
sounding
azure
testimony
okay
curator
observing
bridgeport
identifies
akadem
dunes
sadness
christophe
sherlock
optional
crews
fulham
sardar
vulgar
mukher
britannia
seventeenth
1600s
satisfaction
australasia
zachary
aristocrat
spokesman
affordable
seamount
accommodation
sacrifices
wolverhampton
hellenistic
enabled
sewage
coppola
rhinoceros
kharkiv
postponed
zanzibar
gymnasium
e3
hj
jena
muzz
nause
pn
p2
padu
tumb
##gill
##kah
thong
##enheimer
inuit
##elih
reis
seaw
orang
congr
##abella
clones
abuses
##enden
knob
##balls
disse
whoever
brum
1210
1228
1593
1128
1447
doh
##tsky
regis
##ancies
howell
##ollen
himachal
##riya
remakes
animations
emu
##ophila
cori
merging
popularized
cypress
##ushka
burden
mcne
putnam
devonian
astor
lottery
convoy
stronghold
wallach
##comput
berne
bello
piercing
stephan
1502
teller
investigators
hanson
thinner
bradshaw
puppy
violinists
paramil
trieste
rabbis
1483
hendrik
sicilian
nestor
expeditions
calcutta
fujita
wendell
proposals
bjork
##proof
stereo
vibration
grosso
oshima
jaguars
nawab
obstacles
inserted
nautical
##thorpe
supervisor
thelma
thessalon
hawthorne
innocence
mcclellan
apocalyptic
reykjav
guantanamo
dt
df
fij
gaur
kgb
lough
mies
mub
penda
qb
sill
t20
voodoo
zy
##note
##fen
##kner
##yuan
##ᅮᆫ
thak
##orth
##asar
##elow
##chief
##oten
chub
atal
##odle
neel
##aper
conject
congolese
trance
firth
1665
1248
1218
grat
##neg
1338
swind
##awk
impulse
moff
undercover
##wayne
harrow
invades
waterford
mening
morality
superc
debts
khat
fremont
oskar
sexy
samoan
deton
collects
balloons
mustaine
46th
observers
37th
fortun
liberated
hoping
kenji
contrary
akk
kimura
appliances
1455
##uffle
ivanovich
chaudh
metroid
concentrate
remembering
luxembour
hurts
integrity
brigades
cosmos
struggling
limitations
bicameral
isabelle
patti
1790s
pillars
meadow
precedent
disliked
intestine
jewellery
heisenberg
ureth
conjunction
jasmine
abdominal
kerouac
##elihood
reykjavik
bals
fies
hn
lili
mace
nett
oder
rast
silt
tuck
##nier
##cini
##finger
##yam
##onium
##icos
##icius
##ream
##olit
##ilan
##chond
sewing
conm
##ebb
abba
abrams
trudeau
polka
scala
2027
twe
bliss
1242
1235
1312
charley
chariot
opel
milestone
##arev
slo
##sheet
salah
townsend
posse
franca
hoax
freeway
cleans
infants
waller
boyz
curves
homicide
planting
narro
rosenberg
pasteur
medicinal
recognise
##office
dominance
1654
piero
lyub
loretta
carboniferous
bushes
tagore
spiny
lifts
miya
1684
grassland
laval
bucket
bourne
coronary
continuity
chernobyl
sapiens
##pieces
duchesses
wicket
turbines
repaired
bikini
pharaohs
yogi
bartholome
fulfill
perpendicular
merseyside
transfers
##gotland
nebulae
criterion
frieza
galveston
grammatical
priscilla
ieee
batch
drome
hiatus
jia
kett
rund
tata
tesi
uj
uf
##nets
##gam
##gars
##itating
##reter
##elines
wass
##iron
bele
shig
shuk
shaman
clav
##assi
##assen
induction
parental
souza
1018
1534
grimes
##ughts
amit
chartered
estelle
overtime
creativity
endow
barium
invinc
raoul
##ometers
keaton
##bru
headache
malibu
campania
##queen
settling
troubl
##902
hardest
motown
nighting
informally
pasta
jimi
identifying
bowls
##oises
aqua
functioning
1557
vasil
lifelong
catchment
ridges
trusted
virtues
handsome
tripura
zoolog
oggy
taboo
terminals
fibre
choirs
ripley
phyla
hermione
rented
esteem
obviously
zionist
grigori
lagerkvist
tanner
squirrels
reelected
mitochond
huey
telenovelas
laptop
agustin
rehabilitation
roanoke
1x
auch
banc
dov
kling
nant
nuns
ohl
rf
tally
ying
zad
zucker
##bart
##yards
inac
inert
##lek
##thi
reel
alman
##ovy
deemed
asb
secession
atkins
##esson
fools
rohan
##ensk
1099
1298
coimb
##ahar
1195
1435
1465
upload
1310
1396
guidel
##azy
pointe
##ancon
asset
2500
25px
schooling
sloan
##coin
intact
faroe
courty
merlin
coloring
debussy
latina
takeover
soundgarden
denial
osage
mato
matric
posters
accordion
almond
jerzy
pianos
05°
wrath
eyre
gianni
39th
1509
alfa
##icksburg
coward
normans
buckley
hydrochlor
sophistic
scarborough
1667
lenny
potentially
carpath
stretches
dumont
heirs
anarchy
harmonic
ankle
guangdong
jpg
oyster
carcass
dartmouth
dislike
orphanage
cheek
shorth
bulldog
polymers
catalyst
vipers
rpg
vauxhall
hallucinations
circumcision
enlarged
rattlesnake
geographically
thurgau
allegheny
nomenclature
a5
eireann
fits
fitting
jian
kund
ketch
llan
mers
rok
vfl
x86
yek
yacht
##tan
##nation
##hag
thum
inorganic
##iska
reass
##etism
##usch
chuv
##opathy
shet
##ignano
##oung
plo
oranges
##odar
dioc
trif
##ifix
##phs
compressed
scors
##anshi
##toons
1580
1541
perch
janice
coen
1160
1166
1437
schultz
1319
appet
attitudes
showcase
##veen
glue
christi
annette
saline
dax
attackers
##veda
rhon
tottori
ballon
clem
prima
peterborough
tracked
curios
objectives
qualifier
mayoral
backgrounds
fairfax
achilles
cutt
##zyk
suicidal
expressway
embolism
illustrators
laden
arnhem
##enhausen
jarvis
bourge
nitro
hurting
ugandan
cockpit
fibrosis
smokey
hammerhead
thorne
margot
cheney
nadia
wakefield
marquess
calderon
symmetric
crucifix
hymns
abolitionist
motivated
chitral
blazers
positively
crystalline
exchanges
compulsory
poitiers
conscience
fahrenheit
guidelines
dary
dung
icar
jima
jiri
lsd
mabel
naga
nanny
oates
tama
tbs
taca
ua
wished
##like
##lins
##num
##cans
##hab
##hya
##hyla
##bitt
##erte
inex
##isely
##isburg
ange
anwar
##asato
toss
##elier
##odi
arezzo
pea
##acp
scent
hertha
agenda
1037
reply
janis
basins
1120
1138
1497
sauces
soo
overnight
maury
eliot
noth
quake
modification
gamespot
##rios
landown
##ammar
annona
##atori
##ophilia
summar
keio
bien
biom
farah
wentworth
talbot
vein
##905
ceph
hamas
##yrd
##olfo
darrell
rods
shootout
gaol
selma
landsberg
gabor
bede
bonding
electorates
douglass
fashioned
bathing
gibbons
sensor
ozone
tempore
bilingual
porcel
##trans
botanists
gifted
entrepreneurs
tactical
prosecution
tightly
grimm
brutus
leakey
kiyosato
aaliyah
archduch
feyenoord
warehouse
thoroughbred
triton
disturbed
resonance
ortega
scorsese
jans
kott
krem
lopes
nal
npr
nievre
pga
tory
##hound
##fels
##kol
##wid
##wijk
##yuki
##arp
##atma
##lez
##ammer
##elton
##iran
##cey
shrev
##ummer
##raw
unint
plumb
spagh
ender
haskell
##ucer
committing
scall
sermon
phou
1631
1286
1488
##neur
guth
airborne
##urov
quang
barley
barrie
underlying
harley
##both
legions
irr
mids
##anao
faro
meso
berth
superfamily
needles
trough
confusing
secretariat
denotes
sexes
maturity
procession
penicill
ivorian
sugars
facel
##khar
domination
##ohn
orchard
raman
1508
mccull
favre
1554
drying
1308
siddi
vertebrate
impacts
##ogenesis
chromat
determines
perfection
battleship
hazara
havel
aborigines
apparatus
gnome
ostro
sindhi
absorbs
riviera
shakur
conceived
brackets
navarro
rostov
whitesmoke
gaulle
disguised
cremated
silvio
remnant
clapton
iqbal
deployed
tuvalu
impaired
suleiman
montenegrin
graveyard
cagliari
paramilitary
shreveport
dared
gough
kool
kano
mith
nieu
o2
rm
tirol
zebra
##bag
##xes
##zeb
##ат
##eren
##esch
##oran
##enwald
##atomic
##edience
##oub
##oler
rebrand
hebr
cheb
spins
arenas
lining
excl
##acho
##toon
1212
1217
1278
1439
relics
sai
geologic
medellin
##uros
assert
wherever
##asek
bandit
remy
myrt
##ontroll
legged
taur
ordering
catfish
fremantle
rails
eventual
squads
fewest
ballarat
premio
multilingual
candice
curling
dario
##azzi
rollins
masterpiece
bullock
altman
sabot
elders
mortgage
ladakh
ridley
whitman
encyclopaedia
discussing
necklace
eliminate
contempor
pioneering
breaststroke
blindness
reflecting
narrated
heaviest
mazda
diablo
spirituality
mendels
reunification
analyt
chatea
trigon
ornamental
vaginal
niels
##fluoride
overlap
swabia
yakovlev
conjug
hyperbolic
panamanian
elektra
luxembourgian
bartholomew
aik
bile
kiv
loll
nus
ots
pell
suez
##fic
##fra
##kot
##kash
##xit
inactive
##asp
ales
ons
beb
shale
##iaz
unanim
##estation
proc
##ainville
arama
marius
linkin
birken
roach
roths
##quest
flock
centennial
1432
##wei
1386
grouping
suppress
barriers
oldham
interd
landings
breach
corpse
suites
incub
filmmakers
defens
solic
##zees
natur
jacks
badger
massey
mustang
purcell
wilma
gallo
naacp
chaired
savings
dinamo
rodent
messina
occupying
##trak
swept
1563
marcia
haired
searched
misunder
surveys
investigative
weakening
lockdown
discusses
contacts
compilations
blooms
priority
podium
gonzalo
cleric
dwelling
brahman
choreography
mouths
navigator
zimbabwean
concordia
counselor
magnetism
multiplied
centimetres
antenna
rebuilding
lifespan
asiatic
delgado
asexual
meurthe
mukherjee
padua
mendelssohn
bt
bong
duma
fue
komb
mika
pies
vsev
xeon
##hine
##wah
##ал
thesp
##inac
##olon
##elde
##stall
##style
alar
stakes
chum
deeds
##aguan
shov
atkinson
pli
##arty
##ichthys
dijon
##ogie
##ptonshire
exagger
afonso
knots
parrots
1017
bloch
1232
1524
novo
1448
1494
gru
schism
1395
gret
britons
##ologie
trapp
maul
##inta
rockwell
##atorium
brewers
comedic
operetta
##anez
illum
downloads
malaya
advancing
presently
grandma
haq
haas
mca
firefox
##evil
etudes
sargent
bait
softball
qualifications
sommer
pasc
darth
maharaja
##khan
synod
gaia
snowy
43rd
offerings
innings
specifications
dedication
fabian
fabio
ppv
disappears
interpreter
compiler
sakai
regulatory
circumference
geraldine
surfing
pieter
methyl
morphology
marcelo
exported
gadd
eugenio
checking
determining
jalal
##ungsbez
stamford
excessive
##oglob
caterpillars
peyton
hodgkin
huntsville
phylogeny
awakening
weightlifters
##opteryx
consecrated
rhetoric
deciduous
veracruz
nausea
hebrides
rothschild
auss
bota
baek
cumb
cotes
dich
e4
fand
hunch
nike
oo
pfe
rigg
ux
ws
yal
zell
##fk
##pok
##plex
##into
##orov
##itre
##lei
##ouf
aldo
staling
##otov
##aguchi
##terozoic
unde
##estinal
plasm
orne
orwell
spor
marlow
##ublish
fric
##astrian
##upi
canopy
manic
webber
##ikova
##ultures
cooke
resumed
scher
scholl
sauv
broker
outline
famer
strick
##intestinal
islander
empower
rematch
emission
archimed
romanov
##ophon
treats
vij
sonatas
debated
rhacoph
martina
horus
melted
failures
##efin
violins
bankers
distribute
distributor
##iyya
textbooks
##laughter
mirage
microphone
hopper
logs
coldest
##imento
imperialism
##istaberg
precisely
sedg
theorists
pavia
chrome
##points
spyro
1669
delivering
hubbard
soundtracks
tetra
smoked
amplif
patented
consequently
bhutto
caldera
parthian
vibrations
tupolev
commodity
recovering
higgs
kvistaberg
kaisers
##omorphic
iberia
gondwana
toilets
deutschland
privileges
indycar
chimpanzees
aerosmith
thierry
gastrointestinal
nurnberg
vaisala
pegasus
trolley
foreskin
foothills
pakhangba
a6
dk
dose
dread
gyn
ghe
gills
giza
joshi
r2
sanger
##rip
##guns
##cut
##catch
##hua
##jn
##oras
##enthe
##isaurus
##aski
##asca
isere
##ilh
reapp
##iren
forte
healy
chard
##opro
shill
bytes
##eard
##api
##aines
lei
prag
prism
arson
##orna
##ostak
trios
serene
norbert
adhes
collin
parlement
1613
1614
1518
octavian
1436
1318
##alski
depicts
swans
swims
liar
geh
establishes
locust
humour
demi
annoy
easton
runoff
soluble
##nais
expon
directorate
cyst
visually
receivers
##forth
##751
damian
sharpe
convey
citadel
murdering
cartel
warship
odessa
kingsley
44th
huber
shapiro
1559
1681
revealing
oberliga
banning
ventures
manslaughter
ovarian
saturdays
toxin
considerably
ferrara
rodrigues
complaint
cavaliers
##isoft
sturgeon
sustainability
babylonian
cigarette
adulthood
arvid
elegant
eccentricity
magdalena
sauropod
bounce
seahawks
threshold
colloqu
northamptonshire
yesterday
grenadines
regierungsbez
hydrochloric
stalingrad
cress
cuth
dicks
denton
durga
fj
gabb
huck
hilly
iata
kuch
lure
mire
pyeong
riy
vind
##tag
##hala
##bron
##kon
##enst
##enet
##alid
##itives
##istar
##otto
beers
chish
asimov
sears
comoros
spikes
##ieure
conch
##acchar
lek
wors
frans
clitor
newt
hertz
musik
parodies
1039
1236
1239
1543
charging
willough
smiley
moj
brawl
jehov
reddy
rais
salazar
vienn
merkel
dona
morley
##bergen
florent
marta
luf
postc
collectors
601
primate
trainor
##oyo
burnside
uluru
completes
brando
rotor
slovene
dealers
rugrats
suggestion
ganges
1305
bengals
guinean
preparations
ignor
immigrated
syndicate
migrants
sigma
hannibal
jailed
mannheim
##odonts
tanzanian
melodic
kendrick
licensing
cicero
supremacy
rubinstein
vortis
potsdam
exhaust
meyers
##estrians
guggen
svetlana
pepsi
ibaraki
schaffhausen
trousers
atchison
fg
fenn
kog
kank
kota
loun
sith
yesh
##tit
##vat
##eong
##bok
##maine
##wark
##wali
##zynski
##ит
thayer
##oron
inclusion
ankyl
##icest
##icism
##roup
##lema
##iguous
##throp
reese
alton
##allah
##avas
spun
spree
api
scra
1641
reperto
warlord
1365
wehr
artworks
elise
elgar
##ollern
mohan
quark
shower
speculation
##iente
filters
irma
##inkel
##zewski
morg
supercup
rhiz
khul
happily
successors
vegan
madden
judged
##709
benign
nightsh
administratively
##arios
junctions
lowercase
narnia
krill
maha
bowman
shrink
jonah
essence
##hru
guarded
alternatives
protesting
kilometer
dubois
grayson
maximus
lacks
demanding
##ascal
huron
jagger
udp
cocker
piquet
eisenstein
ponce
absorption
hippoc
gymnasts
consortium
gottingen
carriages
digestion
nicaraguan
judgement
tattoos
tiktok
##ophyllum
chichibu
remarks
hohenz
gossip
cursed
cactus
motorcycles
porsche
indochina
jehovah
aida
fission
fidd
jenna
kanch
nv
nfc
nizh
oun
tats
vila
wac
wired
łodz
##nin
##oia
##zio
##ßen
##onit
##arra
andro
##adz
##utin
##utra
##ulative
prun
##geons
truce
##achine
caric
adige
agatha
flinders
1098
resol
1115
1178
1377
doe
charitable
elects
bette
appo
cali
creuse
quo
surfer
##resh
##ukas
armando
loom
angolan
rockies
##ontaine
bios
severn
castes
##ylus
##kei
berk
markers
##meer
##ushin
activated
argu
samana
cantal
limb
limiting
purity
macfarlane
bored
cartographer
logos
synaps
theropods
scrub
mobil
praet
lasker
1206
##hofer
mammalian
litre
sundance
bagh
1607
piccad
youtuber
##breaks
fearless
sediments
crowds
bryn
sickle
scholarly
kaplan
chickens
consumed
havilland
calcio
protestantism
ripper
toulon
bjorn
capsule
harvested
gdansk
##ugeot
intentions
nicolae
pacheco
waterfalls
##glomerate
adultery
##arynx
bushranger
energetic
correze
##ovascular
prodigy
subcommit
##orchestes
asymmet
displacement
macquarie
hohenzollern
piccadilly
gomes
kana
oda
papp
tana
tutor
ume
wie
waver
##laut
##bilt
##mos
##kit
##pierre
##ел
ina
inge
##alur
ander
##entz
rechar
##ctv
##irable
onward
##igham
shem
shib
##umer
##aval
peat
peugeot
enn
leicest
##ameen
manners
clancy
clippers
notices
##ikos
adhd
indefin
##quate
jojo
1674
1237
1245
1585
relies
cranes
numbuh
capabilities
quir
quaker
##ielle
harlan
backward
watergate
##onti
avn
deficit
grandpa
erasmus
hooper
ideals
organizer
nicktoons
insol
fortifications
##royd
programmed
##iasm
cdc
##burton
naver
synonyms
##agno
dunedin
gaud
donaldson
dissident
hearst
daley
cleaned
calculating
pleased
milkweed
continuum
orbitals
connell
1662
dictionaries
sakura
honduran
grenoble
gradual
kristin
schwyz
substitution
vallad
folding
dyslex
yaroslav
battalions
cruelty
ffcc
weinstein
adrienne
squidward
martyrs
stapleton
pahlav
##alpindi
pikmin
emanc
colossus
epilepsy
mccormick
timbaland
flammable
chevalier
karachkina
prometheus
cinnamon
thessaloniki
nightingale
bourgeois
porcelain
willoughby
leicestershire
dames
fs
fff
grom
mch
mtr
oden
ostr
tn
zal
##rists
##gp
##mler
##ет
##orff
##aler
##roen
##thur
##irr
[...]
